<unk>	0
<s>	0
</s>	0
<pad>	0
<bos>	0
<eos>	0
<mask>	0
<INST>	0
</INST>	0
<SYS>	0
</SYS>	0
。\	-0
▁t	-1
▁"	-2
▁a	-3
in	-4
he	-5
te	-6
":	-7
re	-8
me	-9
on	-10
le	-11
ta	-12
▁the	-13
▁s	-14
20	-15
or	-16
er	-17
nd	-18
▁w	-19
▁c	-20
ou	-21
is	-22
▁{	-23
▁{"	-24
▁f	-25
ti	-26
ing	-27
xt	-28
an	-29
",	-30
▁p	-31
text	-32
meta	-33
▁o	-34
"}	-35
▁b	-36
ile	-37
es	-38
ar	-39
yp	-40
sk	-41
al	-42
it	-43
公司	-44
skyp	-45
skypile	-46
en	-47
▁to	-48
▁in	-49
▁and	-50
00	-51
可以	-52
▁of	-53
▁d	-54
ed	-55
我们	-56
ha	-57
ro	-58
ic	-59
工作	-60
▁m	-61
企业	-62
.\	-63
一个	-64
产品	-65
as	-66
发展	-67
进行	-68
tion	-69
中国	-70
技术	-71
服务	-72
ll	-73
使用	-74
201	-75
▁S	-76
ra	-77
et	-78
ve	-79
us	-80
▁l	-81
▁C	-82
▁re	-83
▁e	-84
▁n	-85
am	-86
▁T	-87
管理	-88
生产	-89
10	-90
▁A	-91
▁I	-92
id	-93
自己	-94
▁y	-95
om	-96
设备	-97
时间	-98
\"	-99
▁g	-100
通过	-101
系统	-102
需要	-103
设计	-104
ly	-105
ter	-106
ac	-107
市场	-108
ho	-109
提供	-110
▁is	-111
nt	-112
▁for	-113
ec	-114
▁M	-115
项目	-116
▁on	-117
at	-118
没有	-119
。",	-120
ay	-121
安全	-122
问题	-123
专业	-124
ig	-125
▁you	-126
..	-127
国家	-128
▁P	-129
主要	-130
行业	-131
il	-132
ver	-133
19	-134
如果	-135
ol	-136
hat	-137
研究	-138
工程	-139
▁ha	-140
▁be	-141
ur	-142
生活	-143
▁B	-144
治疗	-145
就是	-146
同时	-147
ith	-148
环境	-149
具有	-150
以及	-151
ow	-152
好的	-153
ce	-154
建设	-155
;\	-156
▁th	-157
要求	-158
他们	-159
活动	-160
os	-161
ts	-162
质量	-163
影响	-164
12	-165
情况	-166
不同	-167
ir	-168
材料	-169
ad	-170
aj	-171
ation	-172
202	-173
ri	-174
处理	-175
是一	-176
教育	-177
选择	-178
ama	-179
方面	-180
可能	-181
因为	-182
▁with	-183
信息	-184
重要	-185
人员	-186
中心	-187
un	-188
ot	-189
ate	-190
世界	-191
ajama	-192
ame	-193
el	-194
▁D	-195
大家	-196
患者	-197
相关	-198
什么	-199
很多	-200
▁(	-201
11	-202
应用	-203
▁that	-204
red	-205
ge	-206
所以	-207
经济	-208
!\	-209
▁h	-210
非常	-211
的一	-212
客户	-213
这个	-214
白癜	-215
白癜风	-216
大学	-217
有限	-218
▁W	-219
▁H	-220
根据	-221
目前	-222
▁F	-223
能力	-224
▁R	-225
社会	-226
作为	-227
国际	-228
大的	-229
对于	-230
成为	-231
ch	-232
”,	-233
中的	-234
30	-235
?\	-236
过程	-237
数据	-238
出现	-239
pp	-240
200	-241
科技	-242
已经	-243
▁he	-244
▁pro	-245
采用	-246
提高	-247
▁L	-248
▁it	-249
ut	-250
标准	-251
15	-252
▁an	-253
能够	-254
:\	-255
合作	-256
也是	-257
产业	-258
这样	-259
方式	-260
投资	-261
部分	-262
的人	-263
im	-264
ill	-265
),	-266
品牌	-267
一定	-268
有限公司	-269
文化	-270
创新	-271
这些	-272
了解	-273
▁we	-274
ul	-275
▁G	-276
第一	-277
ke	-278
功能	-279
集团	-280
od	-281
se	-282
表示	-283
其他	-284
▁as	-285
1.	-286
健康	-287
实现	-288
学生	-289
以上	-290
一些	-291
th	-292
因此	-293
控制	-294
建筑	-295
时候	-296
ers	-297
方法	-298
▁N	-299
开始	-300
res	-301
▁E	-302
▁con	-303
工业	-304
比赛	-305
包括	-306
用于	-307
ment	-308
our	-309
一般	-310
用户	-311
作用	-312
获得	-313
。”	-314
▁are	-315
但是	-316
平台	-317
比较	-318
ent	-319
ew	-320
结构	-321
学习	-322
其中	-323
ted	-324
医院	-325
学校	-326
if	-327
由于	-328
城市	-329
▁at	-330
需求	-331
▁v	-332
组织	-333
北京	-334
不断	-335
开发	-336
)\	-337
her	-338
人的	-339
发生	-340
内容	-341
自己的	-342
2.	-343
▁de	-344
现在	-345
st	-346
50	-347
单位	-348
ld	-349
各种	-350
都是	-351
18	-352
到了	-353
ome	-354
out	-355
▁The	-356
完成	-357
oc	-358
qu	-359
的是	-360
科学	-361
全国	-362
制造	-363
领域	-364
igh	-365
提升	-366
ble	-367
注意	-368
ion	-369
价格	-370
ity	-371
▁com	-372
所有	-373
不是	-374
100	-375
政府	-376
网站	-377
效果	-378
op	-379
▁or	-380
还是	-381
rom	-382
性能	-383
网络	-384
国内	-385
解决	-386
um	-387
基础	-388
ore	-389
资源	-390
智能	-391
16	-392
▁me	-393
不能	-394
自动	-395
这种	-396
▁O	-397
ess	-398
nT	-399
消费	-400
增加	-401
保护	-402
孩子	-403
产生	-404
有效	-405
更多	-406
为了	-407
美国	-408
地区	-409
希望	-410
不会	-411
那么	-412
而且	-413
电子	-414
3.	-415
发现	-416
▁st	-417
▁ex	-418
必须	-419
学院	-420
个人	-421
拥有	-422
set	-423
ct	-424
系列	-425
分析	-426
name	-427
加工	-428
安装	-429
一步	-430
介绍	-431
达到	-432
14	-433
利用	-434
年的	-435
机构	-436
业务	-437
开展	-438
机械	-439
汽车	-440
检测	-441
销售	-442
支持	-443
增长	-444
▁from	-445
人民	-446
操作	-447
如何	-448
部门	-449
▁J	-450
▁was	-451
导致	-452
经营	-453
来的	-454
帮助	-455
上的	-456
之后	-457
积极	-458
游戏	-459
方案	-460
Red	-461
代表	-462
▁by	-463
全球	-464
计划	-465
水平	-466
:“	-467
温度	-468
或者	-469
上海	-470
ud	-471
ard	-472
特别	-473
容易	-474
新的	-475
还有	-476
▁le	-477
造成	-478
一起	-479
"}}	-480
redp	-481
稳定	-482
RedP	-483
RedPajama	-484
redpajama	-485
的时候	-486
▁this	-487
▁al	-488
up	-489
ear	-490
直接	-491
oo	-492
不仅	-493
随着	-494
精神	-495
知道	-496
施工	-497
▁\"	-498
▁your	-499
会议	-500
综合	-501
and	-502
来说	-503
13	-504
25	-505
第二	-506
ia	-507
持续	-508
进入	-509
▁have	-510
参加	-511
%,	-512
过程中	-513
发布	-514
2021	-515
ust	-516
17	-517
传统	-518
之一	-519
▁us	-520
ub	-521
显示	-522
应该	-523
研发	-524
▁se	-525
1、	-526
保持	-527
ine	-528
est	-529
tic	-530
更加	-531
2、	-532
▁will	-533
食品	-534
任何	-535
rou	-536
▁can	-537
保证	-538
分钟	-539
基本	-540
形成	-541
疾病	-542
2020	-543
000	-544
负责	-545
ure	-546
自然	-547
工艺	-548
24	-549
▁U	-550
现场	-551
运动	-552
知识	-553
2022	-554
ist	-555
我们的	-556
条件	-557
这一	-558
有关	-559
疫情	-560
结合	-561
空间	-562
之间	-563
超过	-564
规定	-565
范围	-566
团队	-567
了一	-568
艺术	-569
今年	-570
未来	-571
成功	-572
检查	-573
认为	-574
uc	-575
培训	-576
球队	-577
经过	-578
我国	-579
0.	-580
进一步	-581
成本	-582
▁ho	-583
环保	-584
虽然	-585
优势	-586
RedPajamaC	-587
广泛	-588
减少	-589
目标	-590
亿元	-591
体的	-592
经验	-593
og	-594
压力	-595
表面	-596
▁sta	-597
存在	-598
及时	-599
▁wor	-600
员工	-601
重点	-602
这是	-603
皮肤	-604
实际	-605
朋友	-606
许多	-607
继续	-608
人们	-609
ry	-610
ag	-611
生物	-612
关于	-613
ort	-614
关系	-615
专家	-616
原因	-617
ide	-618
历史	-619
最后	-620
ip	-621
简单	-622
体系	-623
一直	-624
▁en	-625
空气	-626
交通	-627
价值	-628
责任	-629
取得	-630
职业	-631
--	-632
以下	-633
nA	-634
避免	-635
2019	-636
申请	-637
政策	-638
参与	-639
不要	-640
旅游	-641
并且	-642
运行	-643
▁pl	-644
60	-645
降低	-646
地方	-647
制作	-648
▁sp	-649
教学	-650
▁has	-651
金属	-652
▁r	-653
模式	-654
3、	-655
表现	-656
ight	-657
全面	-658
,“	-659
成立	-660
ff	-661
快速	-662
▁K	-663
是否	-664
是一种	-665
丰富	-666
ak	-667
40	-668
交流	-669
▁wh	-670
ap	-671
人才	-672
满足	-673
4.	-674
ite	-675
▁j	-676
现代	-677
期间	-678
规划	-679
面积	-680
特点	-681
联网	-682
身体	-683
得到	-684
——	-685
ind	-686
能源	-687
共同	-688
结果	-689
ies	-690
建立	-691
污染	-692
all	-693
性的	-694
一次	-695
实施	-696
加强	-697
报告	-698
医疗	-699
只有	-700
方便	-701
▁ac	-702
gh	-703
赛季	-704
ook	-705
保障	-706
无法	-707
的发展	-708
日本	-709
)、	-710
一样	-711
不过	-712
▁ch	-713
ie	-714
交易	-715
变化	-716
受到	-717
▁all	-718
才能	-719
努力	-720
计算	-721
建议	-722
确保	-723
以来	-724
实验	-725
▁not	-726
▁V	-727
甚至	-728
▁In	-729
严重	-730
iv	-731
ber	-732
玻璃	-733
的大	-734
nThe	-735
关注	-736
关键	-737
咨询	-738
的高	-739
带来	-740
age	-741
ice	-742
ould	-743
▁k	-744
记者	-745
除了	-746
做好	-747
坚持	-748
正常	-749
....	-750
出了	-751
▁comp	-752
两个	-753
”。	-754
▁2	-755
推动	-756
一种	-757
80	-758
领导	-759
体育	-760
art	-761
高的	-762
不同的	-763
状态	-764
第三	-765
one	-766
化学	-767
阶段	-768
ial	-769
效率	-770
小时	-771
从而	-772
按照	-773
今天	-774
作品	-775
软件	-776
因素	-777
ack	-778
充分	-779
ue	-780
促进	-781
长期	-782
ain	-783
然后	-784
牛皮	-785
先进	-786
ong	-787
ast	-788
怎么	-789
规模	-790
▁ad	-791
打造	-792
基金	-793
2018	-794
年来	-795
球员	-796
量的	-797
生态	-798
竞争	-799
数字	-800
包装	-801
ich	-802
分别	-803
时代	-804
万元	-805
体验	-806
是在	-807
4"}}	-808
品质	-809
核心	-810
其实	-811
起来	-812
委员	-813
ime	-814
牛皮癣	-815
良好的	-816
越来	-817
媒体	-818
家庭	-819
调整	-820
正在	-821
越来越	-822
▁cl	-823
机会	-824
hen	-825
▁ab	-826
银行	-827
ass	-828
组成	-829
ost	-830
nI	-831
per	-832
消费者	-833
for	-834
维护	-835
有的	-836
金融	-837
.",	-838
执行	-839
老师	-840
办公	-841
手机	-842
针对	-843
注册	-844
的新	-845
看到	-846
ab	-847
ans	-848
一下	-849
设施	-850
联赛	-851
就会	-852
▁do	-853
▁ne	-854
测试	-855
em	-856
接受	-857
are	-858
速度	-859
联合	-860
区域	-861
23	-862
运输	-863
来自	-864
风险	-865
决定	-866
so	-867
视频	-868
les	-869
出的	-870
物质	-871
▁sa	-872
这里	-873
完全	-874
氧化	-875
发挥	-876
适合	-877
宣传	-878
培养	-879
ther	-880
电影	-881
厂家	-882
欢迎	-883
理念	-884
的情况	-885
iz	-886
ace	-887
喜欢	-888
5.	-889
你的	-890
优秀	-891
推进	-892
▁go	-893
不可	-894
位于	-895
tive	-896
也有	-897
考虑	-898
措施	-899
。”\	-900
卫生	-901
pl	-902
形式	-903
的产品	-904
符合	-905
协会	-906
课程	-907
22	-908
to	-909
引起	-910
他的	-911
ally	-912
都有	-913
最终	-914
ric	-915
考试	-916
ant	-917
方向	-918
主题	-919
联系	-920
战略	-921
之前	-922
整体	-923
▁up	-924
正式	-925
ep	-926
左右	-927
ks	-928
资料	-929
十分	-930
音乐	-931
优质	-932
ake	-933
运营	-934
的工作	-935
▁but	-936
明显	-937
▁-	-938
教师	-939
细胞	-940
指导	-941
供应	-942
ign	-943
商业	-944
症状	-945
28	-946
的问题	-947
法律	-948
▁3	-949
程度	-950
▁su	-951
合理	-952
化的	-953
此外	-954
互联网	-955
整个	-956
的话	-957
ive	-958
und	-959
▁their	-960
具体	-961
行为	-962
属于	-963
资金	-964
强度	-965
ys	-966
4、	-967
ven	-968
tions	-969
cl	-970
▁im	-971
美元	-972
199	-973
26	-974
另外	-975
是一个	-976
创造	-977
ous	-978
程序	-979
nS	-980
故事	-981
文件	-982
完善	-983
ated	-984
▁Y	-985
重要的	-986
绿色	-987
2017	-988
装置	-989
本次	-990
此次	-991
特色	-992
机的	-993
位置	-994
▁our	-995
成绩	-996
哪些	-997
普通	-998
▁more	-999
反应	-1000
▁res	-1001
事业	-1002
连接	-1003
27	-1004
产品的	-1005
21	-1006
规范	-1007
目的	-1008
准备	-1009
儿童	-1010
▁sc	-1011
农业	-1012
都会	-1013
物流	-1014
**	-1015
▁un	-1016
我的	-1017
ire	-1018
ect	-1019
very	-1020
▁new	-1021
毕业	-1022
严格	-1023
mm	-1024
able	-1025
塑料	-1026
多种	-1027
酒店	-1028
自身	-1029
尤其	-1030
tal	-1031
香港	-1032
erv	-1033
广州	-1034
的重要	-1035
ne	-1036
av	-1037
举办	-1038
本文	-1039
▁out	-1040
”、	-1041
也会	-1042
▁so	-1043
购买	-1044
机器	-1045
ach	-1046
日常	-1047
费用	-1048
6.	-1049
分为	-1050
试验	-1051
经常	-1052
移动	-1053
心理	-1054
通常	-1055
确定	-1056
首先	-1057
基地	-1058
山东	-1059
年度	-1060
来看	-1061
动力	-1062
下降	-1063
ase	-1064
生命	-1065
电视	-1066
ord	-1067
食物	-1068
》,	-1069
500	-1070
个月	-1071
社区	-1072
举行	-1073
落实	-1074
加入	-1075
后的	-1076
”。\	-1077
▁one	-1078
深圳	-1079
连续	-1080
一定要	-1081
多的	-1082
特殊	-1083
不少	-1084
改变	-1085
▁app	-1086
ike	-1087
▁off	-1088
任务	-1089
ark	-1090
com	-1091
收入	-1092
化工	-1093
ond	-1094
70	-1095
vel	-1096
发展的	-1097
保险	-1098
lic	-1099
认证	-1100
大型	-1101
电话	-1102
经理	-1103
ob	-1104
不得	-1105
接触	-1106
在线	-1107
相对	-1108
90	-1109
ten	-1110
▁his	-1111
新闻	-1112
▁year	-1113
它的	-1114
电池	-1115
▁man	-1116
广告	-1117
增强	-1118
出口	-1119
ree	-1120
▁some	-1121
全部	-1122
▁which	-1123
比如	-1124
广大	-1125
冠军	-1126
感觉	-1127
只要	-1128
▁time	-1129
行动	-1130
成果	-1131
主任	-1132
ien	-1133
面对	-1134
ance	-1135
的事	-1136
测量	-1137
展示	-1138
进行了	-1139
ary	-1140
排名	-1141
用的	-1142
寿命	-1143
页第	-1144
创业	-1145
类型	-1146
有机	-1147
具备	-1148
每个	-1149
▁qu	-1150
也不	-1151
▁they	-1152
2016	-1153
内的	-1154
改革	-1155
▁who	-1156
力量	-1157
从事	-1158
ss	-1159
当地	-1160
多个	-1161
污水	-1162
▁te	-1163
分享	-1164
书记	-1165
安排	-1166
29	-1167
his	-1168
同比	-1169
不锈	-1170
▁per	-1171
营养	-1172
并不	-1173
内部	-1174
医生	-1175
有些	-1176
防止	-1177
只是	-1178
▁about	-1179
实力	-1180
▁also	-1181
不锈钢	-1182
可靠	-1183
想要	-1184
工具	-1185
深入	-1186
▁work	-1187
调查	-1188
)。	-1189
改善	-1190
同学	-1191
保温	-1192
过去	-1193
科研	-1194
中央	-1195
ov	-1196
委员会	-1197
通知	-1198
这样的	-1199
指出	-1200
ting	-1201
公共	-1202
制度	-1203
腐蚀	-1204
股份	-1205
相信	-1206
一定的	-1207
结束	-1208
营销	-1209
也可以	-1210
nW	-1211
vers	-1212
药物	-1213
1-	-1214
推广	-1215
商品	-1216
现象	-1217
,\	-1218
▁Ch	-1219
ild	-1220
▁ar	-1221
智慧	-1222
当然	-1223
消息	-1224
成长	-1225
各类	-1226
开放	-1227
升级	-1228
%。	-1229
清洗	-1230
ove	-1231
nC	-1232
节能	-1233
实践	-1234
)。\	-1235
管道	-1236
设置	-1237
下面	-1238
高速	-1239
的小	-1240
ng	-1241
提出	-1242
气体	-1243
▁19	-1244
广东	-1245
led	-1246
常见	-1247
ang	-1248
觉得	-1249
ms	-1250
资格	-1251
电机	-1252
意识	-1253
摘要	-1254
最大	-1255
平方	-1256
报名	-1257
ors	-1258
恢复	-1259
ress	-1260
无论	-1261
\\	-1262
仪器	-1263
2015	-1264
ays	-1265
领先	-1266
双方	-1267
ations	-1268
明确	-1269
电动	-1270
意义	-1271
ck	-1272
例如	-1273
ni	-1274
足球	-1275
样的	-1276
▁=	-1277
真正	-1278
end	-1279
7.	-1280
▁sh	-1281
资产	-1282
教授	-1283
技能	-1284
合同	-1285
适用于	-1286
▁dis	-1287
公司的	-1288
贡献	-1289
为主	-1290
每天	-1291
高温	-1292
说明	-1293
力的	-1294
场比赛	-1295
下来	-1296
own	-1297
高度	-1298
ount	-1299
距离	-1300
行政	-1301
。“	-1302
高效	-1303
35	-1304
欧洲	-1305
ere	-1306
免费	-1307
企业的	-1308
▁4	-1309
室内	-1310
专业的	-1311
集中	-1312
正确	-1313
form	-1314
加热	-1315
装饰	-1316
vi	-1317
您的	-1318
循环	-1319
意见	-1320
”、“	-1321
白斑	-1322
植物	-1323
ory	-1324
饮食	-1325
▁tra	-1326
mon	-1327
白癜风的	-1328
训练	-1329
。(	-1330
垃圾	-1331
困难	-1332
重视	-1333
报道	-1334
▁get	-1335
优化	-1336
ail	-1337
上市	-1338
▁my	-1339
防控	-1340
车辆	-1341
大多	-1342
知名	-1343
维修	-1344
cess	-1345
再次	-1346
纤维	-1347
配合	-1348
感染	-1349
如此	-1350
做到	-1351
5、	-1352
消防	-1353
病情	-1354
银屑	-1355
有一	-1356
电力	-1357
干燥	-1358
过滤	-1359
劳动	-1360
清洁	-1361
银屑病	-1362
di	-1363
▁been	-1364
▁ro	-1365
青年	-1366
▁1	-1367
道路	-1368
性和	-1369
投入	-1370
▁ra	-1371
颜色	-1372
公里	-1373
风格	-1374
复杂	-1375
解决方案	-1376
相当	-1377
就业	-1378
下的	-1379
就可以	-1380
we	-1381
它们	-1382
群众	-1383
出来	-1384
有所	-1385
公开	-1386
可能会	-1387
▁other	-1388
最佳	-1389
董事	-1390
去年	-1391
大量	-1392
将在	-1393
本文摘要	-1394
中华	-1395
有着	-1396
年轻	-1397
等等	-1398
重大	-1399
启动	-1400
的时间	-1401
运用	-1402
tern	-1403
相比	-1404
合金	-1405
他们的	-1406
公布	-1407
详细	-1408
办法	-1409
吸引	-1410
ru	-1411
英国	-1412
数量	-1413
必要	-1414
nP	-1415
...	-1416
挑战	-1417
医学	-1418
展开	-1419
逐渐	-1420
▁over	-1421
机制	-1422
统计	-1423
理论	-1424
▁no	-1425
oin	-1426
por	-1427
预计	-1428
状况	-1429
▁like	-1430
预防	-1431
▁$	-1432
▁its	-1433
负责人	-1434
8.	-1435
成都	-1436
面的	-1437
度的	-1438
▁sho	-1439
近日	-1440
!",	-1441
ings	-1442
浙江	-1443
自由	-1444
ish	-1445
分子	-1446
ick	-1447
东西	-1448
器的	-1449
一体	-1450
最高	-1451
处于	-1452
证明	-1453
然而	-1454
加盟	-1455
nB	-1456
设备的	-1457
ater	-1458
▁'	-1459
irst	-1460
▁ag	-1461
风机	-1462
wn	-1463
女性	-1464
文章	-1465
致力	-1466
oy	-1467
理解	-1468
tes	-1469
决赛	-1470
的服务	-1471
作业	-1472
reat	-1473
先生	-1474
采取	-1475
▁5	-1476
的影响	-1477
流程	-1478
统一	-1479
融合	-1480
如今	-1481
不到	-1482
实验室	-1483
▁any	-1484
ound	-1485
玩家	-1486
监督	-1487
▁ins	-1488
ties	-1489
称为	-1490
重庆	-1491
tain	-1492
nM	-1493
推荐	-1494
记录	-1495
▁We	-1496
原则	-1497
▁St	-1498
即可	-1499
成员	-1500
太阳	-1501
固定	-1502
监测	-1503
各项	-1504
人类	-1505
趋势	-1506
▁des	-1507
官方	-1508
德国	-1509
ian	-1510
值得	-1511
平均	-1512
商务	-1513
多少	-1514
▁fe	-1515
mer	-1516
语言	-1517
大利	-1518
制定	-1519
形象	-1520
州市	-1521
下午	-1522
更好	-1523
推出	-1524
迅速	-1525
生活中	-1526
ib	-1527
江苏	-1528
准确	-1529
的方式	-1530
%。\	-1531
▁if	-1532
涉及	-1533
gra	-1534
ata	-1535
之间的	-1536
更多的	-1537
urn	-1538
顺利	-1539
认识	-1540
最近	-1541
制品	-1542
病毒	-1543
思想	-1544
duc	-1545
应用于	-1546
各地	-1547
300	-1548
oll	-1549
ps	-1550
是什么	-1551
IS	-1552
2014	-1553
45	-1554
wo	-1555
适应	-1556
电脑	-1557
密封	-1558
元素	-1559
方面的	-1560
9.	-1561
▁pe	-1562
进口	-1563
一年	-1564
线上	-1565
乐部	-1566
天然	-1567
为什么	-1568
重新	-1569
协议	-1570
ction	-1571
肯定	-1572
沟通	-1573
四川	-1574
▁–	-1575
另一	-1576
认真	-1577
俱乐部	-1578
覆盖	-1579
工作的	-1580
▁when	-1581
的一种	-1582
找到	-1583
▁rec	-1584
加快	-1585
习惯	-1586
强的	-1587
家长	-1588
31	-1589
采购	-1590
活性	-1591
2000	-1592
LE	-1593
人体	-1594
clud	-1595
月份	-1596
);\	-1597
办理	-1598
观众	-1599
-0	-1600
临床	-1601
人工	-1602
ink	-1603
台湾	-1604
人士	-1605
▁kn	-1606
独特	-1607
▁pre	-1608
大会	-1609
突破	-1610
ple	-1611
nc	-1612
武汉	-1613
始终	-1614
信号	-1615
hed	-1616
以后	-1617
证书	-1618
流量	-1619
输送	-1620
▁said	-1621
经历	-1622
更新	-1623
fter	-1624
最新	-1625
▁的	-1626
公路	-1627
▁need	-1628
居民	-1629
丰富的	-1630
调节	-1631
仍然	-1632
混合	-1633
▁her	-1634
每一	-1635
当时	-1636
原料	-1637
更好的	-1638
掌握	-1639
会有	-1640
净化	-1641
专利	-1642
的企业	-1643
扩大	-1644
刺激	-1645
队伍	-1646
贸易	-1647
期的	-1648
rough	-1649
相应	-1650
平方米	-1651
最大的	-1652
ons	-1653
新型	-1654
小组	-1655
anc	-1656
▁It	-1657
良好	-1658
评价	-1659
职工	-1660
召开	-1661
党委	-1662
三个	-1663
河南	-1664
身份	-1665
医药	-1666
电源	-1667
工厂	-1668
成分	-1669
”\	-1670
监管	-1671
场所	-1672
农村	-1673
▁were	-1674
ty	-1675
不足	-1676
每年	-1677
代理	-1678
感谢	-1679
here	-1680
吸收	-1681
展现	-1682
葡萄	-1683
之外	-1684
告诉	-1685
伙伴	-1686
患者的	-1687
航空	-1688
来源	-1689
ange	-1690
的主要	-1691
▁there	-1692
部件	-1693
文明	-1694
党员	-1695
nce	-1696
涂料	-1697
▁am	-1698
本身	-1699
强化	-1700
亚洲	-1701
的作用	-1702
ical	-1703
中小	-1704
高质量	-1705
只能	-1706
让人	-1707
▁than	-1708
享受	-1709
地产	-1710
致力于	-1711
世界杯	-1712
优点	-1713
更是	-1714
一点	-1715
节目	-1716
生长	-1717
ning	-1718
真的	-1719
tem	-1720
蛋白	-1721
是由	-1722
这次	-1723
提供了	-1724
博士	-1725
ull	-1726
ft	-1727
ens	-1728
ments	-1729
▁cont	-1730
石油	-1731
铁路	-1732
相同	-1733
自主	-1734
ual	-1735
呈现	-1736
nH	-1737
PP	-1738
尺寸	-1739
及其	-1740
动物	-1741
全体	-1742
令人	-1743
的技术	-1744
添加	-1745
36	-1746
自动化	-1747
基于	-1748
装修	-1749
有了	-1750
橡胶	-1751
理想	-1752
危害	-1753
day	-1754
use	-1755
追求	-1756
治理	-1757
含有	-1758
众多	-1759
▁,	-1760
▁tr	-1761
主动	-1762
护理	-1763
近年来	-1764
......	-1765
往往	-1766
将会	-1767
者的	-1768
▁would	-1769
round	-1770
▁Re	-1771
完整	-1772
如下	-1773
限制	-1774
当前	-1775
机关	-1776
还要	-1777
免疫	-1778
定制	-1779
阅读	-1780
政治	-1781
nF	-1782
而言	-1783
资本	-1784
ople	-1785
大大	-1786
的地方	-1787
▁into	-1788
小编	-1789
传播	-1790
公园	-1791
配置	-1792
尤其是	-1793
发病	-1794
很多人	-1795
学术	-1796
pe	-1797
支付	-1798
学科	-1799
1000	-1800
指标	-1801
复合	-1802
行业的	-1803
比例	-1804
▁first	-1805
▁He	-1806
很大	-1807
参考	-1808
的同时	-1809
评估	-1810
传感	-1811
系统的	-1812
▁&	-1813
两种	-1814
幸福	-1815
那些	-1816
配套	-1817
含量	-1818
岗位	-1819
组合	-1820
少年	-1821
冷却	-1822
hn	-1823
离子	-1824
示范	-1825
回收	-1826
lo	-1827
世纪	-1828
iss	-1829
变得	-1830
不错	-1831
防护	-1832
生的	-1833
家具	-1834
高校	-1835
体现	-1836
即使	-1837
的治疗	-1838
加上	-1839
环节	-1840
ough	-1841
nD	-1842
还可以	-1843
各个	-1844
ler	-1845
▁Sta	-1846
充满	-1847
韩国	-1848
包含	-1849
分离	-1850
的好	-1851
▁what	-1852
计算机	-1853
干部	-1854
会上	-1855
▁6	-1856
▁includ	-1857
ational	-1858
》(	-1859
io	-1860
独立	-1861
▁op	-1862
▁prov	-1863
▁und	-1864
raw	-1865
的水	-1866
▁hel	-1867
民族	-1868
地址	-1869
的热	-1870
真实	-1871
手术	-1872
微信	-1873
排放	-1874
2013	-1875
▁serv	-1876
ters	-1877
装备	-1878
证券	-1879
的使用	-1880
大部分	-1881
特别是	-1882
创作	-1883
激光	-1884
ph	-1885
利润	-1886
使得	-1887
上升	-1888
▁had	-1889
学会	-1890
多年	-1891
定位	-1892
期待	-1893
的情况下	-1894
情绪	-1895
利于	-1896
焊接	-1897
探索	-1898
疫情防控	-1899
观察	-1900
而是	-1901
一家	-1902
教练	-1903
同样	-1904
空调	-1905
的要求	-1906
的方法	-1907
几乎	-1908
第四	-1909
直播	-1910
上午	-1911
总经理	-1912
ily	-1913
兴趣	-1914
合格	-1915
角度	-1916
办公室	-1917
99	-1918
承担	-1919
强调	-1920
宣布	-1921
这么	-1922
轴承	-1923
__	-1924
进步	-1925
》、	-1926
天津	-1927
有哪些	-1928
▁just	-1929
一切	-1930
主要是	-1931
发表	-1932
的基础	-1933
ult	-1934
登记	-1935
表达	-1936
土地	-1937
▁10	-1938
de	-1939
首次	-1940
特性	-1941
简称	-1942
▁bec	-1943
事件	-1944
色的	-1945
ock	-1946
au	-1947
支撑	-1948
英语	-1949
成了	-1950
改造	-1951
2010	-1952
材质	-1953
几个	-1954
ring	-1955
公告	-1956
原理	-1957
▁them	-1958
上述	-1959
将于	-1960
网上	-1961
:00	-1962
▁Pro	-1963
可以在	-1964
BA	-1965
事故	-1966
fere	-1967
精度	-1968
印刷	-1969
▁\	-1970
品种	-1971
▁co	-1972
新技术	-1973
85	-1974
ise	-1975
满意	-1976
act	-1977
危险	-1978
75	-1979
1)	-1980
冲击	-1981
天气	-1982
2)	-1983
主持	-1984
认可	-1985
创建	-1986
使用的	-1987
很大的	-1988
大多数	-1989
遇到	-1990
规格	-1991
考生	-1992
▁在	-1993
故障	-1994
有很多	-1995
成的	-1996
检验	-1997
父母	-1998
有人	-1999
高级	-2000
共享	-2001
的生活	-2002
生素	-2003
法国	-2004
▁col	-2005
时期	-2006
面临	-2007
很好的	-2008
资讯	-2009
标志	-2010
压缩	-2011
机场	-2012
校园	-2013
均匀	-2014
▁use	-2015
给予	-2016
▁people	-2017
驾驶	-2018
▁par	-2019
2012	-2020
曾经	-2021
等方面	-2022
部位	-2023
▁comm	-2024
其它	-2025
88	-2026
功率	-2027
放在	-2028
心的	-2029
如果你	-2030
当中	-2031
是一家	-2032
▁cons	-2033
物理	-2034
33	-2035
监控	-2036
感受	-2037
ale	-2038
ade	-2039
man	-2040
对手	-2041
神经	-2042
▁bu	-2043
背景	-2044
颗粒	-2045
提前	-2046
ful	-2047
市场的	-2048
为您	-2049
依据	-2050
混凝	-2051
最好	-2052
透过	-2053
讨论	-2054
河北	-2055
ath	-2056
▁Sc	-2057
构建	-2058
▁pos	-2059
物料	-2060
min	-2061
▁Com	-2062
要注意	-2063
高压	-2064
展览	-2065
总结	-2066
是指	-2067
打开	-2068
”“	-2069
物的	-2070
情况下	-2071
著名	-2072
▁through	-2073
做出	-2074
树脂	-2075
指数	-2076
的设计	-2077
>\	-2078
协助	-2079
通信	-2080
▁This	-2081
引导	-2082
尽量	-2083
先后	-2084
▁make	-2085
选用	-2086
时的	-2087
aw	-2088
主义	-2089
黑色	-2090
赛事	-2091
罗斯	-2092
row	-2093
转型	-2094
本科	-2095
新冠	-2096
尽管	-2097
就能	-2098
▁200	-2099
随后	-2100
ents	-2101
年龄	-2102
会员	-2103
句话	-2104
小的	-2105
get	-2106
▁help	-2107
定期	-2108
清楚	-2109
里的	-2110
渠道	-2111
ife	-2112
围绕	-2113
事项	-2114
▁how	-2115
外观	-2116
近期	-2117
▁two	-2118
营业	-2119
至今	-2120
娱乐	-2121
作者	-2122
ward	-2123
ork	-2124
仪式	-2125
角色	-2126
商标	-2127
志愿	-2128
应当	-2129
伤害	-2130
让我们	-2131
▁look	-2132
布局	-2133
季度	-2134
国内外	-2135
损失	-2136
半年	-2137
真空	-2138
驱动	-2139
舒适	-2140
ax	-2141
美丽	-2142
财务	-2143
图片	-2144
更换	-2145
提醒	-2146
素质	-2147
创意	-2148
进球	-2149
.\"	-2150
成熟	-2151
出版	-2152
▁em	-2153
精彩	-2154
▁star	-2155
亿美元	-2156
种植	-2157
的心	-2158
废水	-2159
自我	-2160
合适	-2161
▁sec	-2162
传感器	-2163
电缆	-2164
经典	-2165
400	-2166
▁supp	-2167
▁New	-2168
累计	-2169
鼓励	-2170
现实	-2171
上涨	-2172
▁most	-2173
li	-2174
邀请	-2175
The	-2176
诚信	-2177
唯一	-2178
日前	-2179
轻松	-2180
保养	-2181
的需求	-2182
截至	-2183
,\"	-2184
阳光	-2185
平衡	-2186
▁only	-2187
ER	-2188
▁ind	-2189
分布	-2190
主场	-2191
了一个	-2192
下载	-2193
ublic	-2194
▁she	-2195
万吨	-2196
中超	-2197
的一个	-2198
网友	-2199
园区	-2200
快乐	-2201
名单	-2202
分类	-2203
适当	-2204
rac	-2205
都在	-2206
▁part	-2207
湖南	-2208
6、	-2209
公众	-2210
部署	-2211
,《	-2212
工作人员	-2213
根本	-2214
输出	-2215
日起	-2216
▁0	-2217
突出	-2218
协调	-2219
一旦	-2220
拍摄	-2221
的生产	-2222
pec	-2223
iness	-2224
效益	-2225
并在	-2226
的原因	-2227
%;	-2228
专门	-2229
ron	-2230
确认	-2231
电器	-2232
美的	-2233
port	-2234
PS	-2235
担任	-2236
混凝土	-2237
售后	-2238
你们	-2239
表明	-2240
自行	-2241
▁years	-2242
any	-2243
nR	-2244
顾客	-2245
▁after	-2246
董事长	-2247
ood	-2248
感到	-2249
多次	-2250
▁bet	-2251
联盟	-2252
院校	-2253
ita	-2254
在这	-2255
不良	-2256
维生素	-2257
2-	-2258
互动	-2259
引发	-2260
old	-2261
为客户	-2262
事情	-2263
补充	-2264
nN	-2265
oth	-2266
法院	-2267
在于	-2268
▁well	-2269
股份有限公司	-2270
应急	-2271
专注	-2272
nO	-2273
ues	-2274
ns	-2275
难以	-2276
als	-2277
防水	-2278
相互	-2279
南京	-2280
蔬菜	-2281
▁back	-2282
行的	-2283
▁know	-2284
老年	-2285
电气	-2286
队的	-2287
az	-2288
润滑	-2289
通风	-2290
ton	-2291
深度	-2292
来到	-2293
▁see	-2294
优良	-2295
在中国	-2296
对象	-2297
▁stud	-2298
ose	-2299
2011	-2300
ok	-2301
▁play	-2302
凭借	-2303
子的	-2304
是不	-2305
》、《	-2306
hip	-2307
游客	-2308
意味	-2309
电压	-2310
手段	-2311
低于	-2312
离开	-2313
场景	-2314
申报	-2315
ik	-2316
▁set	-2317
食用	-2318
▁every	-2319
▁7	-2320
nE	-2321
色彩	-2322
38	-2323
学历	-2324
定的	-2325
时尚	-2326
开启	-2327
高端	-2328
会在	-2329
olog	-2330
都能	-2331
十年	-2332
领域的	-2333
nL	-2334
都不	-2335
能量	-2336
IP	-2337
妈妈	-2338
ell	-2339
土壤	-2340
市民	-2341
ner	-2342
也就是	-2343
整合	-2344
事实	-2345
65	-2346
时刻	-2347
ures	-2348
▁You	-2349
流动	-2350
收集	-2351
立即	-2352
房屋	-2353
land	-2354
IN	-2355
重量	-2356
周期	-2357
赢得	-2358
竞赛	-2359
▁reg	-2360
加大	-2361
投资者	-2362
32	-2363
照片	-2364
ash	-2365
动作	-2366
产权	-2367
人民币	-2368
在此	-2369
ves	-2370
逐步	-2371
较大	-2372
起到	-2373
视觉	-2374
对方	-2375
生产的	-2376
▁even	-2377
依然	-2378
有效的	-2379
velop	-2380
长时间	-2381
获取	-2382
乡村	-2383
主办	-2384
显著	-2385
贷款	-2386
▁“	-2387
钢管	-2388
幼儿	-2389
北京时间	-2390
信用	-2391
美观	-2392
很难	-2393
也能	-2394
}\	-2395
一场	-2396
天的	-2397
论坛	-2398
▁dec	-2399
uring	-2400
或是	-2401
rawl	-2402
设立	-2403
AR	-2404
演员	-2405
用途	-2406
的前	-2407
等级	-2408
可是	-2409
新能源	-2410
▁Uni	-2411
财政	-2412
▁Ar	-2413
▁may	-2414
通讯	-2415
----	-2416
一致	-2417
ommon	-2418
34	-2419
AS	-2420
usiness	-2421
水泥	-2422
//	-2423
餐饮	-2424
▁cre	-2425
搜索	-2426
注重	-2427
规则	-2428
液体	-2429
态度	-2430
岁的	-2431
PC	-2432
俄罗斯	-2433
AC	-2434
特征	-2435
密度	-2436
出席	-2437
回应	-2438
也在	-2439
国外	-2440
ience	-2441
技术的	-2442
等奖	-2443
ject	-2444
LED	-2445
常见的	-2446
红色	-2447
ased	-2448
55	-2449
▁exper	-2450
诊断	-2451
液压	-2452
至少	-2453
hes	-2454
ug	-2455
破坏	-2456
人口	-2457
人生	-2458
识别	-2459
防腐	-2460
优惠	-2461
▁fin	-2462
反映	-2463
大赛	-2464
景区	-2465
hool	-2466
app	-2467
同比增长	-2468
ix	-2469
Crawl	-2470
所在	-2471
参数	-2472
集成	-2473
ommonCrawl	-2474
血管	-2475
37	-2476
▁home	-2477
du	-2478
概念	-2479
使用寿命	-2480
正规	-2481
地位	-2482
成立于	-2483
维持	-2484
许可	-2485
▁loc	-2486
海外	-2487
每一个	-2488
引进	-2489
以前	-2490
还会	-2491
湖北	-2492
很好	-2493
最好的	-2494
意味着	-2495
pt	-2496
批准	-2497
搭配	-2498
随时	-2499
污水处理	-2500
人在	-2501
似乎	-2502
打印	-2503
平时	-2504
发动	-2505
不管	-2506
有一个	-2507
助力	-2508
▁bl	-2509
此前	-2510
电流	-2511
产量	-2512
论文	-2513
融资	-2514
上下	-2515
的专业	-2516
委会	-2517
ank	-2518
现有	-2519
ower	-2520
造型	-2521
发电	-2522
更为	-2523
招聘	-2524
▁8	-2525
大幅	-2526
转化	-2527
本赛季	-2528
参观	-2529
IC	-2530
全力	-2531
也可	-2532
带领	-2533
主体	-2534
ode	-2535
公益	-2536
房地产	-2537
人数	-2538
▁ke	-2539
股票	-2540
参赛	-2541
白癜风患者	-2542
前往	-2543
文字	-2544
大力	-2545
▁add	-2546
▁inte	-2547
变形	-2548
利益	-2549
动态	-2550
48	-2551
ID	-2552
青岛	-2553
种类	-2554
允许	-2555
▁spec	-2556
地下	-2557
信心	-2558
很容易	-2559
ices	-2560
我们在	-2561
声音	-2562
观看	-2563
ause	-2564
一段	-2565
ions	-2566
一体的	-2567
发行	-2568
学位	-2569
95	-2570
rin	-2571
ox	-2572
▁show	-2573
都可以	-2574
乙烯	-2575
专项	-2576
律师	-2577
▁i	-2578
我公司	-2579
安徽	-2580
车间	-2581
球迷	-2582
3-	-2583
elf	-2584
精准	-2585
实行	-2586
输入	-2587
ris	-2588
普遍	-2589
并不是	-2590
云南	-2591
法规	-2592
主席	-2593
有什么	-2594
构成	-2595
带来的	-2596
的事情	-2597
专用	-2598
细节	-2599
病例	-2600
rib	-2601
寻找	-2602
较为	-2603
不再	-2604
二十	-2605
收益	-2606
▁these	-2607
有可能	-2608
浓度	-2609
新增	-2610
ities	-2611
总是	-2612
gan	-2613
ating	-2614
研究生	-2615
大量的	-2616
一名	-2617
通道	-2618
差异	-2619
一流	-2620
损坏	-2621
ex	-2622
多元	-2623
alth	-2624
物品	-2625
IT	-2626
类似	-2627
ef	-2628
开关	-2629
到的	-2630
材料的	-2631
贯彻	-2632
得到了	-2633
▁dif	-2634
面向	-2635
加速	-2636
erson	-2637
资质	-2638
lect	-2639
提示	-2640
its	-2641
拓展	-2642
于是	-2643
消毒	-2644
供应商	-2645
百分	-2646
▁many	-2647
咖啡	-2648
不用	-2649
con	-2650
呼吸	-2651
bs	-2652
白色	-2653
tle	-2654
爱情	-2655
▁rel	-2656
ren	-2657
切割	-2658
▁where	-2659
工程师	-2660
研究院	-2661
合成	-2662
所需	-2663
▁Al	-2664
停止	-2665
iel	-2666
ular	-2667
地面	-2668
即将	-2669
高等	-2670
是非常	-2671
影片	-2672
思考	-2673
).	-2674
景观	-2675
地点	-2676
异常	-2677
授权	-2678
ins	-2679
招生	-2680
人力	-2681
一代	-2682
热水	-2683
就要	-2684
不知道	-2685
们的	-2686
▁Th	-2687
存储	-2688
周边	-2689
▁now	-2690
照明	-2691
产生的	-2692
意大利	-2693
大小	-2694
机器人	-2695
日至	-2696
OS	-2697
干净	-2698
介质	-2699
ener	-2700
在一起	-2701
废气	-2702
拒绝	-2703
thing	-2704
依法	-2705
较高	-2706
电商	-2707
版本	-2708
成就	-2709
查询	-2710
用来	-2711
生产线	-2712
否则	-2713
ative	-2714
周围	-2715
件的	-2716
pro	-2717
▁Le	-2718
line	-2719
障碍	-2720
电路	-2721
判断	-2722
辅助	-2723
占地	-2724
到底	-2725
黄金	-2726
地板	-2727
个性	-2728
院长	-2729
灵活	-2730
还能	-2731
几年	-2732
住宅	-2733
广西	-2734
▁年	-2735
便利	-2736
3)	-2737
熟悉	-2738
总部	-2739
vent	-2740
ows	-2741
相关的	-2742
项目的	-2743
用水	-2744
讲解	-2745
线路	-2746
多样	-2747
ible	-2748
▁way	-2749
之中	-2750
也要	-2751
梦想	-2752
引领	-2753
▁inc	-2754
荣誉	-2755
应对	-2756
会计	-2757
调研	-2758
确实	-2759
气候	-2760
AT	-2761
疫苗	-2762
全新	-2763
PE	-2764
足够	-2765
CO	-2766
别人	-2767
的环境	-2768
▁fam	-2769
名称	-2770
策略	-2771
▁{\	-2772
带着	-2773
GB	-2774
陕西	-2775
tif	-2776
▁very	-2777
附近	-2778
使命	-2779
aking	-2780
氛围	-2781
的不	-2782
上了	-2783
海洋	-2784
的中	-2785
转换	-2786
150	-2787
各位	-2788
防火	-2789
▁car	-2790
的安全	-2791
信息化	-2792
ility	-2793
为大家	-2794
接下来	-2795
方位	-2796
▁[	-2797
▁acc	-2798
▁high	-2799
最低	-2800
表演	-2801
dition	-2802
men	-2803
▁fl	-2804
▁Con	-2805
范围内	-2806
保健	-2807
零售	-2808
三年	-2809
大数据	-2810
里面	-2811
▁An	-2812
访问	-2813
西班	-2814
清晰	-2815
爱的	-2816
传统的	-2817
搅拌	-2818
:0	-2819
稳定性	-2820
西班牙	-2821
充电	-2822
客户的	-2823
获得了	-2824
发的	-2825
自治	-2826
毕业生	-2827
区别	-2828
精密	-2829
纪录	-2830
uch	-2831
支部	-2832
▁Mar	-2833
66	-2834
她的	-2835
▁9	-2836
全省	-2837
ek	-2838
药品	-2839
湿度	-2840
ates	-2841
早期	-2842
formation	-2843
胜利	-2844
所有的	-2845
业绩	-2846
透明	-2847
正是	-2848
病人	-2849
贵州	-2850
就像	-2851
解释	-2852
担心	-2853
休闲	-2854
▁then	-2855
西安	-2856
长的	-2857
提交	-2858
节省	-2859
日下午	-2860
广场	-2861
ES	-2862
总体	-2863
小区	-2864
看看	-2865
选手	-2866
说过	-2867
青春	-2868
第五	-2869
形状	-2870
39	-2871
吸附	-2872
第一次	-2873
股东	-2874
AN	-2875
实时	-2876
tant	-2877
延长	-2878
▁design	-2879
atch	-2880
年代	-2881
万人	-2882
缺乏	-2883
以上的	-2884
高达	-2885
▁own	-2886
并没有	-2887
后来	-2888
大众	-2889
配件	-2890
先进的	-2891
配备	-2892
投标	-2893
▁could	-2894
ied	-2895
切实	-2896
mb	-2897
适用	-2898
▁produc	-2899
tt	-2900
图书	-2901
工商	-2902
审核	-2903
模块	-2904
耐磨	-2905
fore	-2906
中医	-2907
变成	-2908
▁av	-2909
不好	-2910
▁sm	-2911
养老	-2912
的效果	-2913
传递	-2914
实用	-2915
▁min	-2916
ason	-2917
燃烧	-2918
一路	-2919
死亡	-2920
家的	-2921
晚上	-2922
在这里	-2923
▁ass	-2924
对外	-2925
陶瓷	-2926
整理	-2927
和国	-2928
低温	-2929
护栏	-2930
硕士	-2931
家人	-2932
模具	-2933
力度	-2934
改进	-2935
以免	-2936
600	-2937
绝对	-2938
gram	-2939
修复	-2940
家居	-2941
一是	-2942
科技有限公司	-2943
十二	-2944
ious	-2945
olu	-2946
▁should	-2947
▁pres	-2948
宝宝	-2949
营造	-2950
所谓	-2951
服装	-2952
▁good	-2953
苹果	-2954
日上午	-2955
则是	-2956
广泛应用于	-2957
旋转	-2958
街道	-2959
早已	-2960
nG	-2961
隔离	-2962
的质量	-2963
或许	-2964
意外	-2965
基因	-2966
riv	-2967
ati	-2968
深刻	-2969
半场	-2970
考察	-2971
成型	-2972
带动	-2973
模型	-2974
查看	-2975
产品质量	-2976
有利于	-2977
来了	-2978
小学	-2979
老人	-2980
取得了	-2981
中间	-2982
▁want	-2983
点击	-2984
荣获	-2985
功效	-2986
mp	-2987
co	-2988
回到	-2989
共有	-2990
以为	-2991
越南	-2992
传输	-2993
用品	-2994
美好	-2995
制造业	-2996
▁find	-2997
一位	-2998
节约	-2999
动画	-3000
▁requ	-3001
主管	-3002
竞争力	-3003
ital	-3004
福建	-3005
ouse	-3006
在使用	-3007
烈的	-3008
事务	-3009
摄影	-3010
1.5	-3011
▁<	-3012
错误	-3013
收费	-3014
编辑	-3015
代码	-3016
我校	-3017
▁end	-3018
同学们	-3019
基层	-3020
起重	-3021
▁develop	-3022
到达	-3023
▁fun	-3024
声明	-3025
曼联	-3026
▁world	-3027
研究所	-3028
四个	-3029
ition	-3030
▁For	-3031
可持续	-3032
公安	-3033
社交	-3034
交换	-3035
层次	-3036
UR	-3037
两人	-3038
突然	-3039
上面	-3040
失去	-3041
▁come	-3042
日在	-3043
森林	-3044
对此	-3045
某些	-3046
青少年	-3047
博物	-3048
培育	-3049
脂肪	-3050
▁es	-3051
ON	-3052
餐厅	-3053
可见	-3054
奥运	-3055
斯特	-3056
▁best	-3057
全市	-3058
散热	-3059
一天	-3060
而成	-3061
▁business	-3062
报警	-3063
终于	-3064
他在	-3065
形势	-3066
而在	-3067
提高了	-3068
官网	-3069
2008	-3070
印度	-3071
停车	-3072
住房	-3073
eb	-3074
货币	-3075
一系列	-3076
货物	-3077
文学	-3078
杭州	-3079
宗旨	-3080
康复	-3081
优先	-3082
仪表	-3083
实现了	-3084
设有	-3085
机床	-3086
是中国	-3087
有害	-3088
建成	-3089
大约	-3090
水的	-3091
▁mon	-3092
工资	-3093
▁12	-3094
思维	-3095
水果	-3096
接近	-3097
ces	-3098
不需要	-3099
区的	-3100
安全生产	-3101
很快	-3102
arket	-3103
和服务	-3104
案例	-3105
预测	-3106
知识产权	-3107
期望	-3108
的内容	-3109
▁And	-3110
有助	-3111
人物	-3112
民众	-3113
母亲	-3114
翻译	-3115
愿意	-3116
▁Cl	-3117
国务	-3118
alle	-3119
导演	-3120
也将	-3121
纪念	-3122
的选择	-3123
无线	-3124
考核	-3125
型号	-3126
英超	-3127
view	-3128
辐射	-3129
这也是	-3130
》《	-3131
粉丝	-3132
养殖	-3133
▁ser	-3134
纷纷	-3135
▁don	-3136
高于	-3137
2,	-3138
省级	-3139
体积	-3140
确诊	-3141
lease	-3142
医师	-3143
扩散	-3144
国足	-3145
记忆	-3146
想到	-3147
▁18	-3148
ence	-3149
比赛中	-3150
减速	-3151
紧张	-3152
▁here	-3153
水分	-3154
给大家	-3155
肺炎	-3156
芯片	-3157
▁Z	-3158
租赁	-3159
ines	-3160
▁sub	-3161
无人	-3162
高中	-3163
强大的	-3164
49	-3165
二是	-3166
无论是	-3167
对阵	-3168
校长	-3169
承诺	-3170
客场	-3171
▁vis	-3172
加重	-3173
厚度	-3174
独特的	-3175
作出	-3176
▁Pl	-3177
versity	-3178
的价格	-3179
管理体系	-3180
响应	-3181
描述	-3182
这个问题	-3183
amp	-3184
招标	-3185
完美	-3186
较低	-3187
关心	-3188
绝缘	-3189
▁game	-3190
ystem	-3191
感情	-3192
会的	-3193
way	-3194
urre	-3195
舞台	-3196
▁gu	-3197
▁down	-3198
智能化	-3199
)",	-3200
sta	-3201
出来的	-3202
制冷	-3203
irect	-3204
▁team	-3205
利亚	-3206
父亲	-3207
关节	-3208
旅行	-3209
违法	-3210
▁eff	-3211
户外	-3212
两年	-3213
出生	-3214
居住	-3215
无需	-3216
犯罪	-3217
锅炉	-3218
cc	-3219
▁day	-3220
unity	-3221
的一些	-3222
▁rem	-3223
金额	-3224
▁exp	-3225
▁gra	-3226
意思	-3227
roup	-3228
物业	-3229
多家	-3230
都要	-3231
反复	-3232
永远	-3233
学员	-3234
▁che	-3235
数控	-3236
ific	-3237
other	-3238
超级	-3239
▁long	-3240
肿瘤	-3241
▁made	-3242
合物	-3243
同步	-3244
▁sha	-3245
每个人	-3246
生存	-3247
国务院	-3248
▁bel	-3249
市场上	-3250
才是	-3251
rit	-3252
的能力	-3253
休息	-3254
出现了	-3255
癫痫	-3256
▁name	-3257
1,	-3258
浏览	-3259
大气	-3260
ISO	-3261
传承	-3262
名字	-3263
江西	-3264
sc	-3265
冬季	-3266
=\"	-3267
美术	-3268
消除	-3269
一线	-3270
86	-3271
温暖	-3272
不易	-3273
星期	-3274
turn	-3275
tation	-3276
难度	-3277
血液	-3278
内外	-3279
▁class	-3280
缓解	-3281
der	-3282
的关键	-3283
▁take	-3284
▁such	-3285
释放	-3286
简单的	-3287
▁mod	-3288
案件	-3289
ollow	-3290
7、	-3291
2009	-3292
东方	-3293
采访	-3294
▁data	-3295
数字化	-3296
中学	-3297
同志	-3298
nIn	-3299
其次	-3300
密切	-3301
旗下	-3302
大于	-3303
今日	-3304
教育部	-3305
hose	-3306
和谐	-3307
和其他	-3308
本地	-3309
这款	-3310
▁lead	-3311
小型	-3312
场地	-3313
温馨	-3314
可以说	-3315
meric	-3316
一份	-3317
一体化	-3318
AM	-3319
毕竟	-3320
门窗	-3321
的主	-3322
ize	-3323
预期	-3324
钢铁	-3325
前的	-3326
烘干	-3327
鉴定	-3328
▁trans	-3329
建造	-3330
ina	-3331
▁last	-3332
rid	-3333
▁/	-3334
售后服务	-3335
收到	-3336
的相关	-3337
消化	-3338
▁under	-3339
的应用	-3340
博物馆	-3341
我们将	-3342
▁Ad	-3343
46	-3344
美食	-3345
防疫	-3346
前景	-3347
sp	-3348
新区	-3349
中文	-3350
不但	-3351
铝合金	-3352
据悉	-3353
▁read	-3354
每次	-3355
▁again	-3356
▁char	-3357
防治	-3358
三大	-3359
▁del	-3360
哪里	-3361
.\"\	-3362
购物	-3363
是有	-3364
将其	-3365
钢板	-3366
容量	-3367
画面	-3368
▁def	-3369
在这个	-3370
na	-3371
▁sur	-3372
地球	-3373
钢结构	-3374
76	-3375
也很	-3376
不一样	-3377
read	-3378
明星	-3379
开拓	-3380
隐患	-3381
讲述	-3382
iew	-3383
的外	-3384
指挥	-3385
热情	-3386
下了	-3387
慢慢	-3388
巴西	-3389
零件	-3390
传动	-3391
ince	-3392
US	-3393
这位	-3394
孩子的	-3395
容器	-3396
携手	-3397
有时	-3398
▁Q	-3399
怎样	-3400
性质	-3401
秉承	-3402
尝试	-3403
相应的	-3404
专科	-3405
▁De	-3406
多项	-3407
世界上	-3408
==	-3409
人群	-3410
保存	-3411
120	-3412
至于	-3413
▁ed	-3414
师生	-3415
去除	-3416
印象	-3417
▁differe	-3418
它是	-3419
审查	-3420
饮料	-3421
消耗	-3422
让你	-3423
频率	-3424
模拟	-3425
人为	-3426
积累	-3427
理事	-3428
的过程中	-3429
三分	-3430
演出	-3431
echn	-3432
弹性	-3433
厨房	-3434
纺织	-3435
排水	-3436
多年的	-3437
▁X	-3438
紫外	-3439
剧情	-3440
产业链	-3441
001	-3442
细菌	-3443
ote	-3444
技巧	-3445
gle	-3446
▁Ex	-3447
\",	-3448
ave	-3449
队员	-3450
疾病的	-3451
女足	-3452
名为	-3453
▁life	-3454
▁being	-3455
出发	-3456
彻底	-3457
广东省	-3458
终端	-3459
▁饰	-3460
尽快	-3461
损害	-3462
▁.	-3463
决策	-3464
▁var	-3465
▁great	-3466
集体	-3467
▁count	-3468
▁val	-3469
一条	-3470
录取	-3471
合作伙伴	-3472
同意	-3473
高考	-3474
▁before	-3475
团体	-3476
的数据	-3477
常规	-3478
版权	-3479
现代化	-3480
rol	-3481
新疆	-3482
保留	-3483
深化	-3484
▁information	-3485
收获	-3486
CC	-3487
44	-3488
第十	-3489
味道	-3490
ield	-3491
可在	-3492
把握	-3493
眼睛	-3494
辽宁	-3495
800	-3496
更有	-3497
身边	-3498
▁used	-3499
▁Sp	-3500
▁inv	-3501
如果您	-3502
▁provid	-3503
提出了	-3504
▁pol	-3505
优异	-3506
英雄	-3507
电磁	-3508
til	-3509
周年	-3510
转变	-3511
是因为	-3512
严重的	-3513
▁20	-3514
策划	-3515
说的	-3516
再生	-3517
共和国	-3518
代谢	-3519
党的	-3520
ype	-3521
分泌	-3522
。《	-3523
说道	-3524
噪音	-3525
山西	-3526
水质	-3527
2.5	-3528
ier	-3529
加拿	-3530
革命	-3531
太阳能	-3532
运转	-3533
夏季	-3534
助攻	-3535
mber	-3536
车型	-3537
修改	-3538
air	-3539
权益	-3540
北京市	-3541
tiv	-3542
物联网	-3543
同期	-3544
锻炼	-3545
▁much	-3546
▁public	-3547
77	-3548
关闭	-3549
设定	-3550
重复	-3551
清理	-3552
渗透	-3553
设计的	-3554
ute	-3555
签订	-3556
建材	-3557
新鲜	-3558
身上	-3559
是以	-3560
发动机	-3561
可以通过	-3562
▁does	-3563
实际上	-3564
此时	-3565
典型	-3566
超声	-3567
积分	-3568
市政	-3569
引擎	-3570
园林	-3571
化妆	-3572
如有	-3573
第一个	-3574
农民	-3575
流行	-3576
▁po	-3577
手表	-3578
战斗	-3579
▁sim	-3580
厚的	-3581
皮肤病	-3582
基础设施	-3583
定义	-3584
机遇	-3585
arn	-3586
涵盖	-3587
主演	-3588
更高	-3589
抑制	-3590
大学生	-3591
本公司	-3592
性好	-3593
ger	-3594
直到	-3595
▁while	-3596
专题	-3597
协同	-3598
的特点	-3599
(1)	-3600
观点	-3601
更好地	-3602
权利	-3603
委托	-3604
▁aut	-3605
轨道	-3606
未来的	-3607
▁comple	-3608
▁because	-3609
▁As	-3610
ma	-3611
做了	-3612
发出	-3613
面试	-3614
转移	-3615
alk	-3616
son	-3617
遗传	-3618
的市场	-3619
大连	-3620
ration	-3621
千万	-3622
重的	-3623
地理	-3624
本人	-3625
很有	-3626
依托	-3627
当天	-3628
介绍了	-3629
局部	-3630
放弃	-3631
标准化	-3632
各大	-3633
评审	-3634
做的	-3635
▁person	-3636
rs	-3637
地铁	-3638
销量	-3639
健身	-3640
齐全	-3641
▁*	-3642
污泥	-3643
3000	-3644
中药	-3645
硬件	-3646
▁using	-3647
奋斗	-3648
便捷	-3649
▁num	-3650
除尘	-3651
微生物	-3652
欧冠	-3653
水利	-3654
卓越	-3655
据了解	-3656
线下	-3657
使其	-3658
全方位	-3659
成为了	-3660
med	-3661
木材	-3662
▁plan	-3663
厂商	-3664
oint	-3665
替代	-3666
▁run	-3667
茶叶	-3668
也许	-3669
融入	-3670
”(	-3671
那个	-3672
镀锌	-3673
禁区	-3674
对比	-3675
ology	-3676
承受	-3677
tial	-3678
▁Ind	-3679
巨大	-3680
发明	-3681
▁sti	-3682
生活的	-3683
执法	-3684
因而	-3685
搭建	-3686
季节	-3687
本网站	-3688
情感	-3689
认定	-3690
人工智能	-3691
虚拟	-3692
还在	-3693
样品	-3694
振动	-3695
让我	-3696
比分	-3697
▁la	-3698
面上	-3699
和社会	-3700
催化	-3701
中有	-3702
带来了	-3703
▁care	-3704
会长	-3705
名的	-3706
47	-3707
国家级	-3708
II	-3709
常常	-3710
▁hand	-3711
报考	-3712
透露	-3713
巨大的	-3714
口罩	-3715
一级	-3716
充分发挥	-3717
设计师	-3718
ET	-3719
是个	-3720
▁found	-3721
硬度	-3722
制成	-3723
发作	-3724
孩子们	-3725
澳大利	-3726
less	-3727
很高	-3728
);	-3729
等待	-3730
ality	-3731
线的	-3732
工作中	-3733
旨在	-3734
▁child	-3735
澳大利亚	-3736
同一	-3737
航天	-3738
▁11	-3739
白癜风医院	-3740
oci	-3741
4-	-3742
损伤	-3743
较高的	-3744
单元	-3745
储存	-3746
简介	-3747
聚氨	-3748
ee	-3749
西亚	-3750
房间	-3751
服务的	-3752
高新技术	-3753
同时也	-3754
▁did	-3755
▁If	-3756
过的	-3757
控股	-3758
ages	-3759
各自	-3760
奖励	-3761
▁each	-3762
夏天	-3763
出行	-3764
]\	-3765
但在	-3766
地区的	-3767
的基础上	-3768
用户的	-3769
日子	-3770
场的	-3771
溶液	-3772
扩展	-3773
进展	-3774
二次	-3775
我们可以	-3776
PV	-3777
达成	-3778
(2)	-3779
也就	-3780
日的	-3781
tit	-3782
入口	-3783
攻击	-3784
台北	-3785
男性	-3786
日期	-3787
有助于	-3788
而不	-3789
年底	-3790
春节	-3791
蛋白质	-3792
耐腐蚀	-3793
提供的	-3794
10.	-3795
In	-3796
自治区	-3797
ral	-3798
87	-3799
签约	-3800
增加了	-3801
冶金	-3802
静电	-3803
男子	-3804
已成为	-3805
以下简称	-3806
▁|	-3807
urrent	-3808
部的	-3809
影视	-3810
▁those	-3811
这类	-3812
郑州	-3813
减轻	-3814
是不是	-3815
学生的	-3816
阀门	-3817
效应	-3818
秘书	-3819
ross	-3820
平稳	-3821
树立	-3822
ailable	-3823
合法	-3824
地的	-3825
提到	-3826
5-	-3827
数学	-3828
▁:	-3829
ween	-3830
力和	-3831
聚氨酯	-3832
▁med	-3833
黑色素	-3834
ww	-3835
苏州	-3836
ists	-3837
ran	-3838
不了	-3839
采集	-3840
▁return	-3841
离心	-3842
式的	-3843
车站	-3844
财产	-3845
网页	-3846
老化	-3847
book	-3848
原材料	-3849
▁Bl	-3850
ah	-3851
并非	-3852
截止	-3853
▁him	-3854
英文	-3855
:30	-3856
试点	-3857
下去	-3858
这句话	-3859
克斯	-3860
LC	-3861
想法	-3862
是最	-3863
▁right	-3864
杂志	-3865
图像	-3866
运作	-3867
就在	-3868
▁around	-3869
微博	-3870
总裁	-3871
群体	-3872
orn	-3873
加拿大	-3874
▁gl	-3875
cy	-3876
信任	-3877
日报	-3878
取消	-3879
接种	-3880
竞技	-3881
有点	-3882
usic	-3883
税务	-3884
cer	-3885
山东省	-3886
展会	-3887
▁company	-3888
的机会	-3889
Ex	-3890
▁cust	-3891
欧元	-3892
可达	-3893
慢性	-3894
链接	-3895
ety	-3896
睡眠	-3897
条件下	-3898
会出现	-3899
ights	-3900
为客户提供	-3901
女儿	-3902
部长	-3903
禁止	-3904
板的	-3905
89	-3906
规律	-3907
家里	-3908
大陆	-3909
▁sign	-3910
time	-3911
气温	-3912
订单	-3913
齿轮	-3914
磨损	-3915
制药	-3916
各级	-3917
儿子	-3918
各界	-3919
一个人	-3920
que	-3921
东南	-3922
屏幕	-3923
的研究	-3924
每日	-3925
原来	-3926
越来越多	-3927
他人	-3928
生涯	-3929
系数	-3930
参加了	-3931
车的	-3932
远程	-3933
▁follow	-3934
▁build	-3935
导体	-3936
ident	-3937
看起来	-3938
三角	-3939
光伏	-3940
▁Be	-3941
不受	-3942
▁Americ	-3943
城区	-3944
防爆	-3945
这就是	-3946
▁sk	-3947
hone	-3948
等领域	-3949
收购	-3950
5000	-3951
的食物	-3952
已有	-3953
相结合	-3954
明白	-3955
上一	-3956
桥梁	-3957
板材	-3958
以外	-3959
疑问	-3960
成交	-3961
的故事	-3962
MP	-3963
▁state	-3964
▁both	-3965
身体健康	-3966
物资	-3967
切尔	-3968
学者	-3969
火灾	-3970
OR	-3971
框架	-3972
放入	-3973
婴儿	-3974
临时	-3975
战胜	-3976
的目的	-3977
聚焦	-3978
riend	-3979
以便	-3980
ets	-3981
精心	-3982
▁Res	-3983
运动员	-3984
reen	-3985
,3	-3986
局长	-3987
机组	-3988
be	-3989
▁fil	-3990
摩擦	-3991
造成的	-3992
就有	-3993
现在的	-3994
档案	-3995
分解	-3996
▁prof	-3997
飞机	-3998
之路	-3999
CE	-4000
服务器	-4001
任意	-4002
落地	-4003
本届	-4004
蒸汽	-4005
ient	-4006
能在	-4007
uss	-4008
风景	-4009
后续	-4010
感应	-4011
也没有	-4012
振兴	-4013
▁support	-4014
负荷	-4015
分配	-4016
ession	-4017
中华人民	-4018
▁Col	-4019
标签	-4020
人力资源	-4021
一批	-4022
高质量发展	-4023
团结	-4024
水中	-4025
长度	-4026
处置	-4027
二级	-4028
篮球	-4029
后期	-4030
人民政府	-4031
的精神	-4032
本站	-4033
多年来	-4034
称号	-4035
不够	-4036
海南	-4037
活动的	-4038
▁book	-4039
喜爱	-4040
精品	-4041
该公司	-4042
挖掘	-4043
道德	-4044
nJ	-4045
活性炭	-4046
▁think	-4047
入选	-4048
实体	-4049
是对	-4050
原本	-4051
一行	-4052
tent	-4053
仔细	-4054
体内	-4055
遵守	-4056
制造商	-4057
有序	-4058
承包	-4059
▁between	-4060
生态环境	-4061
等行业	-4062
ness	-4063
之下	-4064
通用	-4065
泡沫	-4066
发育	-4067
中华人民共和国	-4068
▁three	-4069
普及	-4070
女子	-4071
用药	-4072
产能	-4073
华为	-4074
迎来	-4075
▁including	-4076
难题	-4077
64	-4078
阵容	-4079
▁15	-4080
东北	-4081
▁form	-4082
▁place	-4083
大师	-4084
奉献	-4085
实在	-4086
安全性	-4087
vern	-4088
附加	-4089
便是	-4090
科技创新	-4091
oogle	-4092
els	-4093
日益	-4094
身心	-4095
rand	-4096
绿化	-4097
厂房	-4098
,5	-4099
辅导	-4100
研讨	-4101
泰山	-4102
的信息	-4103
▁top	-4104
页面	-4105
▁open	-4106
今后	-4107
净水	-4108
APP	-4109
元件	-4110
二氧化	-4111
百度	-4112
▁—	-4113
Sta	-4114
问题的	-4115
击败	-4116
司法	-4117
rate	-4118
思路	-4119
等特点	-4120
▁bo	-4121
42	-4122
ished	-4123
紧密	-4124
可根据	-4125
发言	-4126
江苏省	-4127
ision	-4128
illion	-4129
对接	-4130
市政府	-4131
的功能	-4132
巴黎	-4133
▁cour	-4134
课题	-4135
ics	-4136
▁available	-4137
技术和	-4138
▁eas	-4139
间的	-4140
分数	-4141
固体	-4142
▁University	-4143
ges	-4144
完成了	-4145
协作	-4146
▁cho	-4147
对其	-4148
ele	-4149
68	-4150
▁resp	-4151
▁full	-4152
gy	-4153
党建	-4154
评论	-4155
akes	-4156
快捷	-4157
主要用于	-4158
活力	-4159
ually	-4160
义务	-4161
利率	-4162
封闭	-4163
公交	-4164
大概	-4165
ict	-4166
西部	-4167
▁month	-4168
nThis	-4169
诸多	-4170
太多	-4171
会导致	-4172
气象	-4173
成品	-4174
▁during	-4175
NA	-4176
蒙古	-4177
产业发展	-4178
加坡	-4179
城乡	-4180
!”	-4181
研制	-4182
预算	-4183
给了	-4184
ved	-4185
全自动	-4186
ars	-4187
彼此	-4188
ited	-4189
经济发展	-4190
建立了	-4191
可能是	-4192
本土	-4193
阳市	-4194
浪费	-4195
不开	-4196
▁feat	-4197
缺点	-4198
43	-4199
4)	-4200
work	-4201
67	-4202
技术人员	-4203
▁ste	-4204
歌曲	-4205
过滤器	-4206
路线	-4207
直径	-4208
AI	-4209
核酸	-4210
转载	-4211
形成了	-4212
指定	-4213
带有	-4214
课堂	-4215
婚姻	-4216
做法	-4217
我院	-4218
▁love	-4219
贫困	-4220
显得	-4221
国有	-4222
引起的	-4223
▁same	-4224
另一方面	-4225
衣服	-4226
女士	-4227
拿到	-4228
▁lar	-4229
下跌	-4230
ving	-4231
▁market	-4232
CP	-4233
公示	-4234
志愿者	-4235
58	-4236
的基本	-4237
的管理	-4238
百年	-4239
条例	-4240
权威	-4241
血压	-4242
▁rep	-4243
履行	-4244
报价	-4245
补偿	-4246
工人	-4247
快递	-4248
不知	-4249
新华	-4250
爱心	-4251
更大的	-4252
无缝	-4253
▁school	-4254
专注于	-4255
TV	-4256
新时代	-4257
敏感	-4258
发放	-4259
▁adv	-4260
2007	-4261
需要注意	-4262
ody	-4263
办学	-4264
病因	-4265
ural	-4266
深圳市	-4267
尊重	-4268
全新的	-4269
生成	-4270
隔热	-4271
▁z	-4272
刚刚	-4273
为企业	-4274
危机	-4275
验收	-4276
超越	-4277
▁different	-4278
进而	-4279
合适的	-4280
小于	-4281
新加坡	-4282
▁process	-4283
98	-4284
好评	-4285
高品质	-4286
探讨	-4287
股权	-4288
的首	-4289
ired	-4290
AA	-4291
外部	-4292
邮件	-4293
自身的	-4294
月底	-4295
淘汰	-4296
也不会	-4297
予以	-4298
依靠	-4299
事实上	-4300
进攻	-4301
解答	-4302
挑选	-4303
的经营	-4304
▁family	-4305
的朋友	-4306
▁rece	-4307
分散	-4308
上半年	-4309
整改	-4310
处罚	-4311
燃料	-4312
便于	-4313
SE	-4314
较大的	-4315
▁free	-4316
5%	-4317
少的	-4318
深受	-4319
疼痛	-4320
正确的	-4321
导向	-4322
▁contin	-4323
救援	-4324
充足	-4325
登录	-4326
▁cle	-4327
iving	-4328
▁still	-4329
是我们	-4330
干扰	-4331
▁health	-4332
本书	-4333
ering	-4334
顾问	-4335
必要的	-4336
以上就是	-4337
玻璃钢	-4338
师范	-4339
ption	-4340
外界	-4341
▁Is	-4342
中国的	-4343
无限	-4344
工会	-4345
ized	-4346
饰演	-4347
全程	-4348
评选	-4349
结束后	-4350
放置	-4351
ways	-4352
溶剂	-4353
市委	-4354
机电	-4355
用电	-4356
iden	-4357
心情	-4358
失败	-4359
最多	-4360
的过程	-4361
▁Co	-4362
高速公路	-4363
真正的	-4364
板块	-4365
发送	-4366
合理的	-4367
公司在	-4368
bl	-4369
讲座	-4370
▁She	-4371
五年	-4372
篮板	-4373
都知道	-4374
▁inter	-4375
等多种	-4376
强大	-4377
特定	-4378
▁el	-4379
方的	-4380
财富	-4381
紧急	-4382
78	-4383
编制	-4384
有效地	-4385
供应链	-4386
回答	-4387
放松	-4388
想象	-4389
▁service	-4390
基本上	-4391
便宜	-4392
家族	-4393
途径	-4394
步骤	-4395
移民	-4396
粉末	-4397
百分点	-4398
回归	-4399
广播	-4400
毫米	-4401
体会	-4402
打破	-4403
电阻	-4404
预约	-4405
天下	-4406
类型的	-4407
AD	-4408
lec	-4409
过度	-4410
爱好	-4411
优秀的	-4412
ray	-4413
共计	-4414
过于	-4415
▁Jo	-4416
开幕	-4417
副主任	-4418
涂层	-4419
▁gener	-4420
好处	-4421
2006	-4422
看见	-4423
oun	-4424
牛皮癣的	-4425
品牌的	-4426
女人	-4427
日电	-4428
界面	-4429
激发	-4430
读者	-4431
▁US	-4432
煤炭	-4433
发电机	-4434
的比赛	-4435
昆明	-4436
收藏	-4437
电视剧	-4438
cm	-4439
负担	-4440
皇马	-4441
EN	-4442
商家	-4443
56	-4444
前进	-4445
测定	-4446
▁2019	-4447
好好	-4448
幼儿园	-4449
接口	-4450
更大	-4451
▁iss	-4452
国民	-4453
URL	-4454
照顾	-4455
与此	-4456
新生	-4457
还将	-4458
走向	-4459
留下	-4460
分公司	-4461
▁pass	-4462
放心	-4463
▁main	-4464
走进	-4465
副书记	-4466
实地	-4467
3,	-4468
》\	-4469
电站	-4470
▁cap	-4471
巴萨	-4472
旅客	-4473
所得	-4474
着力	-4475
党支部	-4476
为止	-4477
新兴	-4478
播放	-4479
由此	-4480
?",	-4481
而不是	-4482
精细	-4483
的感觉	-4484
pos	-4485
济南	-4486
hot	-4487
具有良好的	-4488
超声波	-4489
个百分点	-4490
柴油	-4491
▁Man	-4492
从业	-4493
可用	-4494
不仅仅	-4495
房子	-4496
你可以	-4497
▁conf	-4498
▁organ	-4499
坚定	-4500
验证	-4501
()	-4502
延伸	-4503
ining	-4504
差距	-4505
成效	-4506
立足	-4507
人们的	-4508
结婚	-4509
0.0	-4510
ware	-4511
诉讼	-4512
引入	-4513
战争	-4514
都市	-4515
场上	-4516
切尔西	-4517
▁disc	-4518
性强	-4519
日晚	-4520
他说	-4521
点的	-4522
:1	-4523
零部件	-4524
白酒	-4525
国家队	-4526
成人	-4527
▁number	-4528
不得不	-4529
来看看	-4530
缩短	-4531
手续	-4532
座谈	-4533
要有	-4534
魅力	-4535
形态	-4536
▁tri	-4537
▁ear	-4538
威胁	-4539
对应	-4540
法兰	-4541
rop	-4542
▁To	-4543
tend	-4544
业内	-4545
到来	-4546
余人	-4547
的目标	-4548
uck	-4549
期刊	-4550
jec	-4551
这部	-4552
出现在	-4553
换热	-4554
整治	-4555
业主	-4556
2.0	-4557
通报	-4558
▁cor	-4559
管理局	-4560
三种	-4561
▁act	-4562
新冠肺炎	-4563
担当	-4564
互相	-4565
▁}\	-4566
电子商务	-4567
小说	-4568
只需	-4569
▁Tr	-4570
室外	-4571
女孩	-4572
和技术	-4573
需要的	-4574
▁ref	-4575
▁really	-4576
等地	-4577
缺陷	-4578
信誉	-4579
洁净	-4580
补贴	-4581
不多	-4582
仓库	-4583
号码	-4584
pr	-4585
占地面积	-4586
遭遇	-4587
ternational	-4588
明显的	-4589
▁file	-4590
,1	-4591
wit	-4592
-1	-4593
完善的	-4594
了解到	-4595
另一个	-4596
龙头	-4597
环境的	-4598
outh	-4599
▁system	-4600
老板	-4601
现金	-4602
厘米	-4603
报导	-4604
tim	-4605
经销	-4606
回家	-4607
8、	-4608
小程序	-4609
规定的	-4610
厦门	-4611
半导体	-4612
甲醛	-4613
复发	-4614
的第一	-4615
平安	-4616
争取	-4617
by	-4618
装配	-4619
是很	-4620
粉尘	-4621
▁ann	-4622
发达	-4623
要求的	-4624
▁ter	-4625
激素	-4626
感受到	-4627
流通	-4628
职责	-4629
进程	-4630
库存	-4631
美容	-4632
为此	-4633
tical	-4634
IM	-4635
性格	-4636
审批	-4637
起了	-4638
发酵	-4639
火锅	-4640
米兰	-4641
反馈	-4642
出去	-4643
占比	-4644
▁pur	-4645
▁current	-4646
ather	-4647
城镇	-4648
格局	-4649
不超过	-4650
分别为	-4651
还没有	-4652
有趣	-4653
万平方米	-4654
59	-4655
我想	-4656
供电	-4657
mit	-4658
激励	-4659
▁inf	-4660
年轻人	-4661
答案	-4662
enter	-4663
这也	-4664
标准的	-4665
角逐	-4666
丙烯	-4667
地质	-4668
外国	-4669
平面	-4670
打进	-4671
粮食	-4672
信赖	-4673
热量	-4674
种子	-4675
或者是	-4676
▁second	-4677
纳税	-4678
蒸发	-4679
多数	-4680
陆续	-4681
创立	-4682
earch	-4683
ged	-4684
等问题	-4685
沉淀	-4686
▁call	-4687
以往	-4688
indows	-4689
镜头	-4690
才会	-4691
nY	-4692
天然气	-4693
级的	-4694
喷涂	-4695
af	-4696
数据显示	-4697
ounc	-4698
燃气	-4699
??	-4700
69	-4701
节奏	-4702
讲话	-4703
祝福	-4704
\"\	-4705
▁art	-4706
场合	-4707
记得	-4708
一段时间	-4709
返回	-4710
要素	-4711
长沙	-4712
EM	-4713
初期	-4714
性价	-4715
▁2018	-4716
▁But	-4717
噪声	-4718
东京	-4719
选购	-4720
首席	-4721
全年	-4722
国产	-4723
不断的	-4724
▁impor	-4725
▁sl	-4726
她们	-4727
葡萄酒	-4728
我们要	-4729
一方面	-4730
时光	-4731
ST	-4732
tics	-4733
一句	-4734
》。	-4735
将继续	-4736
这两	-4737
上线	-4738
国家的	-4739
▁happ	-4740
▁30	-4741
▁How	-4742
2005	-4743
▁lo	-4744
图书馆	-4745
79	-4746
orth	-4747
期限	-4748
十四	-4749
公斤	-4750
等相关	-4751
消失	-4752
发布的	-4753
最为	-4754
兄弟	-4755
大道	-4756
长江	-4757
▁next	-4758
主帅	-4759
▁try	-4760
被称为	-4761
AL	-4762
欣赏	-4763
▁experience	-4764
全身	-4765
传染	-4766
奶茶	-4767
初步	-4768
上海市	-4769
变频	-4770
物浦	-4771
扫描	-4772
服用	-4773
舞蹈	-4774
原创	-4775
电网	-4776
▁since	-4777
河南省	-4778
对话	-4779
考虑到	-4780
填写	-4781
潜力	-4782
打击	-4783
薄膜	-4784
塑胶	-4785
在不	-4786
ploy	-4787
▁All	-4788
扶贫	-4789
附件	-4790
卫星	-4791
福利	-4792
月的	-4793
,000	-4794
格兰	-4795
提取	-4796
类的	-4797
主机	-4798
看来	-4799
百姓	-4800
子公司	-4801
别的	-4802
▁going	-4803
好了	-4804
为主题	-4805
国家和	-4806
之处	-4807
▁site	-4808
等的	-4809
短期	-4810
稳定的	-4811
哪个	-4812
利物浦	-4813
ux	-4814
增速	-4815
arch	-4816
汇报	-4817
携带	-4818
▁poss	-4819
%、	-4820
患者在	-4821
人才培养	-4822
较好的	-4823
指示	-4824
Ch	-4825
ann	-4826
很少	-4827
肌肉	-4828
现状	-4829
ED	-4830
爆炸	-4831
▁+	-4832
实习	-4833
人文	-4834
医治	-4835
三是	-4836
两次	-4837
昨天	-4838
病的	-4839
离婚	-4840
ogra	-4841
▁199	-4842
紫外线	-4843
上有	-4844
宇宙	-4845
▁cal	-4846
开心	-4847
能否	-4848
开工	-4849
集团有限公司	-4850
型材	-4851
ittle	-4852
不在	-4853
资助	-4854
上市公司	-4855
尼亚	-4856
这项	-4857
破碎	-4858
心里	-4859
下一步	-4860
iti	-4861
的形式	-4862
▁fac	-4863
最后一	-4864
耐用	-4865
观念	-4866
ission	-4867
之为	-4868
次数	-4869
防范	-4870
cha	-4871
认知	-4872
▁ob	-4873
主角	-4874
开发区	-4875
41	-4876
过敏	-4877
依旧	-4878
重要的是	-4879
那样	-4880
(3)	-4881
arm	-4882
57	-4883
ream	-4884
聚集	-4885
初心	-4886
数据库	-4887
▁few	-4888
52	-4889
显然	-4890
还需要	-4891
四川省	-4892
获奖	-4893
扎实	-4894
供水	-4895
凝聚	-4896
出租	-4897
▁ide	-4898
后卫	-4899
控制系统	-4900
公平	-4901
是一款	-4902
性价比	-4903
依赖	-4904
疲劳	-4905
尽可能	-4906
▁techn	-4907
占据	-4908
).\	-4909
St	-4910
iver	-4911
▁partic	-4912
par	-4913
身份证	-4914
▁Se	-4915
▁though	-4916
orld	-4917
固化	-4918
AP	-4919
,19	-4920
如果是	-4921
▁oper	-4922
合肥	-4923
▁keep	-4924
出场	-4925
所以在	-4926
电信	-4927
防守	-4928
有多	-4929
法人	-4930
程度上	-4931
接着	-4932
▁water	-4933
ced	-4934
为一体的	-4935
度假	-4936
的成绩	-4937
水平的	-4938
of	-4939
盈利	-4940
配送	-4941
究竟	-4942
借助	-4943
gin	-4944
加油	-4945
▁16	-4946
BS	-4947
建筑面积	-4948
水箱	-4949
一同	-4950
泰国	-4951
第六	-4952
飞行	-4953
都很	-4954
青睐	-4955
▁week	-4956
痛苦	-4957
bo	-4958
可用于	-4959
东莞	-4960
攻坚	-4961
ney	-4962
相似	-4963
吉林	-4964
会影响	-4965
RO	-4966
贵的	-4967
不如	-4968
村民	-4969
▁ve	-4970
11.	-4971
看着	-4972
://	-4973
少数	-4974
五金	-4975
一般来说	-4976
忽视	-4977
我司	-4978
1/	-4979
的表现	-4980
景点	-4981
污染物	-4982
著作	-4983
隧道	-4984
节日	-4985
抓住	-4986
家电	-4987
西南	-4988
化妆品	-4989
仅仅	-4990
优质的	-4991
博览	-4992
ds	-4993
十大	-4994
nWe	-4995
排除	-4996
我市	-4997
再度	-4998
的原则	-4999
与此同时	-5000
72	-5001
影像	-5002
TM	-5003
仓储	-5004
腾讯	-5005
活跃	-5006
口碑	-5007
▁App	-5008
并将	-5009
理工	-5010
▁stand	-5011
压器	-5012
▁Car	-5013
校区	-5014
螺旋	-5015
内心	-5016
总额	-5017
账户	-5018
▁win	-5019
能力和	-5020
影响力	-5021
table	-5022
tail	-5023
管控	-5024
地震	-5025
的光	-5026
山区	-5027
主要有	-5028
12.	-5029
集团公司	-5030
进度	-5031
...\	-5032
裁判	-5033
清除	-5034
延续	-5035
这一点	-5036
膨胀	-5037
年前	-5038
诱发	-5039
口腔	-5040
曼城	-5041
足协	-5042
圆满	-5043
老年人	-5044
招商	-5045
当年	-5046
气氛	-5047
▁Ro	-5048
起重机	-5049
必然	-5050
小心	-5051
欧盟	-5052
业界	-5053
健康的	-5054
导师	-5055
了很多	-5056
调试	-5057
高铁	-5058
市场需求	-5059
the	-5060
环氧	-5061
▁services	-5062
▁Or	-5063
久的	-5064
各国	-5065
▁real	-5066
拜仁	-5067
回报	-5068
持有	-5069
沈阳	-5070
开设	-5071
子女	-5072
我们就	-5073
波动	-5074
灌装	-5075
hor	-5076
▁head	-5077
溶解	-5078
供给	-5079
爸爸	-5080
ior	-5081
体检	-5082
84	-5083
承载	-5084
▁provide	-5085
BC	-5086
、“	-5087
110	-5088
党委书记	-5089
练习	-5090
的学生	-5091
极大	-5092
▁men	-5093
▁14	-5094
ml	-5095
心态	-5096
前期	-5097
口感	-5098
基础上	-5099
____	-5100
▁access	-5101
糖尿	-5102
热门	-5103
支球队	-5104
进出口	-5105
同事	-5106
load	-5107
那里	-5108
ator	-5109
架构	-5110
共产	-5111
四大	-5112
得分	-5113
▁special	-5114
ech	-5115
矿山	-5116
采用了	-5117
举措	-5118
oss	-5119
App	-5120
建设的	-5121
▁program	-5122
lection	-5123
晋级	-5124
可靠性	-5125
中小企业	-5126
潜在	-5127
):	-5128
会对	-5129
第三方	-5130
删除	-5131
球场	-5132
花园	-5133
强劲	-5134
超市	-5135
▁direct	-5136
浙江省	-5137
的发生	-5138
一带	-5139
的优势	-5140
出台	-5141
▁mov	-5142
纳入	-5143
出售	-5144
甘肃	-5145
的变化	-5146
参展	-5147
uper	-5148
是可以	-5149
▁say	-5150
,2021	-5151
站在	-5152
享有	-5153
等多	-5154
▁suc	-5155
夫妻	-5156
心脏	-5157
接头	-5158
化合物	-5159
无数	-5160
,2	-5161
带给	-5162
过了	-5163
▁opp	-5164
称之为	-5165
▁Cha	-5166
强制	-5167
ives	-5168
▁They	-5169
工件	-5170
▁working	-5171
uro	-5172
边缘	-5173
bsite	-5174
易于	-5175
▁dep	-5176
▁too	-5177
填料	-5178
富有	-5179
长春	-5180
omen	-5181
杂质	-5182
可能性	-5183
edia	-5184
研究中心	-5185
马上	-5186
一边	-5187
的东西	-5188
签署	-5189
acebook	-5190
男人	-5191
53	-5192
rest	-5193
有一定的	-5194
垂直	-5195
常用的	-5196
钢材	-5197
评为	-5198
德里	-5199
ever	-5200
克服	-5201
公寓	-5202
不论	-5203
退休	-5204
麻烦	-5205
压缩机	-5206
接收	-5207
受伤	-5208
尚未	-5209
新建	-5210
疗法	-5211
温室	-5212
ury	-5213
的核心	-5214
EC	-5215
特种	-5216
留学	-5217
▁On	-5218
铸造	-5219
用作	-5220
rong	-5221
国安	-5222
创始	-5223
ries	-5224
tand	-5225
好像	-5226
▁cha	-5227
纽约	-5228
ense	-5229
▁met	-5230
处的	-5231
窗口	-5232
均为	-5233
▁Wh	-5234
快的	-5235
要在	-5236
万美元	-5237
的中国	-5238
”)	-5239
生产厂家	-5240
能耗	-5241
遵循	-5242
治愈	-5243
批发	-5244
传媒	-5245
请求	-5246
申请人	-5247
几天	-5248
反而	-5249
iron	-5250
orm	-5251
嘉宾	-5252
肌肤	-5253
增大	-5254
下一	-5255
域名	-5256
yle	-5257
单一	-5258
地图	-5259
并对	-5260
▁dri	-5261
可分为	-5262
ocial	-5263
每一位	-5264
受欢迎	-5265
缴纳	-5266
NBA	-5267
前来	-5268
aster	-5269
全世界	-5270
纳米	-5271
约为	-5272
减肥	-5273
他们在	-5274
古代	-5275
民间	-5276
ours	-5277
这就	-5278
事业单位	-5279
▁friend	-5280
人员的	-5281
杀菌	-5282
水处理	-5283
的高度	-5284
理由	-5285
发售	-5286
ror	-5287
许可证	-5288
的现象	-5289
高清	-5290
▁big	-5291
总局	-5292
-2	-5293
行驶	-5294
1.0	-5295
有力	-5296
最重要的	-5297
▁17	-5298
年初	-5299
自信	-5300
ley	-5301
ideo	-5302
当代	-5303
阿里	-5304
▁pop	-5305
随意	-5306
上映	-5307
有限责任	-5308
办事	-5309
▁、	-5310
OC	-5311
不错的	-5312
解决了	-5313
单独	-5314
份额	-5315
诊疗	-5316
家中	-5317
▁always	-5318
不太	-5319
▁expl	-5320
除此	-5321
器件	-5322
债券	-5323
发布会	-5324
▁area	-5325
游泳	-5326
跟踪	-5327
路上	-5328
罗马	-5329
成年	-5330
****	-5331
时间内	-5332
▁pri	-5333
民生	-5334
go	-5335
▁"“	-5336
坚决	-5337
▁proper	-5338
一张	-5339
科学院	-5340
▁mo	-5341
与其他	-5342
要想	-5343
Con	-5344
ling	-5345
96	-5346
分辨	-5347
到位	-5348
匹配	-5349
的位置	-5350
ruct	-5351
人大	-5352
ording	-5353
圆形	-5354
▁2017	-5355
视为	-5356
83	-5357
庆祝	-5358
阿尔	-5359
注意事项	-5360
比亚	-5361
辉煌	-5362
多人	-5363
宁波	-5364
两大	-5365
▁local	-5366
更高的	-5367
tice	-5368
审计	-5369
在全国	-5370
了解一下	-5371
▁view	-5372
▁和	-5373
标识	-5374
不应	-5375
达到了	-5376
▁rese	-5377
,4	-5378
SS	-5379
率先	-5380
我在	-5381
ern	-5382
寻求	-5383
环境保护	-5384
有望	-5385
不变	-5386
接待	-5387
ung	-5388
agement	-5389
▁prote	-5390
统筹	-5391
澳门	-5392
出色	-5393
发布了	-5394
冷冻	-5395
暂时	-5396
tance	-5397
期货	-5398
较强的	-5399
润滑油	-5400
精确	-5401
真诚	-5402
坐落	-5403
电线	-5404
ush	-5405
补助	-5406
两位	-5407
曝光	-5408
ai	-5409
常务	-5410
增值	-5411
总监	-5412
授予	-5413
书法	-5414
显示屏	-5415
快速增长	-5416
54	-5417
PVC	-5418
顶级	-5419
高峰	-5420
urs	-5421
▁Eng	-5422
▁proble	-5423
凌晨	-5424
都没有	-5425
十三	-5426
自学	-5427
山市	-5428
图案	-5429
健全	-5430
第一时间	-5431
TC	-5432
客服	-5433
降温	-5434
nU	-5435
duct	-5436
在国内	-5437
ism	-5438
明年	-5439
无疑	-5440
读书	-5441
支援	-5442
视野	-5443
以此	-5444
作物	-5445
的美	-5446
▁today	-5447
传奇	-5448
有没有	-5449
ards	-5450
▁No	-5451
科学家	-5452
▁feel	-5453
石化	-5454
▁Me	-5455
该项目	-5456
别墅	-5457
广阔	-5458
立体	-5459
ump	-5460
ants	-5461
乐观	-5462
早日	-5463
的不同	-5464
法定	-5465
复印	-5466
多吃	-5467
演唱	-5468
装箱	-5469
nK	-5470
基金会	-5471
▁grow	-5472
组建	-5473
▁event	-5474
较多	-5475
美好的	-5476
▁er	-5477
复杂的	-5478
▁Can	-5479
未能	-5480
文化的	-5481
计量	-5482
和平	-5483
排查	-5484
大厦	-5485
布置	-5486
癌症	-5487
日常生活中	-5488
学校的	-5489
▁bro	-5490
荷兰	-5491
val	-5492
层的	-5493
anta	-5494
人和	-5495
▁start	-5496
▁"【	-5497
▁another	-5498
▁without	-5499
得以	-5500
亲子	-5501
▁able	-5502
公务	-5503
格式	-5504
▁ques	-5505
▁students	-5506
建筑物	-5507
▁incre	-5508
▁sing	-5509
yn	-5510
ruc	-5511
主流	-5512
农产品	-5513
电梯	-5514
雕塑	-5515
2023	-5516
▁level	-5517
在一	-5518
我是	-5519
伦敦	-5520
应力	-5521
接地	-5522
63	-5523
▁equ	-5524
南方	-5525
▁eng	-5526
TO	-5527
贯彻落实	-5528
明天	-5529
之际	-5530
经销商	-5531
服务中心	-5532
回忆	-5533
中国队	-5534
遗产	-5535
直流	-5536
妻子	-5537
赢得了	-5538
内蒙古	-5539
效率高	-5540
毫无	-5541
区块	-5542
▁2020	-5543
▁pay	-5544
漂亮	-5545
排出	-5546
告知	-5547
▁indust	-5548
工序	-5549
为核心	-5550
▁better	-5551
度和	-5552
▁sure	-5553
▁appro	-5554
频道	-5555
生意	-5556
企业在	-5557
生理	-5558
▁100	-5559
西北	-5560
电解	-5561
管理的	-5562
▁Sh	-5563
低碳	-5564
商场	-5565
une	-5566
本周	-5567
船舶	-5568
养生	-5569
转会	-5570
活动中	-5571
城市的	-5572
▁something	-5573
▁et	-5574
▁project	-5575
常用	-5576
瞬间	-5577
堵塞	-5578
非常的	-5579
阻燃	-5580
在大	-5581
-10	-5582
的一部分	-5583
ubl	-5584
关怀	-5585
▁imp	-5586
妇女	-5587
2004	-5588
▁four	-5589
为用户	-5590
试剂	-5591
转速	-5592
艺术家	-5593
为何	-5594
动的	-5595
共赢	-5596
弘扬	-5597
感兴趣	-5598
时间的	-5599
▁community	-5600
的结果	-5601
▁13	-5602
民营	-5603
亮相	-5604
机械设备	-5605
ider	-5606
强烈	-5607
igin	-5608
▁visit	-5609
困扰	-5610
非洲	-5611
落后	-5612
▁Fl	-5613
命运	-5614
器械	-5615
承办	-5616
不容易	-5617
oney	-5618
率为	-5619
▁So	-5620
广泛的	-5621
▁custome	-5622
演讲	-5623
主力	-5624
UV	-5625
的全	-5626
发热	-5627
▁x	-5628
change	-5629
上班	-5630
工地	-5631
消费者的	-5632
储备	-5633
-19	-5634
当下	-5635
97	-5636
ny	-5637
净利润	-5638
特殊的	-5639
一直在	-5640
适宜	-5641
很多的	-5642
光滑	-5643
ource	-5644
,10	-5645
完整的	-5646
液晶	-5647
及以上	-5648
在美国	-5649
患有	-5650
不当	-5651
微量	-5652
朋友们	-5653
冲洗	-5654
水性	-5655
及相关	-5656
前沿	-5657
▁perform	-5658
专辑	-5659
▁late	-5660
坚实	-5661
有机会	-5662
上周	-5663
适当的	-5664
灾害	-5665
足够的	-5666
神秘	-5667
综合性	-5668
▁meet	-5669
隔音	-5670
违反	-5671
友谊	-5672
面前	-5673
发了	-5674
原始	-5675
▁Tra	-5676
cel	-5677
0.5	-5678
50%	-5679
实际情况	-5680
cent	-5681
▁against	-5682
某种	-5683
这场	-5684
有限责任公司	-5685
降低了	-5686
冷凝	-5687
科目	-5688
ured	-5689
▁must	-5690
▁music	-5691
境外	-5692
财经	-5693
ask	-5694
不利	-5695
优越	-5696
180	-5697
和发展	-5698
▁There	-5699
roid	-5700
nV	-5701
玉米	-5702
orts	-5703
ule	-5704
注明	-5705
付出	-5706
远离	-5707
当事	-5708
▁hist	-5709
icial	-5710
在新	-5711
?”	-5712
对待	-5713
具体的	-5714
cri	-5715
致的	-5716
均可	-5717
关键词	-5718
校友	-5719
这时	-5720
82	-5721
▁website	-5722
糖尿病	-5723
目录	-5724
是比较	-5725
听到	-5726
外形	-5727
抵抗	-5728
取决	-5729
ories	-5730
取代	-5731
交付	-5732
粉碎	-5733
内涵	-5734
方针	-5735
患上	-5736
矛盾	-5737
▁@	-5738
▁spe	-5739
斯坦	-5740
开展了	-5741
给你	-5742
▁law	-5743
硫酸	-5744
的关系	-5745
文物	-5746
红外	-5747
一款	-5748
▁mar	-5749
仅有	-5750
职称	-5751
面板	-5752
▁#	-5753
▁old	-5754
秘书长	-5755
进行治疗	-5756
美丽的	-5757
▁bre	-5758
将以	-5759
家用	-5760
为中心	-5761
战绩	-5762
饲料	-5763
▁important	-5764
成功的	-5765
▁doc	-5766
▁applic	-5767
网站的	-5768
气的	-5769
升降	-5770
▁list	-5771
发性	-5772
留在	-5773
最具	-5774
这对	-5775
▁things	-5776
免疫力	-5777
▁mat	-5778
捐赠	-5779
洗涤	-5780
一支	-5781
配电	-5782
手动	-5783
制的	-5784
▁let	-5785
▁function	-5786
可以根据	-5787
男篮	-5788
连锁	-5789
检察	-5790
姆斯	-5791
债务	-5792
逻辑	-5793
摄像	-5794
港口	-5795
的历史	-5796
发起	-5797
vernment	-5798
教材	-5799
的项目	-5800
▁dist	-5801
抛光	-5802
赛后	-5803
扮演	-5804
DA	-5805
▁little	-5806
合约	-5807
情形	-5808
奖项	-5809
不宜	-5810
频繁	-5811
取决于	-5812
▁small	-5813
We	-5814
激烈	-5815
心中	-5816
件事	-5817
我们会	-5818
▁ext	-5819
龙江	-5820
▁power	-5821
rist	-5822
局面	-5823
市长	-5824
分别是	-5825
是否有	-5826
物体	-5827
▁within	-5828
发射	-5829
备案	-5830
牙齿	-5831
或其他	-5832
▁success	-5833
几种	-5834
组成的	-5835
▁put	-5836
三十	-5837
都需要	-5838
较好	-5839
过多	-5840
▁group	-5841
▁addition	-5842
的状态	-5843
历程	-5844
新材料	-5845
▁children	-5846
更容易	-5847
每周	-5848
味的	-5849
色素	-5850
的人生	-5851
农药	-5852
耐火	-5853
不想	-5854
62	-5855
说法	-5856
ract	-5857
水泵	-5858
各部门	-5859
内地	-5860
标题	-5861
马来	-5862
除此之外	-5863
助理	-5864
注入	-5865
看出	-5866
给人	-5867
夺冠	-5868
▁May	-5869
▁prin	-5870
SC	-5871
手工	-5872
▁lot	-5873
▁ph	-5874
光学	-5875
的规定	-5876
见证	-5877
发生了	-5878
ases	-5879
tact	-5880
加密	-5881
安全的	-5882
等优点	-5883
首批	-5884
假如	-5885
icro	-5886
存在的	-5887
▁At	-5888
代替	-5889
nec	-5890
多名	-5891
非法	-5892
51	-5893
证实	-5894
▁give	-5895
啤酒	-5896
不含	-5897
管理系统	-5898
受理	-5899
焦点	-5900
ulti	-5901
高新技术企业	-5902
sh	-5903
射门	-5904
在一个	-5905
叶片	-5906
tor	-5907
慈善	-5908
又称	-5909
科学技术	-5910
限于	-5911
▁Jan	-5912
每月	-5913
科普	-5914
ample	-5915
集装箱	-5916
che	-5917
常态	-5918
▁season	-5919
再加上	-5920
钢丝	-5921
黄色	-5922
ined	-5923
交叉	-5924
行程	-5925
组件	-5926
▁cent	-5927
tel	-5928
及其他	-5929
层面	-5930
一项	-5931
违规	-5932
中医药	-5933
来讲	-5934
▁With	-5935
假期	-5936
货运	-5937
奥运会	-5938
渐渐	-5939
抵达	-5940
ister	-5941
▁days	-5942
越来越多的	-5943
▁hard	-5944
最初	-5945
什么是	-5946
反对	-5947
秩序	-5948
▁online	-5949
最早	-5950
耐高温	-5951
</	-5952
用地	-5953
ipp	-5954
mbers	-5955
分的	-5956
2003	-5957
▁post	-5958
▁recent	-5959
不久	-5960
身体的	-5961
乃至	-5962
大批	-5963
已经成为	-5964
一度	-5965
是为了	-5966
站式	-5967
变更	-5968
减少了	-5969
得了	-5970
效力	-5971
祖国	-5972
焦虑	-5973
arent	-5974
电视台	-5975
▁24	-5976
vious	-5977
赔偿	-5978
gen	-5979
怀孕	-5980
触摸	-5981
本着	-5982
本场比赛	-5983
的设备	-5984
五个	-5985
压机	-5986
试管	-5987
▁change	-5988
灭火	-5989
展现出	-5990
上传	-5991
的公司	-5992
多了	-5993
司机	-5994
牢固	-5995
等工作	-5996
客观	-5997
合并	-5998
灯光	-5999
的介绍	-6000
门店	-6001
ille	-6002
▁air	-6003
证据	-6004
乐园	-6005
组织的	-6006
回来	-6007
无机	-6008
▁Ph	-6009
咱们	-6010
立方	-6011
交易所	-6012
三星	-6013
创办	-6014
算法	-6015
钢筋	-6016
纠纷	-6017
用心	-6018
可持续发展	-6019
下滑	-6020
于一体的	-6021
PM	-6022
1500	-6023
ird	-6024
▁order	-6025
脱贫	-6026
股价	-6027
oot	-6028
▁cer	-6029
joy	-6030
room	-6031
会展	-6032
企业和	-6033
职业教育	-6034
清水	-6035
传达	-6036
后果	-6037
用人	-6038
ately	-6039
低压	-6040
上去	-6041
解读	-6042
73	-6043
北方	-6044
乡村振兴	-6045
250	-6046
的就是	-6047
上赛季	-6048
核酸检测	-6049
邮箱	-6050
螺杆	-6051
进取	-6052
控制器	-6053
▁create	-6054
▁million	-6055
油烟	-6056
tall	-6057
秘密	-6058
指南	-6059
治疗的	-6060
税收	-6061
受到了	-6062
--------	-6063
住宿	-6064
▁case	-6065
小孩	-6066
减速机	-6067
乘坐	-6068
。19	-6069
警方	-6070
▁vo	-6071
今年的	-6072
河北省	-6073
viron	-6074
怎么办	-6075
公民	-6076
▁Ac	-6077
公众号	-6078
大家的	-6079
歌手	-6080
环比	-6081
迎接	-6082
货架	-6083
灰尘	-6084
队在	-6085
导热	-6086
爆发	-6087
自考	-6088
话题	-6089
人民法院	-6090
流水	-6091
条件的	-6092
跟着	-6093
技术创新	-6094
入学	-6095
ocus	-6096
ery	-6097
象征	-6098
olution	-6099
的品牌	-6100
时机	-6101
当你	-6102
自觉	-6103
中场	-6104
hol	-6105
地上	-6106
本质	-6107
▁got	-6108
Re	-6109
怎么样	-6110
体质	-6111
ature	-6112
为基础	-6113
作风	-6114
打算	-6115
总统	-6116
员工的	-6117
增进	-6118
螺栓	-6119
时间为	-6120
玩具	-6121
ization	-6122
起点	-6123
百万	-6124
学家	-6125
询问	-6126
经济社会	-6127
下列	-6128
的所有	-6129
铸铁	-6130
贝尔	-6131
搬运	-6132
74	-6133
组成部分	-6134
劳务	-6135
为中国	-6136
排气	-6137
继承	-6138
支出	-6139
谨慎	-6140
一片	-6141
人都	-6142
▁1.	-6143
系列产品	-6144
Pro	-6145
升高	-6146
将是	-6147
优良的	-6148
转让	-6149
,6	-6150
背后	-6151
前锋	-6152
my	-6153
外壳	-6154
wards	-6155
环境中	-6156
军事	-6157
一套	-6158
占有	-6159
水管	-6160
ared	-6161
富含	-6162
.,	-6163
早上	-6164
暴露	-6165
水量	-6166
下来的	-6167
lex	-6168
米的	-6169
编程	-6170
那就是	-6171
▁turn	-6172
是目前	-6173
高层	-6174
机动	-6175
▁25	-6176
▁Min	-6177
暂停	-6178
争议	-6179
和管理	-6180
相当于	-6181
▁offer	-6182
省市	-6183
▁Dec	-6184
',	-6185
▁uni	-6186
极大的	-6187
ieve	-6188
值得一	-6189
您可以	-6190
这是一个	-6191
日讯	-6192
热点	-6193
业的	-6194
轮胎	-6195
个性化	-6196
▁Ins	-6197
之所以	-6198
本来	-6199
▁fact	-6200
▁works	-6201
骨干	-6202
估计	-6203
让他	-6204
载体	-6205
▁ask	-6206
新产品	-6207
职能	-6208
2002	-6209
奖金	-6210
Hz	-6211
花费	-6212
副总经理	-6213
陷入	-6214
奠定	-6215
高度重视	-6216
▁line	-6217
探测	-6218
发生在	-6219
项目建设	-6220
▁making	-6221
认同	-6222
▁School	-6223
的温度	-6224
DP	-6225
观光	-6226
支架	-6227
ivid	-6228
为您提供	-6229
play	-6230
的世界	-6231
▁country	-6232
不大	-6233
▁chang	-6234
养护	-6235
▁月	-6236
牛奶	-6237
语音	-6238
ults	-6239
-3	-6240
院士	-6241
修订	-6242
弯曲	-6243
ames	-6244
共建	-6245
器材	-6246
佩戴	-6247
造价	-6248
里斯	-6249
▁leg	-6250
并与	-6251
班子	-6252
也就是说	-6253
表彰	-6254
nIf	-6255
添加剂	-6256
争夺	-6257
为你	-6258
石墨	-6259
接到	-6260
mo	-6261
▁saf	-6262
第七	-6263
▁2016	-6264
的标准	-6265
▁Pe	-6266
▁record	-6267
有一些	-6268
热爱	-6269
▁unders	-6270
必须要	-6271
践行	-6272
MA	-6273
组装	-6274
大脑	-6275
生日	-6276
▁become	-6277
感动	-6278
RE	-6279
耐心	-6280
前后	-6281
队长	-6282
▁"《	-6283
一部分	-6284
主教练	-6285
几十	-6286
还原	-6287
粘度	-6288
不断提高	-6289
了解更多	-6290
已完成	-6291
冲突	-6292
是要	-6293
TA	-6294
附属	-6295
▁looking	-6296
相反	-6297
能够在	-6298
快速发展	-6299
大规模	-6300
,2020	-6301
应用程序	-6302
,7	-6303
冬天	-6304
obal	-6305
价值观	-6306
▁Ste	-6307
私人	-6308
联动	-6309
马克	-6310
跨境	-6311
哈尔	-6312
工作者	-6313
个体	-6314
一周	-6315
泄漏	-6316
男女	-6317
创始人	-6318
拍卖	-6319
投票	-6320
只需要	-6321
ised	-6322
▁Ass	-6323
考验	-6324
必需	-6325
并未	-6326
▁World	-6327
SP	-6328
▁En	-6329
▁quality	-6330
uf	-6331
就算	-6332
主营	-6333
大专	-6334
put	-6335
可谓	-6336
交通运输	-6337
不起	-6338
精英	-6339
nIt	-6340
全民	-6341
外的	-6342
观赏	-6343
▁aff	-6344
其余	-6345
还可	-6346
1%	-6347
治疗白癜风	-6348
▁impro	-6349
的材料	-6350
的通知	-6351
黑龙江	-6352
ding	-6353
石材	-6354
礼品	-6355
uture	-6356
相关部门	-6357
离不开	-6358
历史上	-6359
▁members	-6360
极为	-6361
ball	-6362
是我	-6363
的多	-6364
不出	-6365
有利	-6366
ners	-6367
▁John	-6368
养成	-6369
有时候	-6370
本网	-6371
新能源汽车	-6372
二手	-6373
▁room	-6374
与会	-6375
土工	-6376
▁came	-6377
豪华	-6378
绩效	-6379
亮点	-6380
来进行	-6381
回复	-6382
现已	-6383
谢谢	-6384
食品安全	-6385
工作室	-6386
▁City	-6387
▁vers	-6388
▁cri	-6389
冬奥	-6390
巩固	-6391
区块链	-6392
工程施工	-6393
节点	-6394
牛皮癣患者	-6395
▁int	-6396
商店	-6397
▁Comm	-6398
可以用	-6399
未经	-6400
负载	-6401
▁products	-6402
酒精	-6403
出现的	-6404
等多个	-6405
为本	-6406
发生的	-6407
ott	-6408
去了	-6409
▁pr	-6410
yl	-6411
披露	-6412
火箭	-6413
兴奋	-6414
▁value	-6415
一等奖	-6416
浪漫	-6417
目的是	-6418
信念	-6419
的合作	-6420
▁ben	-6421
级别	-6422
聚乙烯	-6423
转子	-6424
▁page	-6425
上年	-6426
皮损	-6427
你会	-6428
十一	-6429
▁says	-6430
可以让	-6431
ived	-6432
东部	-6433
领先的	-6434
著名的	-6435
首个	-6436
▁Un	-6437
悬浮	-6438
09	-6439
类别	-6440
会议室	-6441
保安	-6442
Cl	-6443
的重要性	-6444
并于	-6445
播出	-6446
▁along	-6447
饭店	-6448
乡镇	-6449
-8	-6450
承认	-6451
年在	-6452
▁sol	-6453
社会的	-6454
写作	-6455
冒险	-6456
搜索引擎	-6457
人心	-6458
▁allow	-6459
管理人员	-6460
源于	-6461
ched	-6462
较小	-6463
设备和	-6464
线条	-6465
信息技术	-6466
就需要	-6467
org	-6468
条款	-6469
热水器	-6470
,8	-6471
影响到	-6472
昨日	-6473
性能好	-6474
拉斯	-6475
▁control	-6476
一个月	-6477
油漆	-6478
ava	-6479
得知	-6480
开通	-6481
utes	-6482
▁2021	-6483
将来	-6484
马来西亚	-6485
高科技	-6486
诞生	-6487
事务所	-6488
塞尔	-6489
客户提供	-6490
应该是	-6491
步行	-6492
店铺	-6493
风扇	-6494
备受	-6495
留意	-6496
社会主义	-6497
大奖	-6498
收录	-6499
法律法规	-6500
▁check	-6501
self	-6502
▁across	-6503
肠道	-6504
纪律	-6505
▁prac	-6506
Phone	-6507
潮湿	-6508
广泛用于	-6509
设计和	-6510
领取	-6511
将成为	-6512
尤文	-6513
为例	-6514
当今	-6515
还包括	-6516
ying	-6517
湖南省	-6518
投诉	-6519
同行	-6520
▁might	-6521
的空间	-6522
变压器	-6523
大战	-6524
经济效益	-6525
▁never	-6526
▁priv	-6527
5)	-6528
就不	-6529
变革	-6530
检修	-6531
路面	-6532
投放	-6533
警察	-6534
▁include	-6535
被告	-6536
待遇	-6537
EL	-6538
不忘	-6539
为准	-6540
地坪	-6541
清单	-6542
ills	-6543
▁less	-6544
进行的	-6545
陪伴	-6546
在全球	-6547
会使	-6548
力学	-6549
ajor	-6550
列入	-6551
破门	-6552
▁until	-6553
解决问题	-6554
获悉	-6555
体制	-6556
人气	-6557
无锡	-6558
感恩	-6559
生产和	-6560
尼奥	-6561
平整	-6562
的三	-6563
之旅	-6564
数码	-6565
▁food	-6566
五大	-6567
紧凑	-6568
皇家	-6569
过来	-6570
柔软	-6571
收缩	-6572
平板	-6573
治疗方法	-6574
▁near	-6575
▁u	-6576
管的	-6577
受益	-6578
潮流	-6579
行情	-6580
gether	-6581
产值	-6582
那种	-6583
▁together	-6584
乐趣	-6585
头的	-6586
fect	-6587
心灵	-6588
萝卜	-6589
artment	-6590
SO	-6591
头发	-6592
全国各地	-6593
▁《	-6594
安装在	-6595
配方	-6596
相机	-6597
不管是	-6598
安徽省	-6599
确诊病例	-6600
日常生活	-6601
西方	-6602
IF	-6603
向上	-6604
登陆	-6605
医院的	-6606
积极开展	-6607
型的	-6608
颁奖	-6609
书籍	-6610
的支持	-6611
社会责任	-6612
管理工作	-6613
ograph	-6614
新一代	-6615
9、	-6616
缓慢	-6617
ony	-6618
有关部门	-6619
账号	-6620
越高	-6621
两者	-6622
▁repor	-6623
房产	-6624
\\/	-6625
为期	-6626
脱水	-6627
至上	-6628
ze	-6629
公司拥有	-6630
喜欢的	-6631
越大	-6632
作战	-6633
08	-6634
侵权	-6635
礼物	-6636
放大	-6637
号线	-6638
▁profession	-6639
,9	-6640
样子	-6641
-20	-6642
ium	-6643
10%	-6644
头部	-6645
▁Off	-6646
强度高	-6647
均衡	-6648
1:	-6649
碰撞	-6650
一次性	-6651
正常的	-6652
食材	-6653
经济的	-6654
后再	-6655
湖北省	-6656
漫画	-6657
主导	-6658
iam	-6659
的大型	-6660
其中的	-6661
▁American	-6662
应在	-6663
能力强	-6664
▁large	-6665
所需的	-6666
决心	-6667
惊喜	-6668
听取	-6669
境内	-6670
密集	-6671
坚守	-6672
通过了	-6673
过程中的	-6674
梅西	-6675
提出的	-6676
流体	-6677
在校	-6678
让他们	-6679
▁based	-6680
曲线	-6681
自行车	-6682
目前的	-6683
海关	-6684
系统中	-6685
而出	-6686
分会	-6687
一期	-6688
人与	-6689
不适	-6690
一定会	-6691
路径	-6692
▁Count	-6693
蓝色	-6694
当日	-6695
》。\	-6696
又有	-6697
▁Fr	-6698
一层	-6699
管理和	-6700
中山	-6701
拉伸	-6702
多少钱	-6703
春季	-6704
营收	-6705
,2019	-6706
的出现	-6707
▁Gu	-6708
沦为	-6709
门将	-6710
ats	-6711
中等	-6712
在北京	-6713
拉开	-6714
▁needs	-6715
月初	-6716
1.2	-6717
点球	-6718
▁50	-6719
的前提	-6720
的两	-6721
总投资	-6722
教室	-6723
售价	-6724
▁One	-6725
生产企业	-6726
struc	-6727
▁employ	-6728
艰难	-6729
uman	-6730
构造	-6731
子宫	-6732
正规的	-6733
▁United	-6734
▁research	-6735
精力	-6736
▁Par	-6737
<\\/	-6738
一起来	-6739
竟然	-6740
urity	-6741
欧美	-6742
氯化	-6743
搭载	-6744
能力的	-6745
中和	-6746
位的	-6747
密码	-6748
涨幅	-6749
关爱	-6750
come	-6751
ids	-6752
后者	-6753
4000	-6754
Al	-6755
ene	-6756
热线	-6757
京东	-6758
会产生	-6759
理财	-6760
▁rele	-6761
大楼	-6762
严谨	-6763
大家都	-6764
年以来	-6765
▁job	-6766
填充	-6767
在内的	-6768
小组赛	-6769
学期	-6770
制动	-6771
好友	-6772
unic	-6773
步伐	-6774
电竞	-6775
aterial	-6776
白天	-6777
西甲	-6778
▁light	-6779
kg	-6780
我省	-6781
瑞士	-6782
执照	-6783
lege	-6784
反射	-6785
▁following	-6786
联合国	-6787
详情	-6788
13.	-6789
穿着	-6790
有机物	-6791
饱和	-6792
增多	-6793
游乐	-6794
人事	-6795
不住	-6796
水电	-6797
亲自	-6798
国际化	-6799
多功能	-6800
时代的	-6801
灵魂	-6802
态势	-6803
加以	-6804
残留	-6805
的理念	-6806
▁3.	-6807
行业中	-6808
发泡	-6809
的人才	-6810
彩色	-6811
最高的	-6812
conom	-6813
阿森	-6814
为广大	-6815
推出的	-6816
▁State	-6817
体重	-6818
出血	-6819
来电	-6820
国家标准	-6821
差别	-6822
为人	-6823
的学习	-6824
的风险	-6825
炎症	-6826
让自己	-6827
雄厚	-6828
(\"	-6829
▁complete	-6830
温馨提示	-6831
刑事	-6832
二氧化碳	-6833
洗衣	-6834
outs	-6835
一人	-6836
扩张	-6837
建设项目	-6838
宿舍	-6839
清华	-6840
盲目	-6841
回合	-6842
我觉得	-6843
等方式	-6844
的症状	-6845
内分泌	-6846
700	-6847
段时间	-6848
介绍一下	-6849
80%	-6850
作家	-6851
宠物	-6852
十足	-6853
剂的	-6854
uff	-6855
可以帮助	-6856
强赛	-6857
ui	-6858
南宁	-6859
不动	-6860
实训	-6861
▁2022	-6862
▁National	-6863
环境下	-6864
严禁	-6865
光电	-6866
▁test	-6867
政务	-6868
机等	-6869
完毕	-6870
很高的	-6871
预警	-6872
依照	-6873
文艺	-6874
说话	-6875
ution	-6876
优雅	-6877
等于	-6878
的态度	-6879
夜间	-6880
鸡蛋	-6881
right	-6882
ready	-6883
导航	-6884
▁Rep	-6885
残疾	-6886
懂得	-6887
这样才能	-6888
▁Te	-6889
的风	-6890
一对	-6891
存放	-6892
举报	-6893
联络	-6894
多元化	-6895
葡萄牙	-6896
▁dev	-6897
▁possible	-6898
三级	-6899
和高	-6900
的气	-6901
CT	-6902
降解	-6903
▁enjoy	-6904
:《	-6905
最新的	-6906
武器	-6907
生动	-6908
色谱	-6909
沥青	-6910
事宜	-6911
采暖	-6912
模板	-6913
许多人	-6914
主管部门	-6915
墙体	-6916
队友	-6917
可以选择	-6918
假日	-6919
幅度	-6920
MS	-6921
千瓦	-6922
▁Pres	-6923
素养	-6924
jects	-6925
年以上	-6926
务实	-6927
乘客	-6928
iting	-6929
在外	-6930
倡导	-6931
提升了	-6932
品的	-6933
▁educ	-6934
学金	-6935
当事人	-6936
洽谈	-6937
出水	-6938
吸引了	-6939
聚合	-6940
相同的	-6941
列车	-6942
废弃	-6943
特别是在	-6944
augh	-6945
do	-6946
▁--	-6947
▁stre	-6948
暖气	-6949
复制	-6950
pecial	-6951
忘记	-6952
isc	-6953
一台	-6954
”;	-6955
拼搏	-6956
▁opport	-6957
太平	-6958
▁city	-6959
▁Bro	-6960
丈夫	-6961
▁rest	-6962
空中	-6963
研究员	-6964
我就	-6965
关联	-6966
明的	-6967
▁是	-6968
企业家	-6969
没想到	-6970
成立以来	-6971
▁development	-6972
舒服	-6973
ference	-6974
客人	-6975
,2022	-6976
居家	-6977
却是	-6978
转化为	-6979
ones	-6980
('	-6981
实木	-6982
年开始	-6983
中秋	-6984
党史	-6985
ino	-6986
又是	-6987
gest	-6988
孕妇	-6989
女生	-6990
主人	-6991
给我们	-6992
使用者	-6993
门口	-6994
海港	-6995
61	-6996
谈判	-6997
的天	-6998
误差	-6999
印发	-7000
书面	-7001
帮扶	-7002
感冒	-7003
ered	-7004
油脂	-7005
▁cou	-7006
不断提升	-7007
家庄	-7008
拿下	-7009
服务平台	-7010
典礼	-7011
数十	-7012
熟练	-7013
在选择	-7014
▁fund	-7015
资深	-7016
回顾	-7017
造纸	-7018
编码	-7019
20%	-7020
小米	-7021
真是	-7022
转型升级	-7023
如果不	-7024
综艺	-7025
微量元素	-7026
veral	-7027
墙面	-7028
年级	-7029
连胜	-7030
▁Serv	-7031
▁writ	-7032
den	-7033
区分	-7034
▁video	-7035
▁social	-7036
上半场	-7037
打包	-7038
派出	-7039
▁away	-7040
几点	-7041
留言	-7042
的一切	-7043
etwork	-7044
itor	-7045
mend	-7046
、3	-7047
不停	-7048
用量	-7049
值得一提	-7050
ane	-7051
夺得	-7052
守护	-7053
gu	-7054
派遣	-7055
玩法	-7056
不仅是	-7057
动漫	-7058
图形	-7059
CN	-7060
赚钱	-7061
举办的	-7062
看到了	-7063
在家	-7064
过高	-7065
过后	-7066
ham	-7067
管材	-7068
意间	-7069
参会	-7070
口味	-7071
***	-7072
是通过	-7073
▁understand	-7074
至关	-7075
14.	-7076
高性能	-7077
的了解	-7078
总决赛	-7079
速度快	-7080
停车场	-7081
日内	-7082
中甲	-7083
的可	-7084
缺少	-7085
北部	-7086
有个	-7087
绘画	-7088
英格兰	-7089
商会	-7090
AG	-7091
佛教	-7092
火车	-7093
为我们	-7094
产生了	-7095
海报	-7096
let	-7097
即便	-7098
球队的	-7099
等功能	-7100
▁land	-7101
市区	-7102
组的	-7103
跑道	-7104
历经	-7105
恶劣	-7106
▁Bo	-7107
▁2015	-7108
LO	-7109
竣工	-7110
照射	-7111
睡觉	-7112
lling	-7113
电能	-7114
欢乐	-7115
▁live	-7116
送到	-7117
▁York	-7118
PU	-7119
副院长	-7120
▁focus	-7121
irl	-7122
失望	-7123
拨打	-7124
不及	-7125
81	-7126
里程	-7127
所属	-7128
互联	-7129
94	-7130
这是一	-7131
▁Go	-7132
100%	-7133
片的	-7134
联轴	-7135
背景下	-7136
fer	-7137
有毒	-7138
废物	-7139
饮用	-7140
叶轮	-7141
使用寿命长	-7142
首都	-7143
出色的	-7144
1999	-7145
慰问	-7146
▁camp	-7147
远远	-7148
顺序	-7149
电动机	-7150
单纯	-7151
制备	-7152
尼斯	-7153
▁past	-7154
地域	-7155
ana	-7156
▁pain	-7157
发展和	-7158
ume	-7159
首发	-7160
unch	-7161
不见	-7162
的作品	-7163
这种情况	-7164
为主要	-7165
扶持	-7166
遗憾	-7167
FC	-7168
菩萨	-7169
门的	-7170
-5	-7171
友好	-7172
30%	-7173
▁2.	-7174
▁move	-7175
▁key	-7176
这家	-7177
担保	-7178
alf	-7179
码头	-7180
HD	-7181
不可能	-7182
back	-7183
契机	-7184
试验机	-7185
▁Des	-7186
新一	-7187
严峻	-7188
2001	-7189
▁story	-7190
臭氧	-7191
保证了	-7192
how	-7193
并发	-7194
世界各地	-7195
保级	-7196
我会	-7197
iec	-7198
精益	-7199
害怕	-7200
航班	-7201
皮带	-7202
是用	-7203
港澳	-7204
(4)	-7205
医疗器械	-7206
的大小	-7207
师范大学	-7208
的最	-7209
产物	-7210
叉车	-7211
▁"1、	-7212
型企业	-7213
没有任何	-7214
从小	-7215
处理器	-7216
urope	-7217
邮政	-7218
▁ele	-7219
有益	-7220
一带一路	-7221
方可	-7222
曾在	-7223
兰州	-7224
恒大	-7225
复印件	-7226
宣告	-7227
▁Che	-7228
160	-7229
构件	-7230
简便	-7231
以其	-7232
弹簧	-7233
林业	-7234
力争	-7235
笔记	-7236
高强度	-7237
需求的	-7238
▁join	-7239
▁industry	-7240
信息的	-7241
9001	-7242
广州队	-7243
业有限公司	-7244
92	-7245
内置	-7246
充分利用	-7247
▁left	-7248
切削	-7249
人性	-7250
经费	-7251
aper	-7252
光源	-7253
月经	-7254
▁tem	-7255
产业化	-7256
西藏	-7257
外援	-7258
对抗	-7259
enn	-7260
阿森纳	-7261
器官	-7262
收取	-7263
热的	-7264
▁far	-7265
生育	-7266
▁wee	-7267
抑郁	-7268
专业化	-7269
南部	-7270
隐私	-7271
中共	-7272
ager	-7273
几率	-7274
▁house	-7275
二等奖	-7276
澳洲	-7277
香气	-7278
3%	-7279
总量	-7280
IG	-7281
-12	-7282
饮水	-7283
亚洲杯	-7284
戏剧	-7285
ches	-7286
一生	-7287
修正	-7288
形成的	-7289
他是	-7290
传说	-7291
下半场	-7292
博览会	-7293
十八	-7294
阿拉	-7295
赋予	-7296
石英	-7297
重庆市	-7298
交互	-7299
身为	-7300
▁origin	-7301
ttp	-7302
▁learn	-7303
结晶	-7304
塑造	-7305
也为	-7306
给我	-7307
烦恼	-7308
让大家	-7309
▁non	-7310
就医	-7311
不上	-7312
rew	-7313
严格的	-7314
▁series	-7315
重量轻	-7316
90%	-7317
▁type	-7318
等各种	-7319
====	-7320
增添	-7321
调理	-7322
▁code	-7323
周末	-7324
煤矿	-7325
▁times	-7326
下面就	-7327
▁treat	-7328
▁why	-7329
▁sit	-7330
多达	-7331
面部	-7332
DC	-7333
游戏的	-7334
在过去	-7335
广州市	-7336
会造成	-7337
每位	-7338
坚固	-7339
一开始	-7340
▁upd	-7341
跨越	-7342
▁Cor	-7343
职业生涯	-7344
热烈	-7345
东南亚	-7346
急性	-7347
▁News	-7348
世界的	-7349
体现了	-7350
此类	-7351
开发的	-7352
▁table	-7353
阿根	-7354
宽度	-7355
联合会	-7356
灵敏	-7357
等方面的	-7358
福州	-7359
雨水	-7360
选举	-7361
值得一提的是	-7362
上门	-7363
!!	-7364
早在	-7365
▁called	-7366
走出	-7367
赛区	-7368
排行	-7369
▁easy	-7370
命令	-7371
战略合作	-7372
转向	-7373
与其	-7374
特色的	-7375
价值的	-7376
随之	-7377
改编	-7378
情节	-7379
春天	-7380
维奇	-7381
是从	-7382
塔尔	-7383
多彩	-7384
ada	-7385
伴随着	-7386
让您	-7387
谈到	-7388
阿根廷	-7389
▁multi	-7390
▁several	-7391
恒温	-7392
底部	-7393
温泉	-7394
的花	-7395
一站式	-7396
切换	-7397
坚持以	-7398
ift	-7399
中心的	-7400
大自然	-7401
彰显	-7402
看了	-7403
▁below	-7404
不断地	-7405
▁course	-7406
适量	-7407
江南	-7408
▁field	-7409
是将	-7410
的手	-7411
推出了	-7412
有色	-7413
抓好	-7414
屋顶	-7415
即时	-7416
大桥	-7417
外墙	-7418
液位	-7419
按钮	-7420
icy	-7421
新华社	-7422
很强的	-7423
▁already	-7424
文献	-7425
tific	-7426
▁Ne	-7427
属性	-7428
样本	-7429
应注意	-7430
复苏	-7431
完美的	-7432
家属	-7433
姓名	-7434
激情	-7435
新老	-7436
的患者	-7437
批评	-7438
寒冷	-7439
金刚	-7440
▁Pol	-7441
有许多	-7442
71	-7443
▁Comp	-7444
▁news	-7445
牛肉	-7446
十四五	-7447
aring	-7448
主要的	-7449
纸箱	-7450
克兰	-7451
▁phot	-7452
▁Mc	-7453
过大	-7454
作文	-7455
越好	-7456
眼镜	-7457
▁Ab	-7458
自主研发	-7459
重组	-7460
对我	-7461
联邦	-7462
但不	-7463
边的	-7464
nal	-7465
▁Aust	-7466
IV	-7467
alif	-7468
立刻	-7469
结构的	-7470
科学的	-7471
走访	-7472
▁esta	-7473
选择了	-7474
一般的	-7475
商用	-7476
微软	-7477
陌生	-7478
公开发	-7479
阻止	-7480
▁Mon	-7481
两队	-7482
如果有	-7483
退出	-7484
冰箱	-7485
先锋	-7486
从来	-7487
直观	-7488
大学的	-7489
通行	-7490
ising	-7491
irc	-7492
而来	-7493
协商	-7494
TS	-7495
我们需要	-7496
经纪	-7497
的行为	-7498
天地	-7499
ividual	-7500
更快	-7501
区内	-7502
解放	-7503
数的	-7504
▁What	-7505
销售额	-7506
期内	-7507
服务业	-7508
聚丙烯	-7509
少女	-7510
来源于	-7511
小镇	-7512
高档	-7513
防潮	-7514
由中国	-7515
硫化	-7516
tary	-7517
既然	-7518
工程建设	-7519
解除	-7520
出战	-7521
生产经营	-7522
▁di	-7523
▁Stud	-7524
退役	-7525
比特	-7526
的一年	-7527
这份	-7528
壮大	-7529
才能够	-7530
也被	-7531
iven	-7532
不必	-7533
的活动	-7534
等因素	-7535
涂装	-7536
低的	-7537
国脚	-7538
不然	-7539
aces	-7540
研究人员	-7541
赛前	-7542
表面的	-7543
比利	-7544
的力量	-7545
▁major	-7546
精致	-7547
它可以	-7548
自来	-7549
中级	-7550
ront	-7551
伟大	-7552
而已	-7553
公务员	-7554
展示了	-7555
大棚	-7556
陕西省	-7557
阻力	-7558
Stack	-7559
职务	-7560
在治疗	-7561
将为	-7562
合伙	-7563
第二次	-7564
形容	-7565
作了	-7566
色泽	-7567
民主	-7568
机构的	-7569
什么样的	-7570
04	-7571
▁My	-7572
一只	-7573
功能的	-7574
商城	-7575
6000	-7576
玫瑰	-7577
▁whe	-7578
15.	-7579
患病	-7580
BO	-7581
换热器	-7582
意甲	-7583
调度	-7584
常识	-7585
▁future	-7586
的部分	-7587
仿佛	-7588
▁Sec	-7589
幸运	-7590
管理办法	-7591
可通过	-7592
▁Bar	-7593
tems	-7594
▁government	-7595
▁Park	-7596
▁film	-7597
推行	-7598
rug	-7599
催化剂	-7600
首先要	-7601
结算	-7602
竭诚	-7603
PD	-7604
脱落	-7605
韧性	-7606
严格按照	-7607
摄入	-7608
忽略	-7609
基督	-7610
▁South	-7611
监理	-7612
堪称	-7613
▁space	-7614
要点	-7615
珠宝	-7616
坐落于	-7617
很重要	-7618
的老	-7619
变速	-7620
社保	-7621
理想的	-7622
处理的	-7623
是我国	-7624
外汇	-7625
若干	-7626
ging	-7627
吃饭	-7628
职位	-7629
▁range	-7630
我也	-7631
anies	-7632
下游	-7633
题材	-7634
▁tre	-7635
注册资本	-7636
并通过	-7637
程度的	-7638
hod	-7639
额定	-7640
挤压	-7641
公正	-7642
比重	-7643
石家庄	-7644
爱国	-7645
希望能	-7646
实质	-7647
强烈的	-7648
ources	-7649
耐热	-7650
使用时	-7651
监察	-7652
十五	-7653
硅胶	-7654
各种各	-7655
比较好	-7656
二维	-7657
筛选	-7658
VR	-7659
浸泡	-7660
的长	-7661
房价	-7662
▁perfect	-7663
永久	-7664
化和	-7665
外出	-7666
PA	-7667
突发	-7668
行业发展	-7669
▁environ	-7670
叫做	-7671
较少	-7672
如果没有	-7673
▁That	-7674
】\	-7675
务必	-7676
云计算	-7677
的双	-7678
的健康	-7679
▁having	-7680
之地	-7681
▁won	-7682
Ar	-7683
指导下	-7684
量大	-7685
▁ens	-7686
排名第	-7687
中新	-7688
主要包括	-7689
名额	-7690
血糖	-7691
rap	-7692
圣诞	-7693
▁Per	-7694
不懈	-7695
面料	-7696
IA	-7697
生产基地	-7698
obile	-7699
道理	-7700
稳步	-7701
简洁	-7702
是国内	-7703
气泡	-7704
uary	-7705
▁ite	-7706
!”\	-7707
两侧	-7708
▁ent	-7709
的建设	-7710
ey	-7711
转动	-7712
师资	-7713
颁发	-7714
▁interes	-7715
质量和	-7716
运营商	-7717
建筑工程	-7718
▁本	-7719
已被	-7720
签证	-7721
在前	-7722
公布了	-7723
人人	-7724
-4	-7725
900	-7726
▁night	-7727
冷藏	-7728
成本低	-7729
届中国	-7730
度高	-7731
无毒	-7732
路灯	-7733
分辨率	-7734
▁Ge	-7735
职业技术	-7736
专属	-7737
hop	-7738
nYou	-7739
▁young	-7740
新颖	-7741
珍惜	-7742
愿景	-7743
油墨	-7744
ief	-7745
高效的	-7746
宗教	-7747
错过	-7748
冷库	-7749
机体	-7750
也不能	-7751
电动车	-7752
中超联赛	-7753
高分子	-7754
詹姆斯	-7755
烟气	-7756
登场	-7757
波纹	-7758
也不是	-7759
遭受	-7760
▁personal	-7761
▁elect	-7762
均有	-7763
▁women	-7764
tr	-7765
全场	-7766
在进行	-7767
侵犯	-7768
球的	-7769
年内	-7770
nFor	-7771
05	-7772
初中	-7773
也需要	-7774
细致	-7775
隐藏	-7776
气动	-7777
不仅可以	-7778
福建省	-7779
蓄电池	-7780
辛苦	-7781
ember	-7782
rite	-7783
海上	-7784
秋季	-7785
调控	-7786
的游戏	-7787
▁compe	-7788
相继	-7789
擅长	-7790
之内	-7791
如同	-7792
▁effec	-7793
也让	-7794
▁Med	-7795
书画	-7796
▁point	-7797
在我国	-7798
记载	-7799
nm	-7800
投产	-7801
电镀	-7802
结论	-7803
转入	-7804
不妨	-7805
▁side	-7806
哈尔滨	-7807
▁money	-7808
累积	-7809
既有	-7810
的性能	-7811
冠状	-7812
哲学	-7813
发光	-7814
前行	-7815
SD	-7816
功夫	-7817
从未	-7818
完结	-7819
anks	-7820
abor	-7821
种种	-7822
▁comes	-7823
UN	-7824
标志着	-7825
来临	-7826
塞罗	-7827
车主	-7828
▁pack	-7829
)》	-7830
灯具	-7831
在其	-7832
对人体	-7833
93	-7834
体育场	-7835
▁review	-7836
试图	-7837
ista	-7838
MC	-7839
承接	-7840
辣椒	-7841
位居	-7842
枢纽	-7843
ients	-7844
四季	-7845
人民群众	-7846
编号	-7847
等情况	-7848
后面	-7849
▁Dep	-7850
原子	-7851
▁building	-7852
营运	-7853
激烈的	-7854
产业园	-7855
▁share	-7856
说是	-7857
技术服务	-7858
维度	-7859
▁report	-7860
非常重要	-7861
客运	-7862
col	-7863
厕所	-7864
uk	-7865
选项	-7866
动员	-7867
的开	-7868
▁Gl	-7869
做出了	-7870
杰出	-7871
▁makes	-7872
和工作	-7873
tered	-7874
移植	-7875
爱好者	-7876
选拔	-7877
nov	-7878
▁cost	-7879
促使	-7880
命中	-7881
共创	-7882
龙井	-7883
被评为	-7884
票房	-7885
以确保	-7886
病变	-7887
单位的	-7888
同类	-7889
授课	-7890
西兰	-7891
配有	-7892
斯卡	-7893
白癜风的治疗	-7894
可爱	-7895
年起	-7896
▁benef	-7897
平常	-7898
irm	-7899
马尔	-7900
▁bring	-7901
pen	-7902
间隙	-7903
北美	-7904
法治	-7905
聊天	-7906
预告	-7907
220	-7908
的使用寿命	-7909
三维	-7910
喷雾	-7911
走势	-7912
器和	-7913
战术	-7914
采样	-7915
生产工艺	-7916
视角	-7917
的各种	-7918
pril	-7919
效果好	-7920
在地	-7921
一日	-7922
opy	-7923
oud	-7924
box	-7925
ilt	-7926
遭到	-7927
经历了	-7928
防御	-7929
上演	-7930
医护	-7931
腐蚀性	-7932
▁require	-7933
隆重	-7934
剧中	-7935
全面的	-7936
▁content	-7937
硬化	-7938
展出	-7939
遍布	-7940
▁Har	-7941
研讨会	-7942
打入	-7943
达标	-7944
▁product	-7945
▁}	-7946
ober	-7947
网络安全	-7948
男孩	-7949
▁Our	-7950
在我们	-7951
ci	-7952
届时	-7953
摆脱	-7954
职场	-7955
减排	-7956
1-0	-7957
专业从事	-7958
热处理	-7959
tens	-7960
国的	-7961
智能手机	-7962
像是	-7963
Exchange	-7964
砂浆	-7965
详细的	-7966
文化和	-7967
某个	-7968
为进一步	-7969
存款	-7970
的抗	-7971
高兴	-7972
外贸	-7973
师傅	-7974
16.	-7975
微波	-7976
会被	-7977
的功效	-7978
rame	-7979
及时的	-7980
导致的	-7981
▁hold	-7982
▁North	-7983
感染者	-7984
岁月	-7985
轨道交通	-7986
▁contact	-7987
▁pati	-7988
光泽	-7989
制作的	-7990
服务于	-7991
失业	-7992
各项工作	-7993
上网	-7994
中午	-7995
▁Europe	-7996
▁bas	-7997
见到	-7998
随机	-7999
饮用水	-8000
▁flo	-8001
创造了	-8002
Fi	-8003
纪委	-8004
等产品	-8005
有所帮助	-8006
的城市	-8007
篇文章	-8008
iled	-8009
▁contain	-8010
中科	-8011
10、	-8012
年中国	-8013
锁定	-8014
目前已	-8015
的速度	-8016
尤为	-8017
isk	-8018
湾区	-8019
氨基	-8020
▁fav	-8021
牵头	-8022
刀具	-8023
该产品	-8024
▁Ju	-8025
▁Ed	-8026
空压机	-8027
古典	-8028
可靠的	-8029
幕墙	-8030
感和	-8031
南昌	-8032
门票	-8033
lin	-8034
CR	-8035
社会各界	-8036
积金	-8037
湖人	-8038
生化	-8039
ummer	-8040
是为	-8041
产业的	-8042
仅供	-8043
水准	-8044
▁Her	-8045
中所	-8046
积分榜	-8047
人体的	-8048
并以	-8049
1-2	-8050
重金属	-8051
氧气	-8052
反弹	-8053
董事会	-8054
,2018	-8055
多多	-8056
▁2014	-8057
▁individual	-8058
制成的	-8059
▁seem	-8060
主持人	-8061
汇聚	-8062
说过这样	-8063
少量	-8064
的国家	-8065
▁charac	-8066
行业协会	-8067
tar	-8068
接入	-8069
说到	-8070
央视	-8071
化疗	-8072
看法	-8073
igital	-8074
是没有	-8075
特斯	-8076
工程机械	-8077
内容的	-8078
ination	-8079
脱硫	-8080
万亿元	-8081
小时内	-8082
▁Sep	-8083
注射	-8084
nces	-8085
万欧元	-8086
怎样的	-8087
▁detail	-8088
也比较	-8089
家乡	-8090
次于	-8091
安静	-8092
试管婴儿	-8093
恶化	-8094
调味	-8095
足联	-8096
ols	-8097
安心	-8098
修行	-8099
水和	-8100
▁done	-8101
CD	-8102
希腊	-8103
▁comb	-8104
轻质	-8105
钢琴	-8106
▁invol	-8107
严肃	-8108
将被	-8109
广泛应用	-8110
HE	-8111
用了	-8112
站点	-8113
不容	-8114
等人	-8115
eleb	-8116
栽培	-8117
但他	-8118
的一项	-8119
积极的	-8120
金牌	-8121
fl	-8122
▁Pre	-8123
工程项目	-8124
出版社	-8125
▁When	-8126
出一	-8127
因其	-8128
演绎	-8129
放电	-8130
与中国	-8131
HS	-8132
德甲	-8133
▁known	-8134
酸盐	-8135
海鲜	-8136
道的	-8137
下半年	-8138
导电	-8139
文旅	-8140
外伤	-8141
发改	-8142
必不可	-8143
按摩	-8144
1200	-8145
▁enter	-8146
的确	-8147
众所	-8148
-6	-8149
青海	-8150
脉冲	-8151
开业	-8152
高血压	-8153
渴望	-8154
ides	-8155
▁ever	-8156
但是在	-8157
这两个	-8158
托盘	-8159
旗舰	-8160
是怎么	-8161
安全隐患	-8162
▁often	-8163
新年	-8164
外科	-8165
雕刻	-8166
自从	-8167
化学品	-8168
以内	-8169
入住	-8170
划分	-8171
民警	-8172
注塑	-8173
▁getting	-8174
我要	-8175
排在	-8176
▁early	-8177
更改	-8178
▁occ	-8179
处长	-8180
门诊	-8181
▁remain	-8182
尔夫	-8183
MV	-8184
概率	-8185
创新创业	-8186
买卖	-8187
采访时	-8188
ully	-8189
verage	-8190
StackExchange	-8191
勇士	-8192
内存	-8193
家企业	-8194
尔斯	-8195
汽油	-8196
了解了	-8197
呼吁	-8198
前三	-8199
警告	-8200
周知	-8201
2%	-8202
氨酸	-8203
▁。	-8204
的颜色	-8205
▁invest	-8206
平米	-8207
摩托	-8208
也没	-8209
所谓的	-8210
客户端	-8211
缴费	-8212
长达	-8213
共产党	-8214
不合格	-8215
国防	-8216
靠近	-8217
花卉	-8218
万辆	-8219
▁material	-8220
冲压	-8221
科技大学	-8222
上帝	-8223
举行的	-8224
urther	-8225
和水	-8226
130	-8227
有力的	-8228
学的	-8229
极其	-8230
第八	-8231
的一致	-8232
在这种	-8233
▁technology	-8234
细腻	-8235
VID	-8236
▁\\	-8237
光纤	-8238
nRe	-8239
格栅	-8240
热刺	-8241
在线观看	-8242
面包	-8243
▁specific	-8244
瓷砖	-8245
ст	-8246
表现为	-8247
陪同	-8248
还没	-8249
外表	-8250
ystems	-8251
不吃	-8252
▁started	-8253
上课	-8254
在本	-8255
其他的	-8256
和中国	-8257
mg	-8258
淀粉	-8259
耶稣	-8260
食堂	-8261
长大	-8262
阳性	-8263
音频	-8264
工作经验	-8265
前列	-8266
赛的	-8267
▁five	-8268
aul	-8269
ikip	-8270
副作用	-8271
见的	-8272
高频	-8273
集训	-8274
▁kind	-8275
合计	-8276
的投资	-8277
nder	-8278
企业管理	-8279
XX	-8280
感的	-8281
now	-8282
个人的	-8283
на	-8284
,”	-8285
著作权	-8286
中最	-8287
时间和	-8288
year	-8289
有些人	-8290
nim	-8291
约定	-8292
榜单	-8293
演练	-8294
疗效	-8295
通过对	-8296
原油	-8297
受损	-8298
OT	-8299
丽的	-8300
▁lim	-8301
▁single	-8302
从中	-8303
大方	-8304
率高	-8305
和使用	-8306
▁media	-8307
ikipedia	-8308
教育的	-8309
hoto	-8310
星级	-8311
流畅	-8312
沙发	-8313
▁repres	-8314
01	-8315
太大	-8316
顶尖	-8317
质量管理体系	-8318
▁Center	-8319
位列	-8320
护肤	-8321
ser	-8322
月中	-8323
▁为	-8324
▁Rec	-8325
号召	-8326
信仰	-8327
追踪	-8328
带头	-8329
▁Af	-8330
重返	-8331
扭矩	-8332
tire	-8333
oman	-8334
不一样的	-8335
rain	-8336
▁40	-8337
的那	-8338
股市	-8339
▁please	-8340
十九	-8341
各方	-8342
柔性	-8343
操作简单	-8344
▁short	-8345
360	-8346
官员	-8347
就诊	-8348
▁Ser	-8349
日制	-8350
nes	-8351
内在	-8352
reg	-8353
▁soft	-8354
记住	-8355
hers	-8356
租车	-8357
损耗	-8358
会让	-8359
▁offers	-8360
排列	-8361
极具	-8362
短信	-8363
ube	-8364
剩余	-8365
宏观	-8366
斯科	-8367
hic	-8368
ttps	-8369
热电	-8370
rat	-8371
▁//	-8372
place	-8373
科学研究	-8374
irt	-8375
普通的	-8376
卡塔尔	-8377
医保	-8378
tig	-8379
和生活	-8380
06	-8381
加固	-8382
技术与	-8383
为其	-8384
积极参与	-8385
眼前	-8386
海岸	-8387
哪家	-8388
▁brand	-8389
游戏中	-8390
但由于	-8391
▁typ	-8392
余名	-8393
婚礼	-8394
腹泻	-8395
avid	-8396
可供	-8397
的具体	-8398
▁poin	-8399
之上	-8400
实事	-8401
兼容	-8402
例子	-8403
可以使用	-8404
见面	-8405
更能	-8406
▁Do	-8407
▁others	-8408
▁means	-8409
hy	-8410
马拉	-8411
企业发展	-8412
手中	-8413
知名度	-8414
▁months	-8415
数据的	-8416
河流	-8417
执业	-8418
拆除	-8419
▁Am	-8420
营业执照	-8421
一件	-8422
传统文化	-8423
ibr	-8424
开创	-8425
一样的	-8426
荧光	-8427
的消息	-8428
事物	-8429
▁enc	-8430
▁docu	-8431
的经营理念	-8432
▁County	-8433
等到	-8434
len	-8435
了对	-8436
勇于	-8437
的组织	-8438
head	-8439
▁der	-8440
金融机构	-8441
体积小	-8442
坐在	-8443
誉为	-8444
ulation	-8445
▁official	-8446
公积金	-8447
ancial	-8448
高精度	-8449
hel	-8450
▁sus	-8451
用手	-8452
福德	-8453
也非常	-8454
空气中	-8455
ored	-8456
nHow	-8457
发扬	-8458
地说	-8459
▁features	-8460
eral	-8461
▁log	-8462
同样的	-8463
3.5	-8464
▁tour	-8465
ij	-8466
auti	-8467
▁outs	-8468
长城	-8469
供暖	-8470
▁Will	-8471
▁close	-8472
繁荣	-8473
水源	-8474
体温	-8475
而成的	-8476
其中包括	-8477
副校长	-8478
小朋友	-8479
ically	-8480
ips	-8481
一直以来	-8482
两国	-8483
亏损	-8484
太空	-8485
新车	-8486
在生产	-8487
作为一个	-8488
▁problem	-8489
乳化	-8490
向前	-8491
isten	-8492
征收	-8493
应聘	-8494
了一种	-8495
▁companies	-8496
算是	-8497
流失	-8498
浏览器	-8499
衔接	-8500
深深	-8501
就没有	-8502
▁cr	-8503
03	-8504
造成了	-8505
▁Inc	-8506
专业技术	-8507
RS	-8508
一半	-8509
一座	-8510
▁sug	-8511
营业收入	-8512
个小时	-8513
可以直接	-8514
osed	-8515
完成后	-8516
oma	-8517
一般在	-8518
第二阶段	-8519
的新型	-8520
克力	-8521
成套	-8522
繁殖	-8523
的压力	-8524
联轴器	-8525
候选	-8526
做得	-8527
拍照	-8528
▁artic	-8529
尽早	-8530
一部	-8531
伊朗	-8532
人为本	-8533
众所周知	-8534
出厂	-8535
ilities	-8536
iles	-8537
▁final	-8538
17.	-8539
的优点	-8540
倒数	-8541
▁war	-8542
批量	-8543
央行	-8544
人们对	-8545
▁dem	-8546
恐怖	-8547
这意味着	-8548
直至	-8549
了中国	-8550
▁iden	-8551
学子	-8552
蓬勃	-8553
▁challe	-8554
满满	-8555
▁Cent	-8556
呈现出	-8557
又能	-8558
前提	-8559
编剧	-8560
▁history	-8561
角球	-8562
unities	-8563
在上海	-8564
神奇	-8565
散热器	-8566
▁mess	-8567
效能	-8568
美味	-8569
▁account	-8570
会给	-8571
除湿	-8572
就不会	-8573
▁Sm	-8574
梳理	-8575
cted	-8576
并且在	-8577
博会	-8578
拆卸	-8579
该如何	-8580
witter	-8581
智能制造	-8582
我不	-8583
总计	-8584
▁sy	-8585
仅次于	-8586
▁hig	-8587
螺纹	-8588
极限	-8589
▁added	-8590
▁thing	-8591
高雄	-8592
宾馆	-8593
▁low	-8594
罚款	-8595
一直是	-8596
住院	-8597
年限	-8598
手法	-8599
云南省	-8600
尔特	-8601
再行	-8602
十字	-8603
系统和	-8604
中标	-8605
重建	-8606
发生器	-8607
他表示	-8608
同比下降	-8609
▁body	-8610
rict	-8611
铺设	-8612
监会	-8613
看好	-8614
跟随	-8615
-11	-8616
▁mean	-8617
la	-8618
有一定	-8619
怀疑	-8620
搬家	-8621
这座	-8622
终身	-8623
▁Group	-8624
时要	-8625
替补	-8626
护士	-8627
两名	-8628
规范化	-8629
已经在	-8630
抗疫	-8631
语文	-8632
来自于	-8633
▁strong	-8634
长安	-8635
的研发	-8636
部队	-8637
sw	-8638
nWhat	-8639
地处	-8640
吸烟	-8641
荣耀	-8642
校企	-8643
▁据	-8644
民用	-8645
平凡	-8646
间接	-8647
▁self	-8648
Google	-8649
轻轻	-8650
关注的	-8651
只不过	-8652
▁anal	-8653
挂牌	-8654
国家和地区	-8655
合作的	-8656
元的	-8657
组成员	-8658
合作关系	-8659
机油	-8660
rag	-8661
可实现	-8662
lent	-8663
消防安全	-8664
加剧	-8665
名列	-8666
有意	-8667
所得税	-8668
▁Oct	-8669
恶性	-8670
编写	-8671
▁concer	-8672
先行	-8673
www	-8674
短视频	-8675
指引	-8676
ams	-8677
酸性	-8678
清新	-8679
▁example	-8680
促销	-8681
处理设备	-8682
电极	-8683
▁quick	-8684
因此在	-8685
相对于	-8686
安防	-8687
我认为	-8688
▁doesn	-8689
一个新的	-8690
香味	-8691
▁commit	-8692
不低于	-8693
门槛	-8694
立柱	-8695
工作效率	-8696
▁La	-8697
乌克兰	-8698
客厅	-8699
流量计	-8700
我希望	-8701
ternet	-8702
担忧	-8703
手的	-8704
迎战	-8705
烘干机	-8706
重要作用	-8707
这个时候	-8708
豆腐	-8709
负面	-8710
正面	-8711
不高	-8712
客户需求	-8713
料的	-8714
端的	-8715
致辞	-8716
4,	-8717
独家	-8718
▁Mo	-8719
▁private	-8720
蜂蜜	-8721
酸碱	-8722
恋爱	-8723
nAs	-8724
平台的	-8725
优美	-8726
征求	-8727
山东泰山	-8728
();\	-8729
ura	-8730
cept	-8731
省份	-8732
聚合物	-8733
风电	-8734
更进一步	-8735
OL	-8736
限度	-8737
▁hours	-8738
医疗机构	-8739
,12	-8740
副总裁	-8741
诠释	-8742
从此	-8743
之日起	-8744
2:	-8745
副会长	-8746
医用	-8747
节能环保	-8748
防锈	-8749
▁West	-8750
江西省	-8751
中含有	-8752
山水	-8753
牢记	-8754
▁International	-8755
按时	-8756
的社会	-8757
加深	-8758
气质	-8759
现将	-8760
展望	-8761
无效	-8762
▁deb	-8763
pected	-8764
▁April	-8765
模范	-8766
越多	-8767
某某	-8768
▁Qu	-8769
个别	-8770
成立了	-8771
锂电池	-8772
高等教育	-8773
卫视	-8774
真理	-8775
0.1	-8776
接线	-8777
主要由	-8778
autiful	-8779
▁El	-8780
那就	-8781
▁)	-8782
市级	-8783
Ad	-8784
名言	-8785
困境	-8786
出资	-8787
天空	-8788
步入	-8789
华南	-8790
阳台	-8791
讲究	-8792
倾向	-8793
▁friends	-8794
强势	-8795
老师的	-8796
iod	-8797
亚太	-8798
激动	-8799
光谱	-8800
让孩子	-8801
党委副书记	-8802
打磨	-8803
▁March	-8804
调解	-8805
近年	-8806
ecu	-8807
不存在	-8808
有很大的	-8809
标记	-8810
两天	-8811
key	-8812
简化	-8813
一块	-8814
已在	-8815
约翰	-8816
真空泵	-8817
的可能性	-8818
bum	-8819
成都市	-8820
台中	-8821
ournal	-8822
饱满	-8823
明亮	-8824
了一些	-8825
立方米	-8826
aut	-8827
的人员	-8828
脚手	-8829
off	-8830
可惜	-8831
底线	-8832
淘宝	-8833
ngth	-8834
家园	-8835
▁ev	-8836
入境	-8837
的结构	-8838
中国女足	-8839
把它	-8840
▁Aug	-8841
气流	-8842
、5	-8843
不断发展	-8844
冷水	-8845
穿越	-8846
OM	-8847
开学	-8848
▁author	-8849
ued	-8850
▁price	-8851
▁later	-8852
原有	-8853
绿茶	-8854
nTh	-8855
栏目	-8856
6%	-8857
班级	-8858
atural	-8859
入围	-8860
最多的	-8861
▁Fin	-8862
一方	-8863
And	-8864
的总	-8865
红酒	-8866
第二个	-8867
自助	-8868
RC	-8869
和企业	-8870
duce	-8871
中小学	-8872
吃的	-8873
log	-8874
近几年	-8875
供热	-8876
)(	-8877
孵化	-8878
▁appear	-8879
若是	-8880
英镑	-8881
不敌	-8882
教育局	-8883
复工	-8884
开始了	-8885
更加的	-8886
amb	-8887
行走	-8888
10000	-8889
将对	-8890
分成	-8891
发病率	-8892
资源的	-8893
▁customers	-8894
人造	-8895
urch	-8896
▁staff	-8897
new	-8898
回转	-8899
拼接	-8900
07	-8901
多媒体	-8902
为目标	-8903
yc	-8904
在未来	-8905
的前提下	-8906
这场比赛	-8907
18.	-8908
伺服	-8909
▁bar	-8910
▁discuss	-8911
专业生产	-8912
变成了	-8913
ands	-8914
矿业	-8915
量身	-8916
1998	-8917
巴塞罗	-8918
安置	-8919
教研	-8920
伟大的	-8921
▁break	-8922
定时	-8923
mes	-8924
将近	-8925
办事处	-8926
原因是	-8927
高新区	-8928
▁user	-8929
援助	-8930
这不	-8931
idd	-8932
别人的	-8933
▁issues	-8934
史上	-8935
我们也	-8936
找到了	-8937
书写	-8938
::	-8939
▁ener	-8940
upp	-8941
挤出	-8942
过渡	-8943
得出	-8944
▁п	-8945
看似	-8946
分析师	-8947
除尘器	-8948
▁took	-8949
轻易	-8950
中央空调	-8951
用人单位	-8952
一定要注意	-8953
AB	-8954
建设和	-8955
ably	-8956
备战	-8957
全体员工	-8958
无缝钢管	-8959
冠状病毒	-8960
军人	-8961
注目	-8962
督导	-8963
▁clean	-8964
开花	-8965
半决赛	-8966
了一场	-8967
▁enough	-8968
▁text	-8969
年后	-8970
环境污染	-8971
350	-8972
的一次	-8973
02	-8974
英寸	-8975
间隔	-8976
2025	-8977
赋能	-8978
判决	-8979
总会	-8980
审视	-8981
itc	-8982
angu	-8983
县委	-8984
▁games	-8985
筹备	-8986
▁events	-8987
在我	-8988
70%	-8989
预制	-8990
ara	-8991
并为	-8992
▁web	-8993
▁publ	-8994
省委	-8995
螺丝	-8996
光明	-8997
中华民族	-8998
逆转	-8999
巴塞罗那	-9000
输送机	-9001
风雨	-9002
打印机	-9003
燃油	-9004
生殖	-9005
▁doing	-9006
fic	-9007
始终坚持	-9008
精湛	-9009
风口	-9010
为导向	-9011
ither	-9012
▁result	-9013
蛋糕	-9014
oring	-9015
也是一	-9016
还是要	-9017
车身	-9018
的处理	-9019
▁Reg	-9020
长远	-9021
在今年	-9022
新赛季	-9023
有关规定	-9024
一一	-9025
的球队	-9026
各式	-9027
季后	-9028
稀释	-9029
阻碍	-9030
电动汽车	-9031
自来水	-9032
▁due	-9033
失误	-9034
粗糙	-9035
符号	-9036
座谈会	-9037
原件	-9038
毕业于	-9039
▁email	-9040
▁song	-9041
简要	-9042
合力	-9043
畅通	-9044
依次	-9045
uild	-9046
非常好	-9047
电厂	-9048
并提供	-9049
ians	-9050
▁office	-9051
天天	-9052
正如	-9053
的因素	-9054
PH	-9055
不对	-9056
▁given	-9057
喜剧	-9058
付款	-9059
古老	-9060
佛山	-9061
指令	-9062
疯狂	-9063
科学与	-9064
款式	-9065
脚手架	-9066
ufact	-9067
比如说	-9068
经济学	-9069
学费	-9070
水库	-9071
物质的	-9072
记者从	-9073
凤凰	-9074
你知道	-9075
不佳	-9076
犯规	-9077
▁unique	-9078
估值	-9079
文本	-9080
水晶	-9081
▁pict	-9082
的整体	-9083
头痛	-9084
般的	-9085
拉力	-9086
..\	-9087
网址	-9088
长久	-9089
流动性	-9090
▁与	-9091
和大	-9092
市场竞争	-9093
ра	-9094
pre	-9095
▁States	-9096
▁once	-9097
位移	-9098
气息	-9099
tee	-9100
志愿服务	-9101
一看	-9102
今天的	-9103
细分	-9104
▁Day	-9105
截至目前	-9106
acy	-9107
▁performance	-9108
在了	-9109
po	-9110
疫情影响	-9111
共识	-9112
愉快	-9113
土耳	-9114
most	-9115
umb	-9116
的其他	-9117
▁deal	-9118
出演	-9119
精彩的	-9120
▁press	-9121
▁minutes	-9122
求职	-9123
pping	-9124
美洲	-9125
以来的	-9126
因子	-9127
碳酸	-9128
▁Christ	-9129
仍在	-9130
笔者	-9131
91	-9132
仍有	-9133
▁purcha	-9134
首要	-9135
对我们	-9136
当地时间	-9137
财政部	-9138
钻石	-9139
保温材料	-9140
▁January	-9141
精选	-9142
▁simple	-9143
和生产	-9144
网站建设	-9145
CH	-9146
展厅	-9147
进去	-9148
aus	-9149
▁High	-9150
创新的	-9151
▁2013	-9152
业务的	-9153
需要在	-9154
直线	-9155
▁age	-9156
剧院	-9157
一般为	-9158
atur	-9159
6-	-9160
EO	-9161
伸缩	-9162
分支	-9163
大家在	-9164
▁among	-9165
放射	-9166
研磨	-9167
Wikipedia	-9168
容积	-9169
tage	-9170
额外	-9171
然后再	-9172
烹饪	-9173
市值	-9174
土耳其	-9175
次的	-9176
在中	-9177
变动	-9178
质疑	-9179
▁Sha	-9180
月至	-9181
是一家集	-9182
下方	-9183
学习的	-9184
排行榜	-9185
▁date	-9186
▁begin	-9187
你要	-9188
{\	-9189
▁talk	-9190
东风	-9191
做为	-9192
ert	-9193
善于	-9194
解析	-9195
辛辣	-9196
比特币	-9197
操作系统	-9198
对照	-9199
敬业	-9200
adem	-9201
组长	-9202
南北	-9203
头球	-9204
一起来看看	-9205
▁These	-9206
利用率	-9207
矿石	-9208
失眠	-9209
的无	-9210
理工大学	-9211
华人	-9212
趣味	-9213
地块	-9214
蔓延	-9215
宣传片	-9216
非常重要的	-9217
是如何	-9218
机房	-9219
冷却塔	-9220
意志	-9221
的文化	-9222
忠诚	-9223
▁clear	-9224
台南	-9225
orks	-9226
得多	-9227
讲述了	-9228
严重影响	-9229
的热情	-9230
Com	-9231
决定了	-9232
脸上	-9233
uts	-9234
谷歌	-9235
都将	-9236
断裂	-9237
针对性	-9238
专业知识	-9239
▁House	-9240
工信	-9241
的艺术	-9242
中毒	-9243
▁miss	-9244
生锈	-9245
在上	-9246
透气	-9247
动脉	-9248
▁connec	-9249
相处	-9250
▁provides	-9251
威尔	-9252
▁sound	-9253
▁prom	-9254
教会	-9255
图纸	-9256
▁econom	-9257
ault	-9258
机动车	-9259
mail	-9260
▁aud	-9261
时应	-9262
工程技术	-9263
赛程	-9264
FT	-9265
检测仪	-9266
全过程	-9267
使用了	-9268
▁true	-9269
全区	-9270
,11	-9271
浓缩	-9272
中国人民	-9273
出具	-9274
污水处理设备	-9275
EE	-9276
▁results	-9277
机能	-9278
大面积	-9279
8%	-9280
租金	-9281
▁address	-9282
温州	-9283
异味	-9284
执导	-9285
MI	-9286
服务商	-9287
仅为	-9288
专线	-9289
南通	-9290
细胞的	-9291
等一系列	-9292
ague	-9293
▁UK	-9294
最重要	-9295
▁version	-9296
人间	-9297
年纪	-9298
工业和	-9299
▁Austral	-9300
击中	-9301
培训班	-9302
秉持	-9303
迄今	-9304
酰胺	-9305
reate	-9306
▁property	-9307
NG	-9308
▁wa	-9309
reet	-9310
▁Part	-9311
文档	-9312
本场	-9313
充分的	-9314
政协	-9315
短短	-9316
▁training	-9317
iPhone	-9318
粘结	-9319
▁в	-9320
写字	-9321
产品有	-9322
的球员	-9323
test	-9324
数位	-9325
什么时候	-9326
议题	-9327
全日制	-9328
展览会	-9329
骑士	-9330
新人	-9331
tra	-9332
总承包	-9333
撰写	-9334
抗体	-9335
▁Google	-9336
▁Health	-9337
减小	-9338
情怀	-9339
紧紧	-9340
是国家	-9341
ception	-9342
祝贺	-9343
部门的	-9344
才可以	-9345
可以说是	-9346
总之	-9347
公布的	-9348
▁fore	-9349
▁exc	-9350
手游	-9351
处在	-9352
光线	-9353
双向	-9354
化解	-9355
重型	-9356
▁yet	-9357
勇敢	-9358
桃园	-9359
定点	-9360
商贸	-9361
开了	-9362
胶带	-9363
▁atta	-9364
病症	-9365
稳健	-9366
产品和	-9367
企业文化	-9368
~\	-9369
我们应该	-9370
评分	-9371
副主席	-9372
必须在	-9373
tember	-9374
5,	-9375
墨西	-9376
的有	-9377
督促	-9378
预订	-9379
face	-9380
▁member	-9381
瑞典	-9382
服饰	-9383
工程的	-9384
好转	-9385
▁Feb	-9386
海拔	-9387
展现了	-9388
resh	-9389
肥料	-9390
另一种	-9391
pm	-9392
范畴	-9393
差不多	-9394
tivity	-9395
的爱	-9396
▁TV	-9397
意识到	-9398
作为一种	-9399
发电机组	-9400
有必要	-9401
不敢	-9402
pper	-9403
输送带	-9404
▁least	-9405
助推	-9406
外资	-9407
咨询服务	-9408
劳动力	-9409
优于	-9410
买家	-9411
产地	-9412
大厅	-9413
-30	-9414
不少于	-9415
▁bit	-9416
平台上	-9417
中国人	-9418
ilita	-9419
保密	-9420
倾斜	-9421
说明书	-9422
度过	-9423
8000	-9424
锦标	-9425
▁coll	-9426
在工作	-9427
官方网站	-9428
整洁	-9429
应用的	-9430
▁particip	-9431
粘合	-9432
认为是	-9433
速率	-9434
聚酯	-9435
抗氧化	-9436
吸入	-9437
医学院	-9438
有一天	-9439
斯基	-9440
所以说	-9441
足以	-9442
金山	-9443
宁夏	-9444
衰老	-9445
19.	-9446
提供商	-9447
相关负责人	-9448
本轮	-9449
urance	-9450
风味	-9451
int	-9452
矿物	-9453
设备有限公司	-9454
铝型材	-9455
▁nec	-9456
尤其是在	-9457
nimport	-9458
▁hope	-9459
ING	-9460
▁announc	-9461
简约	-9462
附加赛	-9463
用车	-9464
PLC	-9465
生命的	-9466
微笑	-9467
珍珠	-9468
设计与	-9469
录音	-9470
缓冲	-9471
脚步	-9472
对自己	-9473
一道	-9474
中部	-9475
▁Im	-9476
▁management	-9477
新高	-9478
质的	-9479
嵌入	-9480
源头	-9481
奖学金	-9482
▁War	-9483
环球	-9484
涉嫌	-9485
此后	-9486
这些问题	-9487
▁Char	-9488
无关	-9489
尔德	-9490
降雨	-9491
性疾病	-9492
▁4.	-9493
▁famil	-9494
▁according	-9495
目的地	-9496
数据中心	-9497
天津市	-9498
战平	-9499
大使	-9500
升温	-9501
风光	-9502
墨西哥	-9503
▁search	-9504
机和	-9505
紊乱	-9506
优异的	-9507
、2	-9508
红茶	-9509
理事长	-9510
学士	-9511
不仅仅是	-9512
出门	-9513
扳平	-9514
有所不同	-9515
ope	-9516
日凌晨	-9517
DI	-9518
ledge	-9519
珠海	-9520
▁respons	-9521
不符合	-9522
球星	-9523
领军	-9524
标杆	-9525
出生于	-9526
三次	-9527
管路	-9528
▁certain	-9529
下一个	-9530
Pl	-9531
意的	-9532
odel	-9533
我和	-9534
▁areas	-9535
灵感	-9536
ateg	-9537
新西兰	-9538
ev	-9539
外包	-9540
▁tax	-9541
▁told	-9542
首届	-9543
140	-9544
▁seen	-9545
比赛的	-9546
皮肤的	-9547
发改委	-9548
年产	-9549
新品	-9550
间距	-9551
▁improve	-9552
主轴	-9553
更具	-9554
嫌疑	-9555
以防	-9556
ari	-9557
摆放	-9558
加强对	-9559
▁June	-9560
到期	-9561
的比例	-9562
注意力	-9563
恐惧	-9564
马斯	-9565
net	-9566
湿地	-9567
aken	-9568
监督管理	-9569
变为	-9570
的用户	-9571
aim	-9572
目光	-9573
行星	-9574
切断	-9575
场均	-9576
相连	-9577
起步	-9578
也越来越	-9579
生产能力	-9580
找出	-9581
暴雨	-9582
沿海	-9583
的角度	-9584
传送	-9585
成年人	-9586
的主题	-9587
党员干部	-9588
▁travel	-9589
要及时	-9590
抗震	-9591
▁Associ	-9592
数值	-9593
花生	-9594
高水平	-9595
自律	-9596
与我们	-9597
可以将	-9598
固醇	-9599
愿望	-9600
执教	-9601
周岁	-9602
开车	-9603
洗净	-9604
▁mind	-9605
列为	-9606
▁currently	-9607
上场	-9608
勇气	-9609
树木	-9610
终止	-9611
▁relations	-9612
都被	-9613
▁ach	-9614
可以看到	-9615
的经济	-9616
▁mag	-9617
追溯	-9618
投标人	-9619
去年同期	-9620
not	-9621
idence	-9622
肝脏	-9623
党组织	-9624
▁Gra	-9625
甲状	-9626
,2017	-9627
失调	-9628
塑性	-9629
高职	-9630
黄河	-9631
▁didn	-9632
真的是	-9633
onse	-9634
去做	-9635
▁beh	-9636
EX	-9637
RA	-9638
折叠	-9639
身材	-9640
展开了	-9641
实际行动	-9642
不确定	-9643
全县	-9644
这条	-9645
但我	-9646
的国际	-9647
开门	-9648
在哪里	-9649
icha	-9650
ilar	-9651
漏洞	-9652
给自己	-9653
ground	-9654
一大	-9655
力求	-9656
提起	-9657
民国	-9658
任意球	-9659
局限	-9660
60%	-9661
尼龙	-9662
▁latest	-9663
ald	-9664
准则	-9665
可视	-9666
▁Air	-9667
无人机	-9668
▁happen	-9669
DNA	-9670
政策的	-9671
Sc	-9672
函数	-9673
改性	-9674
一般是	-9675
▁size	-9676
和支持	-9677
请联系	-9678
帷幕	-9679
▁bed	-9680
可行	-9681
▁via	-9682
▁公司	-9683
修建	-9684
▁Dr	-9685
希望对	-9686
PG	-9687
取得的	-9688
将与	-9689
有一种	-9690
活塞	-9691
流感	-9692
▁Aut	-9693
ext	-9694
的声音	-9695
教育教学	-9696
ances	-9697
显微	-9698
胎儿	-9699
标的	-9700
日消息	-9701
ovember	-9702
nBy	-9703
风机的	-9704
。”",	-9705
疑惑	-9706
▁particular	-9707
激活	-9708
现有的	-9709
稍微	-9710
参照	-9711
发现了	-9712
、1	-9713
路口	-9714
xx	-9715
品尝	-9716
感知	-9717
征集	-9718
现阶段	-9719
救助	-9720
饮品	-9721
接下来的	-9722
并购	-9723
(6	-9724
ga	-9725
利的	-9726
合资	-9727
点评	-9728
▁celeb	-9729
克森	-9730
修理	-9731
鲜明	-9732
cep	-9733
各行	-9734
行车	-9735
▁professional	-9736
它在	-9737
▁buy	-9738
特别的	-9739
这段	-9740
▁July	-9741
无害	-9742
抗压	-9743
eth	-9744
子里	-9745
日后	-9746
热带	-9747
保证金	-9748
代理商	-9749
原来的	-9750
▁cult	-9751
矿物质	-9752
中空	-9753
osp	-9754
当我们	-9755
排污	-9756
丧失	-9757
墙板	-9758
温和	-9759
肠胃	-9760
Windows	-9761
男足	-9762
▁2012	-9763
的有效	-9764
ondon	-9765
皇帝	-9766
题目	-9767
三等奖	-9768
本身的	-9769
▁includes	-9770
约束	-9771
在该	-9772
洗手	-9773
ica	-9774
副局长	-9775
三个月	-9776
ouch	-9777
一般情况下	-9778
大致	-9779
脱颖	-9780
表情	-9781
选择的	-9782
▁However	-9783
可使	-9784
早就	-9785
中西	-9786
改为	-9787
赛场	-9788
▁Dis	-9789
ни	-9790
创业者	-9791
绿色环保	-9792
入驻	-9793
演奏	-9794
自然科学	-9795
复兴	-9796
但却	-9797
▁piec	-9798
举办了	-9799
回头	-9800
碳纤维	-9801
像素	-9802
建于	-9803
水资源	-9804
集群	-9805
草原	-9806
回落	-9807
▁da	-9808
二人	-9809
他还	-9810
早餐	-9811
个工作	-9812
平方公里	-9813
▁Home	-9814
做什么	-9815
店的	-9816
▁sen	-9817
▁designed	-9818
tead	-9819
足球俱乐部	-9820
电子邮件	-9821
鉴于	-9822
为了让	-9823
▁tit	-9824
This	-9825
默默	-9826
简历	-9827
▁bat	-9828
城乡建设	-9829
辖区	-9830
rick	-9831
上级	-9832
网点	-9833
灌溉	-9834
观测	-9835
黑暗	-9836
▁我们	-9837
工程专业	-9838
一颗	-9839
各方面	-9840
▁link	-9841
nHe	-9842
新闻网	-9843
缩小	-9844
▁install	-9845
▁energy	-9846
是一名	-9847
的建筑	-9848
表现出	-9849
▁ago	-9850
SM	-9851
配音	-9852
主办的	-9853
微信公众号	-9854
大地	-9855
可直接	-9856
hib	-9857
itive	-9858
常委	-9859
除外	-9860
链条	-9861
国庆	-9862
深耕	-9863
了自己的	-9864
评定	-9865
首选	-9866
▁President	-9867
发明专利	-9868
保罗	-9869
出国	-9870
持久	-9871
的方向	-9872
气味	-9873
等服务	-9874
将有	-9875
空气质量	-9876
▁further	-9877
榜首	-9878
沙特	-9879
IL	-9880
的最佳	-9881
二维码	-9882
基准	-9883
质感	-9884
身高	-9885
的人们	-9886
女排	-9887
实惠	-9888
抖音	-9889
线性	-9890
该剧	-9891
-15	-9892
->	-9893
inux	-9894
手册	-9895
。<\\/	-9896
中外	-9897
▁br	-9898
同时也是	-9899
停机	-9900
QQ	-9901
集合	-9902
实的	-9903
线索	-9904
诊治	-9905
It	-9906
▁created	-9907
unt	-9908
劳动者	-9909
▁China	-9910
紧固	-9911
斯的	-9912
带领下	-9913
da	-9914
影院	-9915
溶于	-9916
疫情防控工作	-9917
酸钠	-9918
控制在	-9919
▁insp	-9920
OD	-9921
寻常	-9922
染色	-9923
意愿	-9924
集中在	-9925
▁style	-9926
国王	-9927
数百	-9928
分开	-9929
四年	-9930
甲状腺	-9931
巴巴	-9932
行业内	-9933
但这	-9934
用到	-9935
超出	-9936
金属材料	-9937
管网	-9938
驾驶员	-9939
信息公开	-9940
▁international	-9941
较差	-9942
▁我	-9943
科室	-9944
▁201	-9945
联赛中	-9946
中型	-9947
第九	-9948
年会	-9949
oid	-9950
的心态	-9951
lected	-9952
pped	-9953
在职	-9954
量为	-9955
音响	-9956
石膏	-9957
丢失	-9958
注意的是	-9959
多层	-9960
SA	-9961
布朗	-9962
易燃	-9963
偶像	-9964
前面	-9965
整齐	-9966
发展趋势	-9967
▁walk	-9968
热泵	-9969
十余	-9970
市的	-9971
二期	-9972
▁Cap	-9973
奠定了	-9974
常态化	-9975
生效	-9976
加州	-9977
struction	-9978
出于	-9979
警示	-9980
大门	-9981
走了	-9982
想起	-9983
主演的	-9984
敬请	-9985
烟台	-9986
一如	-9987
坚信	-9988
所述	-9989
▁human	-9990
wood	-9991
即使是	-9992
多位	-9993
金钱	-9994
推介	-9995
▁everything	-9996
洗车	-9997
立式	-9998
发展战略	-9999
▁recom	-10000
只会	-10001
牺牲	-10002
的孩子	-10003
电子产品	-10004
4%	-10005
领导小组	-10006
▁above	-10007
特斯拉	-10008
碳化	-10009
一季度	-10010
▁parent	-10011
精度高	-10012
aker	-10013
过硬	-10014
做事	-10015
公主	-10016
业态	-10017
▁popular	-10018
操控	-10019
多为	-10020
储能	-10021
但如果	-10022
木质	-10023
编织	-10024
应及时	-10025
进入了	-10026
no	-10027
ко	-10028
公安局	-10029
▁fre	-10030
和小	-10031
cial	-10032
伤口	-10033
十六	-10034
合一	-10035
茅台	-10036
▁various	-10037
亲切	-10038
的成功	-10039
▁sw	-10040
过往	-10041
我们必须	-10042
胎记	-10043
当初	-10044
以满足	-10045
焚烧	-10046
粒子	-10047
本次活动	-10048
时间长	-10049
▁trying	-10050
进了	-10051
不可避免	-10052
▁taking	-10053
之家	-10054
动能	-10055
之前的	-10056
6,	-10057
杜绝	-10058
clus	-10059
不便	-10060
性能和	-10061
民事	-10062
▁fit	-10063
▁engine	-10064
十几	-10065
lers	-10066
▁application	-10067
艰苦	-10068
衡量	-10069
因为它	-10070
这首	-10071
ales	-10072
以人为本	-10073
客房	-10074
技术研发	-10075
沉浸	-10076
▁beautiful	-10077
并发症	-10078
无缘	-10079
据介绍	-10080
任职	-10081
市面上	-10082
比较多	-10083
个案	-10084
打出	-10085
掌控	-10086
的创新	-10087
营商	-10088
卵巢	-10089
张家	-10090
▁third	-10091
有无	-10092
色调	-10093
诈骗	-10094
不好的	-10095
▁study	-10096
的时代	-10097
亚马	-10098
复合材料	-10099
水上	-10100
得很	-10101
聪明	-10102
最后的	-10103
不予	-10104
是一些	-10105
的需要	-10106
短时间内	-10107
你是	-10108
win	-10109
▁experien	-10110
瘙痒	-10111
迎来了	-10112
是一位	-10113
还具有	-10114
并能	-10115
从而使	-10116
本产品	-10117
旅程	-10118
提到过	-10119
申花	-10120
情的	-10121
量化	-10122
▁日	-10123
知的	-10124
离合	-10125
缺席	-10126
真人	-10127
便携	-10128
还不	-10129
▁role	-10130
姐姐	-10131
万人次	-10132
几个月	-10133
马德里	-10134
ibility	-10135
量子	-10136
开发商	-10137
文化遗产	-10138
程式	-10139
装卸	-10140
路段	-10141
深刻的	-10142
省政府	-10143
西湖	-10144
手指	-10145
同仁	-10146
各行各	-10147
郑州市	-10148
膳食	-10149
▁held	-10150
经意间	-10151
到现在	-10152
学生们	-10153
门户	-10154
▁question	-10155
等症状	-10156
清华大学	-10157
▁previous	-10158
刺激性	-10159
投影	-10160
的表面	-10161
▁continue	-10162
批次	-10163
交往	-10164
值的	-10165
巴士	-10166
▁model	-10167
nb	-10168
崛起	-10169
保鲜	-10170
考研	-10171
一定程度上	-10172
▁super	-10173
了吗	-10174
uter	-10175
线圈	-10176
年间	-10177
充满了	-10178
在国际	-10179
是一件	-10180
gress	-10181
另有	-10182
致使	-10183
季后赛	-10184
信托	-10185
艺人	-10186
净化器	-10187
加热器	-10188
各单位	-10189
时段	-10190
征程	-10191
”,“	-10192
百分之	-10193
▁progra	-10194
引起了	-10195
soft	-10196
▁living	-10197
立法	-10198
党组	-10199
新城	-10200
▁After	-10201
你在	-10202
完工	-10203
擦拭	-10204
经验的	-10205
发布会上	-10206
净水器	-10207
开水	-10208
分工	-10209
油水	-10210
里面的	-10211
获胜	-10212
空白	-10213
医生的	-10214
riday	-10215
理性	-10216
三位	-10217
ply	-10218
系列的	-10219
交所	-10220
势头	-10221
共同努力	-10222
1996	-10223
GO	-10224
新台	-10225
ithub	-10226
▁vari	-10227
电热	-10228
ires	-10229
aging	-10230
入手	-10231
较强	-10232
为公司	-10233
8,	-10234
yd	-10235
互通	-10236
▁dou	-10237
▁recommend	-10238
宝石	-10239
trol	-10240
3%,	-10241
以下的	-10242
▁Time	-10243
审议	-10244
运维	-10245
短路	-10246
安全可靠	-10247
版的	-10248
▁San	-10249
20.	-10250
调速	-10251
直接影响	-10252
这时候	-10253
马克思	-10254
建设工程	-10255
出线	-10256
不同于	-10257
朝阳	-10258
▁wind	-10259
观音	-10260
毕业后	-10261
就已经	-10262
人次	-10263
公司将	-10264
包裹	-10265
界的	-10266
首位	-10267
超过了	-10268
1.6	-10269
轿车	-10270
为用户提供	-10271
生产设备	-10272
意向	-10273
途中	-10274
▁half	-10275
的海	-10276
都非常	-10277
麦克	-10278
1997	-10279
uel	-10280
工程学院	-10281
··	-10282
求精	-10283
畅销	-10284
如果在	-10285
▁Your	-10286
▁vehic	-10287
市场监管	-10288
实施方案	-10289
ington	-10290
▁track	-10291
PR	-10292
皮革	-10293
轮的	-10294
无症状	-10295
视力	-10296
晶体	-10297
有害物质	-10298
联手	-10299
大理	-10300
raft	-10301
电量	-10302
面貌	-10303
▁Don	-10304
多久	-10305
游玩	-10306
签下	-10307
这些都是	-10308
预选	-10309
ability	-10310
▁total	-10311
既往	-10312
菜单	-10313
引人	-10314
对决	-10315
大幅度	-10316
新风	-10317
▁foot	-10318
▁went	-10319
弥补	-10320
失去了	-10321
可将	-10322
ridge	-10323
的治疗方法	-10324
肥胖	-10325
anced	-10326
宣讲	-10327
本报	-10328
羽毛	-10329
咳嗽	-10330
可怕	-10331
olutions	-10332
km	-10333
就是要	-10334
▁Cons	-10335
到场	-10336
难免	-10337
增强了	-10338
气体的	-10339
nAl	-10340
onder	-10341
千年	-10342
bers	-10343
载荷	-10344
全员	-10345
ried	-10346
亚马逊	-10347
减震	-10348
▁tell	-10349
反渗透	-10350
7%	-10351
能让	-10352
5%,	-10353
或缺	-10354
▁period	-10355
▁issue	-10356
很小	-10357
iable	-10358
的品质	-10359
▁Star	-10360
Le	-10361
其在	-10362
脱离	-10363
吊装	-10364
公元	-10365
办公厅	-10366
应有	-10367
规章	-10368
上面的	-10369
电容	-10370
改变了	-10371
分之一	-10372
▁2010	-10373
▁December	-10374
猪肉	-10375
给他	-10376
芝麻	-10377
四氟	-10378
必定	-10379
出货	-10380
用在	-10381
工期	-10382
是企业	-10383
PI	-10384
▁Afric	-10385
ouncil	-10386
冰雪	-10387
国资	-10388
压滤	-10389
整机	-10390
▁ey	-10391
输掉	-10392
射手	-10393
不会有	-10394
今年以来	-10395
脱贫攻坚	-10396
区间	-10397
环境和	-10398
CM	-10399
几何	-10400
评级	-10401
顽固	-10402
▁questions	-10403
合法权益	-10404
舒适的	-10405
亚军	-10406
GDP	-10407
周一	-10408
des	-10409
阐述	-10410
外交	-10411
暖气片	-10412
制剂	-10413
科创	-10414
药剂	-10415
布鲁	-10416
为一体	-10417
硬质	-10418
余额	-10419
▁former	-10420
借鉴	-10421
111	-10422
变的	-10423
告诉记者	-10424
接受了	-10425
妇科	-10426
气管	-10427
性别	-10428
▁strate	-10429
之时	-10430
刹车	-10431
产学	-10432
机型	-10433
▁percent	-10434
▁mor	-10435
▁forward	-10436
防尘	-10437
现任	-10438
左侧	-10439
被誉为	-10440
起到了	-10441
ichael	-10442
它们的	-10443
的责任	-10444
比利时	-10445
对症	-10446
天使	-10447
得益	-10448
片区	-10449
铸件	-10450
top	-10451
aching	-10452
做一个	-10453
生产制造	-10454
Sp	-10455
油的	-10456
组委会	-10457
ided	-10458
定量	-10459
流传	-10460
▁actually	-10461
uge	-10462
▁Techn	-10463
▁一	-10464
实践中	-10465
下属	-10466
火车站	-10467
谋划	-10468
农业农村	-10469
ports	-10470
主队	-10471
外语	-10472
滑雪	-10473
▁cook	-10474
NS	-10475
集团的	-10476
vert	-10477
甚至是	-10478
走到	-10479
ending	-10480
oved	-10481
流入	-10482
回升	-10483
巨头	-10484
连结	-10485
▁God	-10486
奇怪	-10487
将进一步	-10488
体现在	-10489
特点是	-10490
cast	-10491
▁September	-10492
虚假	-10493
双手	-10494
华东	-10495
▁else	-10496
本项目	-10497
零食	-10498
ford	-10499
▁present	-10500
希望大家	-10501
空气中的	-10502
合规	-10503
?”\	-10504
不断扩大	-10505
在与	-10506
是根据	-10507
▁cred	-10508
传球	-10509
和中	-10510
不利于	-10511
也都	-10512
争冠	-10513
▁points	-10514
必备	-10515
▁Chris	-10516
工委	-10517
木地板	-10518
▁options	-10519
TE	-10520
脱颖而出	-10521
心中的	-10522
▁received	-10523
7-	-10524
与发展	-10525
PL	-10526
打造出	-10527
ishing	-10528
了许多	-10529
碱性	-10530
联储	-10531
哥哥	-10532
出席了	-10533
MW	-10534
施工现场	-10535
urg	-10536
。2021	-10537
曾经提到过	-10538
多样化	-10539
形式的	-10540
地理位置	-10541
织物	-10542
1.8	-10543
各有	-10544
增值税	-10545
主要从事	-10546
▁shows	-10547
▁America	-10548
ores	-10549
凸显	-10550
minist	-10551
ka	-10552
▁wide	-10553
一共	-10554
亚泰	-10555
三相	-10556
不等	-10557
防静电	-10558
显现	-10559
浓郁	-10560
存在着	-10561
7,	-10562
比起	-10563
空间的	-10564
民营企业	-10565
亮度	-10566
鼓风机	-10567
word	-10568
▁October	-10569
他也	-10570
▁education	-10571
np	-10572
已经有	-10573
心理学	-10574
▁Pri	-10575
▁thought	-10576
企事业单位	-10577
三天	-10578
值班	-10579
服务和	-10580
粘接	-10581
pecially	-10582
几次	-10583
模糊	-10584
hern	-10585
fully	-10586
ida	-10587
就开始	-10588
没有什么	-10589
年至	-10590
▁By	-10591
工业生产	-10592
境界	-10593
月饼	-10594
表格	-10595
reme	-10596
附着	-10597
贵州省	-10598
东盟	-10599
红斑	-10600
氧化物	-10601
廉政	-10602
奇迹	-10603
▁front	-10604
▁ensure	-10605
右侧	-10606
随便	-10607
mers	-10608
身影	-10609
▁tar	-10610
的行业	-10611
雷斯	-10612
龙门	-10613
帮忙	-10614
女友	-10615
▁"1.	-10616
:1、	-10617
NO	-10618
▁whether	-10619
lu	-10620
2-3	-10621
不败	-10622
经济社会发展	-10623
发力	-10624
▁release	-10625
导入	-10626
石灰	-10627
hold	-10628
▁poten	-10629
ро	-10630
倒入	-10631
▁fa	-10632
成像	-10633
nect	-10634
不忘初心	-10635
笔试	-10636
进出	-10637
癫痫病	-10638
白癜风治疗	-10639
▁watch	-10640
▁reason	-10641
看完	-10642
▁Of	-10643
防线	-10644
业内人士	-10645
比较大	-10646
要知道	-10647
tition	-10648
▁located	-10649
姿态	-10650
滚动	-10651
政府采购	-10652
▁Direct	-10653
育人	-10654
亚冠	-10655
治好	-10656
短暂	-10657
深思	-10658
多特	-10659
追究	-10660
卧室	-10661
天堂	-10662
技艺	-10663
博客	-10664
摄氏	-10665
采用的	-10666
▁cut	-10667
定向	-10668
审美	-10669
发文	-10670
ternal	-10671
挥发	-10672
五一	-10673
起着	-10674
孤独	-10675
悬挂	-10676
甲基	-10677
的客户	-10678
荣誉称号	-10679
dy	-10680
初级	-10681
质地	-10682
我们对	-10683
者和	-10684
影响力的	-10685
▁ap	-10686
▁hon	-10687
的上	-10688
三人	-10689
贯穿	-10690
mas	-10691
▁required	-10692
汉语	-10693
和个人	-10694
vestig	-10695
▁region	-10696
唯一的	-10697
氨基酸	-10698
▁details	-10699
▁position	-10700
不止	-10701
▁image	-10702
、10	-10703
沃尔	-10704
质量的	-10705
工作时	-10706
布莱	-10707
最有	-10708
elcome	-10709
异议	-10710
相较	-10711
▁Red	-10712
社交媒体	-10713
到处	-10714
增幅	-10715
隔膜	-10716
递交	-10717
ION	-10718
网民	-10719
货车	-10720
大队	-10721
温柔	-10722
新冠病毒	-10723
▁original	-10724
div	-10725
▁click	-10726
开幕式	-10727
没有人	-10728
mi	-10729
剧场	-10730
角落	-10731
▁fire	-10732
TT	-10733
板式	-10734
▁College	-10735
获得的	-10736
▁national	-10737
▁action	-10738
over	-10739
锦标赛	-10740
▁den	-10741
anted	-10742
延迟	-10743
开裂	-10744
预案	-10745
▁meas	-10746
规程	-10747
比较高	-10748
zy	-10749
运送	-10750
绝大多数	-10751
▁white	-10752
会计师	-10753
万个	-10754
投资基金	-10755
平等	-10756
折扣	-10757
滚筒	-10758
nThere	-10759
安全管理	-10760
中断	-10761
破损	-10762
▁color	-10763
发货	-10764
取胜	-10765
华夏	-10766
商户	-10767
准确的	-10768
。2019	-10769
和新	-10770
忙碌	-10771
▁throughout	-10772
反击	-10773
报表	-10774
下车	-10775
成熟的	-10776
汇总	-10777
自愿	-10778
从业人员	-10779
考古	-10780
近视	-10781
造就	-10782
色列	-10783
楼梯	-10784
可以从	-10785
正常运行	-10786
白云	-10787
好看	-10788
普洱	-10789
教职工	-10790
常年	-10791
大街	-10792
定价	-10793
▁Facebook	-10794
李霄	-10795
小编就	-10796
▁career	-10797
领导班子	-10798
▁November	-10799
我国的	-10800
灭菌	-10801
hips	-10802
劳动合同	-10803
要把	-10804
除去	-10805
排队	-10806
已于	-10807
过去的	-10808
千万不要	-10809
商机	-10810
拓宽	-10811
窗户	-10812
它具有	-10813
斗争	-10814
自己在	-10815
法的	-10816
乐团	-10817
填报	-10818
耐候	-10819
▁black	-10820
名义	-10821
农场	-10822
▁India	-10823
同等	-10824
写道	-10825
订购	-10826
职业技术学院	-10827
真实的	-10828
▁Art	-10829
银屑病的	-10830
顶部	-10831
活泼	-10832
精华	-10833
▁security	-10834
备用	-10835
讯息	-10836
李霄鹏	-10837
▁six	-10838
要比	-10839
之后的	-10840
base	-10841
开采	-10842
▁taken	-10843
石油化工	-10844
再到	-10845
▁recog	-10846
Th	-10847
这里的	-10848
aign	-10849
花的	-10850
所能	-10851
管线	-10852
所有人	-10853
就是在	-10854
武术	-10855
烧结	-10856
蒸气	-10857
举行了	-10858
十三五	-10859
就被	-10860
的综合	-10861
▁Play	-10862
沿着	-10863
偶尔	-10864
鳞屑	-10865
这种疾病	-10866
lish	-10867
多么	-10868
ota	-10869
左右的	-10870
不断创新	-10871
▁card	-10872
要是	-10873
水位	-10874
分析仪	-10875
▁poli	-10876
逾期	-10877
治疗牛皮癣	-10878
▁coming	-10879
主张	-10880
知识和	-10881
▁amount	-10882
ators	-10883
▁whole	-10884
国立	-10885
稿件	-10886
食欲	-10887
与您	-10888
总数	-10889
功耗	-10890
堆积	-10891
民政	-10892
之美	-10893
aby	-10894
DR	-10895
锦赛	-10896
mental	-10897
就读	-10898
遇见	-10899
建筑材料	-10900
▁ver	-10901
班主任	-10902
经验和	-10903
贴心	-10904
车道	-10905
首页	-10906
iber	-10907
破裂	-10908
▁heart	-10909
▁...	-10910
作用下	-10911
小小的	-10912
▁announced	-10913
平行	-10914
每人	-10915
赞助	-10916
着重	-10917
龙头企业	-10918
真实性	-10919
心血管	-10920
一无	-10921
轻微	-10922
工况	-10923
呼吸道	-10924
吉祥	-10925
热闹	-10926
Cr	-10927
运会	-10928
武磊	-10929
水温	-10930
的营养	-10931
人生的	-10932
可选	-10933
高原	-10934
7%,	-10935
小麦	-10936
有过	-10937
传中	-10938
这是因为	-10939
。2020	-10940
大胆	-10941
You	-10942
乒乓	-10943
横向	-10944
结局	-10945
▁face	-10946
titute	-10947
欧洲杯	-10948
水产	-10949
▁send	-10950
剪切	-10951
县城	-10952
次助攻	-10953
通胀	-10954
上月	-10955
▁London	-10956
玻璃纤维	-10957
在设计	-10958
▁August	-10959
一句名言	-10960
▁attend	-10961
战士	-10962
3:	-10963
高质量的	-10964
▁vol	-10965
化学反应	-10966
▁从	-10967
新冠肺炎疫情	-10968
很好地	-10969
▁album	-10970
▁network	-10971
某一	-10972
印尼	-10973
ules	-10974
的价值	-10975
的日子	-10976
的重点	-10977
/\	-10978
精益求精	-10979
科技成果	-10980
开局	-10981
▁1、	-10982
――	-10983
也能够	-10984
ruary	-10985
博士后	-10986
做成	-10987
车床	-10988
石头	-10989
满意度	-10990
录制	-10991
mar	-10992
是全球	-10993
以赴	-10994
后勤	-10995
可以达到	-10996
敌人	-10997
ky	-10998
避免了	-10999
erman	-11000
上看	-11001
工程设计	-11002
▁idea	-11003
便秘	-11004
不稳定	-11005
等内容	-11006
自豪	-11007
火爆	-11008
▁phys	-11009
不怕	-11010
▁中	-11011
立场	-11012
胡萝卜	-11013
并可	-11014
检测设备	-11015
边界	-11016
▁opportunity	-11017
不安	-11018
tention	-11019
矫正	-11020
社团	-11021
在生活中	-11022
建筑业	-11023
强力	-11024
讨厌	-11025
▁death	-11026
提问	-11027
不是很	-11028
风貌	-11029
CEO	-11030
说过这样一句名言	-11031
0.2	-11032
与服务	-11033
▁du	-11034
▁users	-11035
单板	-11036
软管	-11037
▁recently	-11038
2500	-11039
▁Up	-11040
答复	-11041
9%	-11042
首轮	-11043
云端	-11044
人流	-11045
兴起	-11046
▁plat	-11047
一百	-11048
40%	-11049
的良好	-11050
礼仪	-11051
马达	-11052
关节炎	-11053
▁cover	-11054
奋进	-11055
区政府	-11056
这将	-11057
菲律	-11058
完备	-11059
哪种	-11060
以色列	-11061
304	-11062
是什么呢	-11063
pa	-11064
▁players	-11065
海口	-11066
1%,	-11067
高空	-11068
ville	-11069
散发	-11070
贵阳	-11071
价钱	-11072
山西省	-11073
不可或缺	-11074
万物	-11075
zui	-11076
代价	-11077
基本的	-11078
暴力	-11079
▁manufact	-11080
tivi	-11081
▁Some	-11082
通讯员	-11083
nf	-11084
冬奥会	-11085
并有	-11086
全力以赴	-11087
硬盘	-11088
时空	-11089
耳机	-11090
特定的	-11091
而且在	-11092
iddle	-11093
的地	-11094
急救	-11095
与管理	-11096
具有一定的	-11097
因应	-11098
互补	-11099
搬迁	-11100
在接受	-11101
相信大家	-11102
以保证	-11103
▁entire	-11104
▁road	-11105
宁静	-11106
4%,	-11107
辽宁省	-11108
hing	-11109
职业技能	-11110
场馆	-11111
也可能	-11112
▁running	-11113
ructure	-11114
庆典	-11115
正好	-11116
农历	-11117
▁His	-11118
知名品牌	-11119
▁soon	-11120
喜悦	-11121
废水处理	-11122
含义	-11123
▁red	-11124
TF	-11125
仿真	-11126
描写	-11127
骨架	-11128
菲律宾	-11129
▁pat	-11130
出有	-11131
野生	-11132
沉积	-11133
ociety	-11134
都没	-11135
四周	-11136
极端	-11137
肉类	-11138
([	-11139
用餐	-11140
HO	-11141
印花	-11142
真相	-11143
发掘	-11144
是大	-11145
不可以	-11146
目前在	-11147
▁Black	-11148
td	-11149
king	-11150
发展规划	-11151
治疗效果	-11152
witch	-11153
alls	-11154
based	-11155
吸尘	-11156
的传统	-11157
专人	-11158
合作社	-11159
草坪	-11160
微型	-11161
每个人都	-11162
尔多	-11163
но	-11164
清明	-11165
ese	-11166
无奈	-11167
和国家	-11168
装机	-11169
性能稳定	-11170
mary	-11171
倡议	-11172
在不经意间	-11173
ico	-11174
起来的	-11175
▁hit	-11176
们在	-11177
减缓	-11178
▁contrib	-11179
用工	-11180
复习	-11181
▁2、	-11182
柠檬	-11183
膜的	-11184
:10	-11185
是一项	-11186
摩托车	-11187
伴有	-11188
▁stay	-11189
借由	-11190
水中的	-11191
所在地	-11192
▁ess	-11193
一来	-11194
的大力	-11195
型钢	-11196
她在	-11197
整车	-11198
▁с	-11199
▁signific	-11200
创新发展	-11201
又一	-11202
太原	-11203
干细胞	-11204
rant	-11205
▁att	-11206
为自己	-11207
摄像头	-11208
▁Friday	-11209
CA	-11210
▁inj	-11211
和对	-11212
磁性	-11213
bor	-11214
核实	-11215
的操作	-11216
:2022	-11217
取出	-11218
安东	-11219
变频器	-11220
▁situ	-11221
洛杉	-11222
防晒	-11223
▁financial	-11224
方形	-11225
分级	-11226
教育厅	-11227
残疾人	-11228
占用	-11229
洛阳	-11230
时隔	-11231
行业的发展	-11232
住了	-11233
购房	-11234
epend	-11235
不懂	-11236
难得	-11237
会引起	-11238
tivities	-11239
加班	-11240
市场中	-11241
软化	-11242
中国科学院	-11243
民航	-11244
两个人	-11245
▁production	-11246
坚强	-11247
总支	-11248
将持续	-11249
改良	-11250
决议	-11251
善良	-11252
,20	-11253
静脉	-11254
的平台	-11255
场比赛中	-11256
一号	-11257
在内	-11258
兰特	-11259
分钟后	-11260
人民医院	-11261
屏蔽	-11262
ocal	-11263
旁边	-11264
’,	-11265
烧烤	-11266
不幸	-11267
洛杉矶	-11268
核准	-11269
对企业	-11270
伤病	-11271
例外	-11272
酿造	-11273
进水	-11274
▁projects	-11275
曝气	-11276
纷纷表示	-11277
名人	-11278
▁Ag	-11279
太平洋	-11280
置于	-11281
▁mach	-11282
所示	-11283
电工	-11284
是需要	-11285
crib	-11286
▁prob	-11287
初始	-11288
启用	-11289
的重	-11290
产品研发	-11291
心理健康	-11292
产品在	-11293
智能家居	-11294
▁everyone	-11295
闻名	-11296
纸张	-11297
的教育	-11298
的好处	-11299
illed	-11300
▁base	-11301
台风	-11302
脱发	-11303
保持在	-11304
▁common	-11305
偏方	-11306
▁stop	-11307
居然	-11308
装配式	-11309
各种各样的	-11310
媒体的	-11311
对中国	-11312
omin	-11313
才有	-11314
网红	-11315
贮存	-11316
针对性的	-11317
农户	-11318
替换	-11319
记账	-11320
刚开始	-11321
全天	-11322
聆听	-11323
用户体验	-11324
姑娘	-11325
tery	-11326
though	-11327
制定了	-11328
生产效率	-11329
个国家	-11330
▁favor	-11331
陈代谢	-11332
字母	-11333
。3	-11334
品类	-11335
典型的	-11336
自有	-11337
为主的	-11338
样式	-11339
风格的	-11340
更重要的是	-11341
UL	-11342
永恒	-11343
第二天	-11344
非常好的	-11345
仍是	-11346
俗称	-11347
想像	-11348
丹麦	-11349
等部门	-11350
风情	-11351
经贸	-11352
中介	-11353
▁stat	-11354
本品	-11355
客队	-11356
健康发展	-11357
arning	-11358
实战	-11359
狗狗	-11360
icrosoft	-11361
ned	-11362
的一面	-11363
▁someone	-11364
▁released	-11365
nQ	-11366
少吃	-11367
激光切割	-11368
▁pick	-11369
是利用	-11370
法律责任	-11371
▁provided	-11372
纳税人	-11373
付费	-11374
集聚	-11375
回事	-11376
裂纹	-11377
亚麻	-11378
▁Department	-11379
射线	-11380
是由于	-11381
认识到	-11382
nTo	-11383
混乱	-11384
当地的	-11385
isting	-11386
被动	-11387
要多	-11388
研究和	-11389
续约	-11390
▁global	-11391
estiv	-11392
我很	-11393
扣除	-11394
▁believe	-11395
海水	-11396
王子	-11397
原有的	-11398
field	-11399
1\	-11400
的意思	-11401
总面积	-11402
修补	-11403
▁creat	-11404
结构简单	-11405
防伪	-11406
irth	-11407
▁clients	-11408
医护人员	-11409
执行官	-11410
家政	-11411
▁establ	-11412
可再生	-11413
颁发的	-11414
话说	-11415
ibrary	-11416
衍生	-11417
网格	-11418
耐久	-11419
赛中	-11420
美国的	-11421
包容	-11422
▁worked	-11423
不清	-11424
证件	-11425
命名	-11426
很可能	-11427
经常出现	-11428
演艺	-11429
至关重要	-11430
▁store	-11431
8-	-11432
插入	-11433
着手	-11434
做大	-11435
检疫	-11436
人身	-11437
本月	-11438
的人群	-11439
专科医院	-11440
orge	-11441
本期	-11442
国际机场	-11443
采摘	-11444
道路上	-11445
项目部	-11446
▁blog	-11447
白癜风是一种	-11448
毫不	-11449
gn	-11450
指的是	-11451
极致	-11452
这名	-11453
口径	-11454
lier	-11455
注册资金	-11456
产后	-11457
新媒体	-11458
▁receive	-11459
rian	-11460
cks	-11461
风采	-11462
诚实	-11463
)”	-11464
打造的	-11465
提倡	-11466
的重要组成部分	-11467
仅供参考	-11468
一辆	-11469
旋律	-11470
▁leaders	-11471
▁Sund	-11472
防盗	-11473
列表	-11474
进行检查	-11475
在对	-11476
where	-11477
▁answ	-11478
合唱	-11479
公司以	-11480
管理制度	-11481
定做	-11482
磁场	-11483
兼任	-11484
媒体报道	-11485
展位	-11486
遗址	-11487
▁sales	-11488
护航	-11489
制订	-11490
腕表	-11491
创伤	-11492
听力	-11493
强国	-11494
果实	-11495
颜值	-11496
晚会	-11497
黑色素细胞	-11498
学习教育	-11499
总部位于	-11500
念佛	-11501
的特性	-11502
化肥	-11503
▁Sw	-11504
▁download	-11505
环境温度	-11506
vis	-11507
诊所	-11508
业者	-11509
六个	-11510
hile	-11511
无可	-11512
沿线	-11513
的未来	-11514
ape	-11515
环氧树脂	-11516
HK	-11517
大米	-11518
雷达	-11519
新闻发布会	-11520
上游	-11521
仪器仪表	-11522
gs	-11523
加盖	-11524
爷爷	-11525
▁Street	-11526
正当	-11527
分离器	-11528
奶奶	-11529
尴尬	-11530
(5)	-11531
这样说过	-11532
参与了	-11533
所长	-11534
生活中的	-11535
影响的	-11536
ditional	-11537
精美	-11538
应届	-11539
被人	-11540
CS	-11541
冷静	-11542
平静	-11543
建构	-11544
场面	-11545
海绵	-11546
积累了	-11547
国企	-11548
料理	-11549
放假	-11550
▁	-11551
,	-11552
e	-11553
n	-11554
的	-11555
t	-11556
a	-11557
i	-11558
o	-11559
。	-11560
s	-11561
r	-11562
"	-11563
、	-11564
\	-11565
l	-11566
h	-11567
d	-11568
m	-11569
c	-11570
0	-11571
一	-11572
u	-11573
是	-11574
1	-11575
p	-11576
在	-11577
有	-11578
2	-11579
:	-11580
y	-11581
.	-11582
不	-11583
中	-11584
g	-11585
人	-11586
f	-11587
为	-11588
了	-11589
和	-11590
大	-11591
用	-11592
以	-11593
业	-11594
生	-11595
w	-11596
要	-11597
国	-11598
能	-11599
年	-11600
工	-11601
发	-11602
会	-11603
时	-11604
k	-11605
上	-11606
b	-11607
可	-11608
作	-11609
学	-11610
行	-11611
成	-11612
个	-11613
于	-11614
3	-11615
这	-11616
到	-11617
产	-11618
对	-11619
“	-11620
v	-11621
来	-11622
5	-11623
”	-11624
)	-11625
高	-11626
出	-11627
(	-11628
多	-11629
家	-11630
分	-11631
我	-11632
公	-11633
理	-11634
机	-11635
等	-11636
动	-11637
品	-11638
进	-11639
方	-11640
地	-11641
x	-11642
化	-11643
4	-11644
过	-11645
们	-11646
体	-11647
新	-11648
全	-11649
力	-11650
合	-11651
现	-11652
电	-11653
下	-11654
后	-11655
自	-11656
C	-11657
性	-11658
设	-11659
与	-11660
也	-11661
面	-11662
经	-11663
度	-11664
9	-11665
日	-11666
市	-11667
水	-11668
加	-11669
S	-11670
同	-11671
{	-11672
}	-11673
开	-11674
及	-11675
实	-11676
-	-11677
6	-11678
8	-11679
本	-11680
A	-11681
定	-11682
就	-11683
场	-11684
好	-11685
量	-11686
展	-11687
部	-11688
主	-11689
提	-11690
T	-11691
制	-11692
通	-11693
而	-11694
其	-11695
重	-11696
心	-11697
内	-11698
P	-11699
保	-11700
应	-11701
;	-11702
建	-11703
务	-11704
之	-11705
月	-11706
前	-11707
7	-11708
将	-11709
者	-11710
物	-11711
长	-11712
如	-11713
司	-11714
他	-11715
得	-11716
所	-11717
关	-11718
间	-11719
I	-11720
法	-11721
管	-11722
小	-11723
种	-11724
程	-11725
都	-11726
子	-11727
比	-11728
技	-11729
更	-11730
使	-11731
区	-11732
目	-11733
外	-11734
最	-11735
系	-11736
质	-11737
员	-11738
点	-11739
计	-11740
安	-11741
位	-11742
表	-11743
因	-11744
资	-11745
期	-11746
相	-11747
情	-11748
并	-11749
术	-11750
天	-11751
式	-11752
文	-11753
常	-11754
M	-11755
入	-11756
数	-11757
网	-11758
很	-11759
事	-11760
还	-11761
第	-11762
专	-11763
风	-11764
金	-11765
果	-11766
平	-11767
特	-11768
或	-11769
科	-11770
活	-11771
企	-11772
球	-11773
服	-11774
次	-11775
信	-11776
气	-11777
意	-11778
R	-11779
名	-11780
车	-11781
赛	-11782
料	-11783
利	-11784
需	-11785
道	-11786
备	-11787
无	-11788
此	-11789
接	-11790
D	-11791
E	-11792
当	-11793
各	-11794
B	-11795
从	-11796
教	-11797
件	-11798
具	-11799
起	-11800
美	-11801
三	-11802
解	-11803
器	-11804
说	-11805
据	-11806
强	-11807
造	-11808
然	-11809
?	-11810
着	-11811
统	-11812
基	-11813
明	-11814
但	-11815
项	-11816
标	-11817
队	-11818
结	-11819
装	-11820
运	-11821
型	-11822
些	-11823
流	-11824
线	-11825
效	-11826
由	-11827
院	-11828
手	-11829
代	-11830
正	-11831
》	-11832
求	-11833
处	-11834
《	-11835
持	-11836
环	-11837
病	-11838
研	-11839
色	-11840
创	-11841
商	-11842
防	-11843
供	-11844
元	-11845
看	-11846
选	-11847
单	-11848
L	-11849
组	-11850
联	-11851
白	-11852
格	-11853
感	-11854
热	-11855
O	-11856
户	-11857
里	-11858
交	-11859
样	-11860
题	-11861
你	-11862
规	-11863
门	-11864
导	-11865
传	-11866
医	-11867
治	-11868
广	-11869
!	-11870
路	-11871
已	-11872
N	-11873
报	-11874
身	-11875
优	-11876
集	-11877
'	-11878
原	-11879
么	-11880
受	-11881
增	-11882
民	-11883
做	-11884
海	-11885
示	-11886
台	-11887
G	-11888
级	-11889
%	-11890
较	-11891
F	-11892
价	-11893
影	-11894
材	-11895
问	-11896
H	-11897
达	-11898
两	-11899
至	-11900
立	-11901
变	-11902
j	-11903
任	-11904
西	-11905
被	-11906
向	-11907
类	-11908
节	-11909
二	-11910
让	-11911
调	-11912
温	-11913
客	-11914
光	-11915
注	-11916
知	-11917
精	-11918
政	-11919
形	-11920
收	-11921
总	-11922
去	-11923
万	-11924
证	-11925
校	-11926
没	-11927
空	-11928
少	-11929
先	-11930
源	-11931
带	-11932
完	-11933
容	-11934
营	-11935
口	-11936
准	-11937
东	-11938
W	-11939
压	-11940
团	-11941
疗	-11942
包	-11943
低	-11944
直	-11945
想	-11946
领	-11947
构	-11948
师	-11949
南	-11950
育	-11951
己	-11952
每	-11953
整	-11954
考	-11955
打	-11956
测	-11957
验	-11958
费	-11959
该	-11960
北	-11961
省	-11962
放	-11963
布	-11964
功	-11965
护	-11966
别	-11967
速	-11968
只	-11969
推	-11970
控	-11971
消	-11972
共	-11973
取	-11974
城	-11975
施	-11976
非	-11977
山	-11978
参	-11979
采	-11980
确	-11981
易	-11982
社	-11983
食	-11984
指	-11985
率	-11986
限	-11987
投	-11988
/	-11989
认	-11990
办	-11991
视	-11992
那	-11993
息	-11994
转	-11995
世	-11996
回	-11997
清	-11998
助	-11999
近	-12000
试	-12001
境	-12002
十	-12003
_	-12004
它	-12005
观	-12006
界	-12007
给	-12008
游	-12009
板	-12010
足	-12011
超	-12012
站	-12013
支	-12014
复	-12015
今	-12016
油	-12017
续	-12018
快	-12019
战	-12020
检	-12021
配	-12022
维	-12023
老	-12024
改	-12025
深	-12026
际	-12027
决	-12028
斯	-12029
升	-12030
步	-12031
才	-12032
积	-12033
记	-12034
头	-12035
越	-12036
书	-12037
排	-12038
适	-12039
究	-12040
获	-12041
况	-12042
且	-12043
根	-12044
查	-12045
四	-12046
局	-12047
再	-12048
素	-12049
模	-12050
真	-12051
响	-12052
号	-12053
致	-12054
州	-12055
引	-12056
患	-12057
乐	-12058
置	-12059
议	-12060
除	-12061
V	-12062
条	-12063
首	-12064
皮	-12065
片	-12066
养	-12067
态	-12068
便	-12069
华	-12070
何	-12071
请	-12072
钢	-12073
状	-12074
U	-12075
花	-12076
断	-12077
女	-12078
牌	-12079
周	-12080
德	-12081
值	-12082
极	-12083
案	-12084
尔	-12085
显	-12086
离	-12087
销	-12088
约	-12089
药	-12090
艺	-12091
告	-12092
房	-12093
预	-12094
干	-12095
域	-12096
称	-12097
米	-12098
职	-12099
未	-12100
见	-12101
健	-12102
必	-12103
细	-12104
室	-12105
划	-12106
爱	-12107
委	-12108
随	-12109
神	-12110
存	-12111
识	-12112
始	-12113
反	-12114
连	-12115
亚	-12116
满	-12117
范	-12118
属	-12119
则	-12120
济	-12121
康	-12122
择	-12123
话	-12124
习	-12125
列	-12126
马	-12127
即	-12128
协	-12129
降	-12130
势	-12131
层	-12132
厂	-12133
难	-12134
众	-12135
智	-12136
季	-12137
论	-12138
京	-12139
图	-12140
照	-12141
石	-12142
克	-12143
免	-12144
把	-12145
五	-12146
够	-12147
售	-12148
z	-12149
权	-12150
什	-12151
修	-12152
减	-12153
望	-12154
责	-12155
几	-12156
承	-12157
—	-12158
园	-12159
仅	-12160
切	-12161
候	-12162
音	-12163
您	-12164
演	-12165
士	-12166
K	-12167
江	-12168
拉	-12169
历	-12170
例	-12171
段	-12172
又	-12173
字	-12174
火	-12175
友	-12176
景	-12177
股	-12178
许	-12179
充	-12180
农	-12181
评	-12182
癜	-12183
均	-12184
青	-12185
输	-12186
负	-12187
围	-12188
密	-12189
简	-12190
酒	-12191
英	-12192
命	-12193
严	-12194
党	-12195
微	-12196
张	-12197
红	-12198
份	-12199
监	-12200
J	-12201
太	-12202
儿	-12203
阳	-12204
象	-12205
双	-12206
良	-12207
培	-12208
落	-12209
亿	-12210
核	-12211
织	-12212
按	-12213
含	-12214
店	-12215
土	-12216
购	-12217
轻	-12218
失	-12219
疫	-12220
林	-12221
款	-12222
筑	-12223
险	-12224
算	-12225
介	-12226
终	-12227
般	-12228
吸	-12229
液	-12230
角	-12231
奖	-12232
往	-12233
剂	-12234
益	-12235
语	-12236
举	-12237
思	-12238
富	-12239
住	-12240
百	-12241
声	-12242
冷	-12243
互	-12244
融	-12245
稳	-12246
污	-12247
铁	-12248
她	-12249
走	-12250
军	-12251
星	-12252
像	-12253
送	-12254
训	-12255
早	-12256
轮	-12257
依	-12258
普	-12259
银	-12260
括	-12261
止	-12262
念	-12263
王	-12264
坚	-12265
觉	-12266
血	-12267
善	-12268
村	-12269
边	-12270
义	-12271
须	-12272
汽	-12273
换	-12274
课	-12275
卡	-12276
故	-12277
印	-12278
染	-12279
欢	-12280
河	-12281
q	-12282
香	-12283
味	-12284
争	-12285
县	-12286
孩	-12287
言	-12288
半	-12289
旅	-12290
府	-12291
*	-12292
版	-12293
聚	-12294
酸	-12295
底	-12296
远	-12297
激	-12298
福	-12299
策	-12300
耐	-12301
频	-12302
龙	-12303
货	-12304
尽	-12305
害	-12306
希	-12307
仪	-12308
木	-12309
居	-12310
帮	-12311
博	-12312
络	-12313
罗	-12314
黄	-12315
编	-12316
冠	-12317
巴	-12318
史	-12319
抗	-12320
群	-12321
戏	-12322
录	-12323
固	-12324
志	-12325
讲	-12326
兴	-12327
击	-12328
端	-12329
卫	-12330
吃	-12331
享	-12332
却	-12333
班	-12334
剧	-12335
损	-12336
初	-12337
破	-12338
操	-12339
兰	-12340
洗	-12341
差	-12342
软	-12343
茶	-12344
补	-12345
竞	-12346
欧	-12347
载	-12348
喜	-12349
留	-12350
障	-12351
港	-12352
波	-12353
伤	-12354
症	-12355
另	-12356
析	-12357
云	-12358
宝	-12359
独	-12360
拥	-12361
牛	-12362
副	-12363
Y	-12364
律	-12365
申	-12366
批	-12367
胜	-12368
买	-12369
余	-12370
继	-12371
宣	-12372
粉	-12373
净	-12374
础	-12375
画	-12376
塑	-12377
眼	-12378
否	-12379
胶	-12380
绿	-12381
临	-12382
播	-12383
纳	-12384
财	-12385
械	-12386
移	-12387
饮	-12388
异	-12389
钟	-12390
紧	-12391
套	-12392
·	-12393
绍	-12394
丰	-12395
担	-12396
额	-12397
执	-12398
古	-12399
男	-12400
=	-12401
氧	-12402
短	-12403
春	-12404
黑	-12405
亲	-12406
哪	-12407
官	-12408
审	-12409
阿	-12410
透	-12411
综	-12412
读	-12413
序	-12414
占	-12415
射	-12416
找	-12417
航	-12418
突	-12419
彩	-12420
李	-12421
湖	-12422
洲	-12423
略	-12424
毒	-12425
疾	-12426
迎	-12427
练	-12428
待	-12429
箱	-12430
招	-12431
纪	-12432
座	-12433
肤	-12434
写	-12435
绝	-12436
呢	-12437
树	-12438
询	-12439
饰	-12440
冲	-12441
停	-12442
虽	-12443
避	-12444
尼	-12445
镇	-12446
促	-12447
千	-12448
苏	-12449
讯	-12450
泛	-12451
+	-12452
馆	-12453
楼	-12454
架	-12455
甲	-12456
针	-12457
靠	-12458
曾	-12459
税	-12460
六	-12461
奥	-12462
附	-12463
玩	-12464
盖	-12465
码	-12466
缺	-12467
杯	-12468
岁	-12469
劳	-12470
听	-12471
绩	-12472
餐	-12473
块	-12474
X	-12475
库	-12476
佳	-12477
页	-12478
届	-12479
秀	-12480
登	-12481
植	-12482
封	-12483
索	-12484
启	-12485
松	-12486
愿	-12487
散	-12488
仍	-12489
零	-12490
膜	-12491
乡	-12492
媒	-12493
武	-12494
令	-12495
床	-12496
废	-12497
托	-12498
奇	-12499
键	-12500
跟	-12501
左	-12502
隔	-12503
述	-12504
遇	-12505
警	-12506
池	-12507
某	-12508
怎	-12509
逐	-12510
叶	-12511
征	-12512
挥	-12513
右	-12514
盘	-12515
脱	-12516
授	-12517
错	-12518
朋	-12519
母	-12520
涂	-12521
菜	-12522
顺	-12523
刻	-12524
察	-12525
票	-12526
章	-12527
杂	-12528
飞	-12529
签	-12530
假	-12531
纸	-12532
混	-12533
晚	-12534
扩	-12535
久	-12536
链	-12537
庭	-12538
宁	-12539
洁	-12540
典	-12541
丝	-12542
硬	-12543
灵	-12544
储	-12545
磨	-12546
汉	-12547
危	-12548
贵	-12549
诊	-12550
湿	-12551
触	-12552
阶	-12553
灯	-12554
延	-12555
脑	-12556
陈	-12557
润	-12558
滑	-12559
著	-12560
腐	-12561
燃	-12562
厚	-12563
午	-12564
攻	-12565
探	-12566
毕	-12567
庆	-12568
谢	-12569
矿	-12570
盟	-12571
曲	-12572
拿	-12573
付	-12574
革	-12575
急	-12576
钱	-12577
追	-12578
缩	-12579
轴	-12580
荣	-12581
守	-12582
肉	-12583
亮	-12584
甚	-12585
困	-12586
册	-12587
雨	-12588
沙	-12589
顾	-12590
族	-12591
歌	-12592
厅	-12593
献	-12594
刚	-12595
席	-12596
夏	-12597
童	-12598
八	-12599
慢	-12600
顶	-12601
草	-12602
符	-12603
摄	-12604
威	-12605
熟	-12606
闻	-12607
努	-12608
诚	-12609
谈	-12610
虑	-12611
若	-12612
丽	-12613
访	-12614
静	-12615
似	-12616
玻	-12617
滤	-12618
措	-12619
背	-12620
炎	-12621
鲜	-12622
菌	-12623
铝	-12624
距	-12625
Q	-12626
退	-12627
牙	-12628
借	-12629
吗	-12630
尤	-12631
璃	-12632
夫	-12633
订	-12634
咨	-12635
烟	-12636
诉	-12637
吧	-12638
予	-12639
碳	-12640
脂	-12641
死	-12642
桥	-12643
永	-12644
墙	-12645
佛	-12646
宜	-12647
拍	-12648
币	-12649
暖	-12650
°	-12651
痛	-12652
伴	-12653
阻	-12654
[	-12655
]	-12656
幅	-12657
泰	-12658
脚	-12659
>	-12660
藏	-12661
塔	-12662
泡	-12663
露	-12664
癣	-12665
毛	-12666
岛	-12667
尘	-12668
川	-12669
斑	-12670
凝	-12671
坏	-12672
圆	-12673
街	-12674
幕	-12675
判	-12676
寿	-12677
乎	-12678
礼	-12679
$	-12680
渐	-12681
爆	-12682
泵	-12683
锈	-12684
答	-12685
七	-12686
烧	-12687
汇	-12688
鱼	-12689
救	-12690
禁	-12691
梦	-12692
森	-12693
览	-12694
九	-12695
婚	-12696
雷	-12697
塞	-12698
喷	-12699
趣	-12700
休	-12701
疑	-12702
辆	-12703
累	-12704
胞	-12705
讨	-12706
刺	-12707
搭	-12708
粒	-12709
衣	-12710
刘	-12711
肥	-12712
督	-12713
烈	-12714
央	-12715
泥	-12716
贴	-12717
束	-12718
贸	-12719
穿	-12720
尚	-12721
夜	-12722
阵	-12723
径	-12724
租	-12725
挑	-12726
糖	-12727
骨	-12728
斗	-12729
途	-12730
盛	-12731
蛋	-12732
纯	-12733
冬	-12734
田	-12735
归	-12736
耗	-12737
颜	-12738
屋	-12739
孔	-12740
巨	-12741
窗	-12742
句	-12743
吉	-12744
齐	-12745
湾	-12746
误	-12747
宽	-12748
堂	-12749
卖	-12750
遗	-12751
蚀	-12752
煤	-12753
词	-12754
缓	-12755
释	-12756
屏	-12757
溶	-12758
涉	-12759
档	-12760
刷	-12761
舞	-12762
惠	-12763
曼	-12764
详	-12765
父	-12766
励	-12767
殊	-12768
杀	-12769
既	-12770
迷	-12771
呈	-12772
浓	-12773
振	-12774
诺	-12775
苦	-12776
雪	-12777
派	-12778
篮	-12779
誉	-12780
吨	-12781
峰	-12782
Z	-12783
概	-12784
闭	-12785
摘	-12786
雄	-12787
截	-12788
幸	-12789
哈	-12790
坐	-12791
笔	-12792
磁	-12793
妈	-12794
败	-12795
圈	-12796
赢	-12797
慧	-12798
涨	-12799
循	-12800
缘	-12801
洋	-12802
怀	-12803
陆	-12804
握	-12805
估	-12806
炉	-12807
末	-12808
韩	-12809
潮	-12810
寻	-12811
侧	-12812
冰	-12813
<	-12814
掌	-12815
岗	-12816
纤	-12817
镜	-12818
扬	-12819
践	-12820
粘	-12821
弹	-12822
抓	-12823
屑	-12824
沟	-12825
萨	-12826
宗	-12827
拟	-12828
焊	-12829
迪	-12830
船	-12831
券	-12832
螺	-12833
沉	-12834
蓝	-12835
纷	-12836
津	-12837
悉	-12838
呼	-12839
锅	-12840
倍	-12841
倒	-12842
圳	-12843
跑	-12844
填	-12845
旧	-12846
鼓	-12847
梅	-12848
阀	-12849
~	-12850
瓦	-12851
焦	-12852
瑞	-12853
偏	-12854
敏	-12855
翻	-12856
署	-12857
违	-12858
邮	-12859
董	-12860
圣	-12861
阅	-12862
旋	-12863
跨	-12864
映	-12865
召	-12866
折	-12867
伙	-12868
址	-12869
隐	-12870
伦	-12871
盐	-12872
旗	-12873
拓	-12874
秋	-12875
亦	-12876
灾	-12877
杆	-12878
趋	-12879
澳	-12880
添	-12881
乙	-12882
衡	-12883
玉	-12884
虚	-12885
杨	-12886
叫	-12887
贡	-12888
掉	-12889
恶	-12890
辅	-12891
覆	-12892
奶	-12893
秘	-12894
莱	-12895
梁	-12896
雅	-12897
肯	-12898
舒	-12899
伊	-12900
私	-12901
浪	-12902
晶	-12903
弱	-12904
捷	-12905
震	-12906
援	-12907
苗	-12908
纹	-12909
恩	-12910
洛	-12911
驾	-12912
笑	-12913
&	-12914
蒸	-12915
恒	-12916
朝	-12917
替	-12918
燥	-12919
绕	-12920
摩	-12921
递	-12922
豆	-12923
聘	-12924
麻	-12925
俱	-12926
乘	-12927
野	-12928
铜	-12929
荷	-12930
恢	-12931
奋	-12932
皇	-12933
抽	-12934
尺	-12935
繁	-12936
勇	-12937
漏	-12938
潜	-12939
【	-12940
】	-12941
寸	-12942
迅	-12943
醒	-12944
–	-12945
凭	-12946
遍	-12947
颗	-12948
о	-12949
栏	-12950
裂	-12951
裁	-12952
暴	-12953
贫	-12954
杰	-12955
姆	-12956
沿	-12957
哥	-12958
伟	-12959
伍	-12960
龄	-12961
犯	-12962
宫	-12963
耳	-12964
砂	-12965
蒙	-12966
彻	-12967
薄	-12968
珠	-12969
浙	-12970
癌	-12971
郑	-12972
贝	-12973
榜	-12974
顿	-12975
卷	-12976
夺	-12977
灰	-12978
祝	-12979
篇	-12980
а	-12981
惊	-12982
漫	-12983
兼	-12984
垃	-12985
鲁	-12986
竟	-12987
圾	-12988
辑	-12989
刀	-12990
唱	-12991
惯	-12992
芯	-12993
壁	-12994
嘉	-12995
挂	-12996
墨	-12997
驶	-12998
邀	-12999
浮	-13000
喝	-13001
妇	-13002
谷	-13003
搜	-13004
巧	-13005
荐	-13006
账	-13007
烯	-13008
睡	-13009
阴	-13010
乳	-13011
紫	-13012
贯	-13013
柱	-13014
饭	-13015
诗	-13016
漆	-13017
锁	-13018
碎	-13019
鸡	-13020
携	-13021
描	-13022
仓	-13023
锋	-13024
幼	-13025
豪	-13026
宇	-13027
戴	-13028
炼	-13029
庄	-13030
齿	-13031
仁	-13032
返	-13033
～	-13034
乌	-13035
债	-13036
跌	-13037
铸	-13038
鉴	-13039
毫	-13040
肠	-13041
橡	-13042
袋	-13043
吴	-13044
贷	-13045
乱	-13046
井	-13047
驱	-13048
宾	-13049
胃	-13050
罪	-13051
罚	-13052
麦	-13053
轨	-13054
楚	-13055
泽	-13056
怕	-13057
唯	-13058
扶	-13059
脸	-13060
赞	-13061
瓶	-13062
伸	-13063
硅	-13064
旨	-13065
坛	-13066
残	-13067
遭	-13068
肌	-13069
寒	-13070
缝	-13071
丁	-13072
抵	-13073
愈	-13074
朗	-13075
瓷	-13076
弃	-13077
拼	-13078
敬	-13079
葡	-13080
氨	-13081
暂	-13082
俄	-13083
畅	-13084
侵	-13085
炭	-13086
柔	-13087
筹	-13088
横	-13089
赏	-13090
柜	-13091
淡	-13092
胡	-13093
铺	-13094
泉	-13095
勒	-13096
兵	-13097
丹	-13098
凡	-13099
肺	-13100
#	-13101
莫	-13102
匀	-13103
绪	-13104
谁	-13105
汤	-13106
孕	-13107
и	-13108
扫	-13109
尾	-13110
谱	-13111
旦	-13112
陶	-13113
扎	-13114
甘	-13115
肿	-13116
胎	-13117
脉	-13118
’	-13119
刊	-13120
插	-13121
涵	-13122
砖	-13123
译	-13124
忘	-13125
迹	-13126
拜	-13127
萄	-13128
灭	-13129
殖	-13130
宿	-13131
撑	-13132
坡	-13133
擦	-13134
抢	-13135
厨	-13136
割	-13137
隆	-13138
е	-13139
雾	-13140
吊	-13141
尊	-13142
镀	-13143
默	-13144
伯	-13145
唐	-13146
凯	-13147
猪	-13148
壳	-13149
闲	-13150
缆	-13151
偿	-13152
冻	-13153
硫	-13154
噪	-13155
遵	-13156
扣	-13157
珍	-13158
脏	-13159
岩	-13160
谓	-13161
勤	-13162
甜	-13163
虫	-13164
氛	-13165
渠	-13166
孙	-13167
渗	-13168
雕	-13169
摆	-13170
浆	-13171
赖	-13172
н	-13173
岸	-13174
桃	-13175
徐	-13176
辛	-13177
跳	-13178
扰	-13179
灌	-13180
伏	-13181
拆	-13182
碍	-13183
酯	-13184
缴	-13185
尿	-13186
晓	-13187
亡	-13188
昌	-13189
籍	-13190
帝	-13191
宅	-13192
腾	-13193
陷	-13194
蔬	-13195
诸	-13196
忆	-13197
祖	-13198
氏	-13199
瘤	-13200
锌	-13201
洞	-13202
俗	-13203
辉	-13204
抑	-13205
壮	-13206
赵	-13207
埃	-13208
梯	-13209
弟	-13210
娱	-13211
绘	-13212
‘	-13213
佩	-13214
晨	-13215
牢	-13216
肝	-13217
@	-13218
腹	-13219
卓	-13220
乏	-13221
艾	-13222
驻	-13223
暗	-13224
尖	-13225
菲	-13226
徽	-13227
硕	-13228
宏	-13229
尝	-13230
锦	-13231
跃	-13232
虎	-13233
魔	-13234
杜	-13235
偶	-13236
粮	-13237
滚	-13238
搬	-13239
姓	-13240
框	-13241
坦	-13242
凉	-13243
劲	-13244
|	-13245
仿	-13246
倾	-13247
秒	-13248
é	-13249
拔	-13250
昨	-13251
蒂	-13252
拒	-13253
冒	-13254
罐	-13255
弯	-13256
竹	-13257
钻	-13258
瓜	-13259
腔	-13260
稿	-13261
悬	-13262
杭	-13263
厦	-13264
壤	-13265
浦	-13266
拌	-13267
罩	-13268
挖	-13269
烘	-13270
碱	-13271
浸	-13272
氯	-13273
夹	-13274
纺	-13275
忽	-13276
纽	-13277
羊	-13278
邦	-13279
舍	-13280
р	-13281
醇	-13282
懂	-13283
逆	-13284
晋	-13285
滴	-13286
桌	-13287
猫	-13288
薪	-13289
妻	-13290
帅	-13291
朱	-13292
臭	-13293
爸	-13294
允	-13295
昆	-13296
巡	-13297
廉	-13298
颁	-13299
烦	-13300
迫	-13301
盒	-13302
槽	-13303
挤	-13304
咖	-13305
忙	-13306
恋	-13307
迁	-13308
恐	-13309
眠	-13310
欣	-13311
欲	-13312
洪	-13313
垫	-13314
棉	-13315
粗	-13316
貌	-13317
敢	-13318
奏	-13319
秉	-13320
т	-13321
赶	-13322
奉	-13323
胀	-13324
沃	-13325
陕	-13326
迈	-13327
谐	-13328
忧	-13329
锻	-13330
с	-13331
辣	-13332
剪	-13333
炸	-13334
诱	-13335
履	-13336
狗	-13337
沈	-13338
仔	-13339
辽	-13340
慎	-13341
堆	-13342
弗	-13343
皆	-13344
抱	-13345
淘	-13346
黎	-13347
盈	-13348
催	-13349
筛	-13350
撞	-13351
刑	-13352
凌	-13353
氢	-13354
姐	-13355
冶	-13356
搅	-13357
踏	-13358
鞋	-13359
亩	-13360
怪	-13361
忠	-13362
旁	-13363
宋	-13364
浴	-13365
捐	-13366
晒	-13367
碰	-13368
婴	-13369
妆	-13370
泄	-13371
陪	-13372
敌	-13373
滨	-13374
淀	-13375
掘	-13376
啊	-13377
筒	-13378
疆	-13379
饱	-13380
剩	-13381
牵	-13382
稀	-13383
叉	-13384
挡	-13385
啡	-13386
晰	-13387
郁	-13388
疏	-13389
卵	-13390
幻	-13391
丙	-13392
辨	-13393
仙	-13394
×	-13395
胆	-13396
谋	-13397
妙	-13398
寄	-13399
稍	-13400
踪	-13401
君	-13402
彼	-13403
赠	-13404
堡	-13405
琴	-13406
斤	-13407
揭	-13408
赫	-13409
熔	-13410
烤	-13411
煮	-13412
邻	-13413
吹	-13414
阔	-13415
坪	-13416
悦	-13417
蜜	-13418
赋	-13419
锡	-13420
衰	-13421
卸	-13422
聊	-13423
淋	-13424
浅	-13425
谨	-13426
馨	-13427
碑	-13428
祥	-13429
肾	-13430
滋	-13431
闪	-13432
抛	-13433
纵	-13434
饼	-13435
钙	-13436
矩	-13437
契	-13438
疼	-13439
鸟	-13440
漂	-13441
埋	-13442
鹏	-13443
徒	-13444
拖	-13445
彰	-13446
枝	-13447
堵	-13448
腺	-13449
桶	-13450
柴	-13451
摸	-13452
役	-13453
疲	-13454
鼻	-13455
颈	-13456
辐	-13457
郭	-13458
苹	-13459
в	-13460
惜	-13461
溪	-13462
凤	-13463
棒	-13464
艰	-13465
囊	-13466
脾	-13467
迟	-13468
肃	-13469
颖	-13470
诞	-13471
乔	-13472
垂	-13473
蓄	-13474
赴	-13475
串	-13476
劣	-13477
俊	-13478
腿	-13479
纠	-13480
秦	-13481
削	-13482
筋	-13483
肪	-13484
癫	-13485
泌	-13486
辖	-13487
坊	-13488
妹	-13489
乃	-13490
狂	-13491
л	-13492
嘴	-13493
哲	-13494
逃	-13495
旺	-13496
睛	-13497
棚	-13498
к	-13499
蜂	-13500
曝	-13501
泳	-13502
玛	-13503
番	-13504
炒	-13505
匹	-13506
汁	-13507
暨	-13508
骑	-13509
慈	-13510
浏	-13511
耶	-13512
汗	-13513
斜	-13514
氮	-13515
剑	-13516
莲	-13517
耀	-13518
丢	-13519
氟	-13520
函	-13521
赁	-13522
寺	-13523
腰	-13524
牧	-13525
桑	-13526
桂	-13527
苯	-13528
痫	-13529
酱	-13530
摇	-13531
奔	-13532
艳	-13533
寓	-13534
帕	-13535
悲	-13536
芳	-13537
叠	-13538
敦	-13539
隙	-13540
馈	-13541
浩	-13542
踢	-13543
昂	-13544
扭	-13545
拨	-13546
倡	-13547
椅	-13548
辞	-13549
卢	-13550
兄	-13551
磷	-13552
涯	-13553
捕	-13554
赚	-13555
擎	-13556
赔	-13557
霍	-13558
兹	-13559
盆	-13560
盲	-13561
姜	-13562
扇	-13563
盾	-13564
娜	-13565
遥	-13566
耕	-13567
渡	-13568
忍	-13569
燕	-13570
戒	-13571
韧	-13572
御	-13573
膏	-13574
骗	-13575
贺	-13576
沫	-13577
醛	-13578
崇	-13579
痕	-13580
袭	-13581
魅	-13582
羽	-13583
姿	-13584
熊	-13585
募	-13586
厘	-13587
暑	-13588
魂	-13589
辈	-13590
忌	-13591
酷	-13592
肩	-13593
鸣	-13594
盗	-13595
酵	-13596
弘	-13597
悠	-13598
椒	-13599
枪	-13600
爽	-13601
卧	-13602
锐	-13603
株	-13604
爷	-13605
毁	-13606
孤	-13607
栽	-13608
骤	-13609
渣	-13610
芝	-13611
酶	-13612
荡	-13613
缸	-13614
栋	-13615
柏	-13616
猛	-13617
衬	-13618
绵	-13619
挺	-13620
糕	-13621
饲	-13622
膨	-13623
•	-13624
胸	-13625
搞	-13626
吐	-13627
披	-13628
肖	-13629
帽	-13630
鼠	-13631
绳	-13632
竭	-13633
酿	-13634
芽	-13635
恰	-13636
柳	-13637
烂	-13638
闸	-13639
慰	-13640
鬼	-13641
谊	-13642
臂	-13643
箭	-13644
浇	-13645
弥	-13646
嫌	-13647
姻	-13648
惑	-13649
汰	-13650
删	-13651
朴	-13652
胺	-13653
逊	-13654
穆	-13655
扮	-13656
岭	-13657
兽	-13658
锂	-13659
疹	-13660
逾	-13661
廷	-13662
棋	-13663
脆	-13664
霸	-13665
垢	-13666
鹿	-13667
栓	-13668
勃	-13669
闹	-13670
辩	-13671
堪	-13672
溢	-13673
宠	-13674
腻	-13675
婆	-13676
瞬	-13677
廊	-13678
厌	-13679
翼	-13680
芬	-13681
д	-13682
刮	-13683
朵	-13684
丧	-13685
悟	-13686
胁	-13687
亭	-13688
搏	-13689
犹	-13690
娘	-13691
煌	-13692
陵	-13693
遮	-13694
碗	-13695
抹	-13696
穷	-13697
亏	-13698
м	-13699
茨	-13700
洽	-13701
欠	-13702
霉	-13703
涌	-13704
碧	-13705
舰	-13706
戈	-13707
钠	-13708
啦	-13709
莉	-13710
仰	-13711
贾	-13712
虹	-13713
鼎	-13714
奈	-13715
渔	-13716
讼	-13717
宴	-13718
狮	-13719
伪	-13720
贤	-13721
凸	-13722
蹈	-13723
鸿	-13724
衔	-13725
伐	-13726
愉	-13727
兆	-13728
扑	-13729
у	-13730
偷	-13731
匠	-13732
糊	-13733
裕	-13734
宙	-13735
隧	-13736
洒	-13737
驰	-13738
滩	-13739
韦	-13740
拳	-13741
颇	-13742
磊	-13743
曹	-13744
勘	-13745
莞	-13746
纱	-13747
丸	-13748
弄	-13749
蔡	-13750
丘	-13751
逻	-13752
擅	-13753
窝	-13754
狼	-13755
慕	-13756
黏	-13757
睐	-13758
侠	-13759
旬	-13760
涤	-13761
泪	-13762
泻	-13763
塘	-13764
轧	-13765
鑫	-13766
―	-13767
赤	-13768
翔	-13769
爬	-13770
毅	-13771
奠	-13772
弧	-13773
诵	-13774
哦	-13775
沦	-13776
傅	-13777
攀	-13778
坑	-13779
峡	-13780
粤	-13781
辰	-13782
邓	-13783
铭	-13784
押	-13785
茅	-13786
肢	-13787
茂	-13788
痒	-13789
雇	-13790
虾	-13791
荒	-13792
幽	-13793
咱	-13794
魏	-13795
卜	-13796
孟	-13797
萝	-13798
庞	-13799
撤	-13800
屈	-13801
墅	-13802
厉	-13803
丈	-13804
舟	-13805
п	-13806
渴	-13807
畜	-13808
庙	-13809
腊	-13810
栅	-13811
酬	-13812
顽	-13813
韵	-13814
葱	-13815
仲	-13816
妥	-13817
凑	-13818
懈	-13819
莎	-13820
衷	-13821
稻	-13822
扳	-13823
琳	-13824
孝	-13825
飘	-13826
嫩	-13827
聪	-13828
勿	-13829
铅	-13830
滞	-13831
枢	-13832
逼	-13833
巩	-13834
涛	-13835
恼	-13836
胖	-13837
霜	-13838
眉	-13839
鸭	-13840
祭	-13841
彭	-13842
桩	-13843
兑	-13844
郎	-13845
怒	-13846
叹	-13847
矛	-13848
湘	-13849
巢	-13850
敲	-13851
á	-13852
淮	-13853
纲	-13854
詹	-13855
巾	-13856
〔	-13857
钉	-13858
〕	-13859
瘦	-13860
粪	-13861
舶	-13862
扁	-13863
帘	-13864
帆	-13865
妨	-13866
岳	-13867
泊	-13868
猜	-13869
烷	-13870
夕	-13871
沥	-13872
嵌	-13873
陌	-13874
啤	-13875
惧	-13876
蓬	-13877
霞	-13878
抚	-13879
摊	-13880
蕴	-13881
遣	-13882
哭	-13883
翰	-13884
柯	-13885
梨	-13886
贮	-13887
醉	-13888
镁	-13889
沸	-13890
逢	-13891
喻	-13892
逸	-13893
撒	-13894
沪	-13895
侦	-13896
厕	-13897
窄	-13898
旭	-13899
硝	-13900
熬	-13901
寨	-13902
疯	-13903
峻	-13904
殿	-13905
秩	-13906
冯	-13907
і	-13908
抖	-13909
萌	-13910
坝	-13911
鳞	-13912
傲	-13913
杉	-13914
蜡	-13915
ä	-13916
烫	-13917
墓	-13918
涡	-13919
禽	-13920
竣	-13921
衍	-13922
怨	-13923
烹	-13924
钮	-13925
诈	-13926
娃	-13927
猎	-13928
吕	-13929
菩	-13930
犬	-13931
奢	-13932
阁	-13933
枚	-13934
→	-13935
簧	-13936
潘	-13937
溯	-13938
叙	-13939
盼	-13940
í	-13941
笼	-13942
咸	-13943
侯	-13944
剥	-13945
鹰	-13946
狱	-13947
舱	-13948
佐	-13949
侨	-13950
翠	-13951
ó	-13952
玲	-13953
惨	-13954
巷	-13955
舌	-13956
藤	-13957
湛	-13958
瓣	-13959
炮	-13960
梳	-13961
瑰	-13962
芦	-13963
晴	-13964
窑	-13965
磅	-13966
咳	-13967
憾	-13968
─	-13969
帐	-13970
沧	-13971
枣	-13972
斌	-13973
唤	-13974
陀	-13975
萧	-13976
屡	-13977
臣	-13978
狐	-13979
芒	-13980
撰	-13981
溃	-13982
г	-13983
弦	-13984
®	-13985
凹	-13986
醋	-13987
漠	-13988
菊	-13989
阐	-13990
袖	-13991
葛	-13992
怡	-13993
樱	-13994
钛	-13995
袁	-13996
蔽	-13997
蛇	-13998
畏	-13999
咽	-14000
姑	-14001
坎	-14002
肚	-14003
蝶	-14004
蒋	-14005
绎	-14006
脊	-14007
蟹	-14008
潭	-14009
茄	-14010
腕	-14011
я	-14012
闷	-14013
缠	-14014
敷	-14015
抄	-14016
捉	-14017
汪	-14018
勾	-14019
妮	-14020
鹅	-14021
邪	-14022
豫	-14023
穴	-14024
歇	-14025
乒	-14026
吞	-14027
旱	-14028
姚	-14029
藻	-14030
咬	-14031
酰	-14032
闯	-14033
叔	-14034
铃	-14035
欺	-14036
喊	-14037
艇	-14038
喂	-14039
仇	-14040
壶	-14041
撕	-14042
椎	-14043
籽	-14044
惩	-14045
凶	-14046
绒	-14047
铬	-14048
玫	-14049
糟	-14050
枯	-14051
^	-14052
躁	-14053
罕	-14054
抬	-14055
轩	-14056
蒜	-14057
钾	-14058
`	-14059
夸	-14060
荧	-14061
酚	-14062
拭	-14063
蓉	-14064
逝	-14065
祸	-14066
煎	-14067
髓	-14068
辟	-14069
渝	-14070
苍	-14071
恨	-14072
悔	-14073
橙	-14074
丛	-14075
冈	-14076
玄	-14077
锤	-14078
辊	-14079
薯	-14080
剖	-14081
●	-14082
晕	-14083
镍	-14084
悄	-14085
猴	-14086
蔓	-14087
爵	-14088
斩	-14089
誓	-14090
喉	-14091
绑	-14092
贪	-14093
粥	-14094
卉	-14095
蕾	-14096
刹	-14097
捧	-14098
裹	-14099
罢	-14100
呀	-14101
劝	-14102
歧	-14103
吁	-14104
菇	-14105
±	-14106
膝	-14107
з	-14108
苑	-14109
酮	-14110
轰	-14111
掩	-14112
矫	-14113
杏	-14114
兔	-14115
絮	-14116
拘	-14117
紊	-14118
翅	-14119
轿	-14120
膀	-14121
狭	-14122
裤	-14123
骄	-14124
坤	-14125
匙	-14126
鹤	-14127
珊	-14128
厢	-14129
棕	-14130
汛	-14131
挫	-14132
泼	-14133
谭	-14134
孵	-14135
隶	-14136
й	-14137
褐	-14138
糙	-14139
ö	-14140
钩	-14141
琼	-14142
镑	-14143
胚	-14144
杠	-14145
ü	-14146
龟	-14147
荆	-14148
昏	-14149
伺	-14150
痘	-14151
锥	-14152
禅	-14153
咪	-14154
ь	-14155
婷	-14156
敞	-14157
拾	-14158
侣	-14159
崩	-14160
垒	-14161
呆	-14162
膳	-14163
熙	-14164
霄	-14165
灿	-14166
疮	-14167
・	-14168
祈	-14169
焰	-14170
埔	-14171
牲	-14172
宪	-14173
绣	-14174
僵	-14175
稣	-14176
灶	-14177
蚁	-14178
б	-14179
挚	-14180
尸	-14181
瑜	-14182
焚	-14183
毯	-14184
▲	-14185
怖	-14186
莓	-14187
冀	-14188
慌	-14189
澄	-14190
嫁	-14191
葬	-14192
浑	-14193
砌	-14194
榨	-14195
斥	-14196
贩	-14197
钥	-14198
颠	-14199
诠	-14200
谜	-14201
渍	-14202
愁	-14203
谦	-14204
槛	-14205
郊	-14206
萎	-14207
桐	-14208
挽	-14209
赐	-14210
驳	-14211
橘	-14212
呵	-14213
趁	-14214
柄	-14215
凰	-14216
裙	-14217
劫	-14218
捞	-14219
彦	-14220
瞻	-14221
舆	-14222
纬	-14223
亨	-14224
碌	-14225
脓	-14226
寂	-14227
稠	-14228
帷	-14229
★	-14230
睿	-14231
茎	-14232
迭	-14233
枫	-14234
畴	-14235
梗	-14236
苛	-14237
沾	-14238
躺	-14239
浊	-14240
釜	-14241
卑	-14242
迄	-14243
祛	-14244
坠	-14245
嘱	-14246
谣	-14247
仗	-14248
伞	-14249
翁	-14250
彬	-14251
薇	-14252
甸	-14253
饪	-14254
瑟	-14255
μ	-14256
哀	-14257
狠	-14258
萃	-14259
烃	-14260
弊	-14261
昭	-14262
甄	-14263
勉	-14264
崔	-14265
窃	-14266
俩	-14267
摔	-14268
竖	-14269
淬	-14270
宰	-14271
揽	-14272
靖	-14273
茫	-14274
塌	-14275
梭	-14276
钦	-14277
滥	-14278
咒	-14279
挣	-14280
馏	-14281
鲍	-14282
妖	-14283
皱	-14284
挪	-14285
踩	-14286
恭	-14287
伽	-14288
≤	-14289
鄂	-14290
歉	-14291
勋	-14292
缔	-14293
雀	-14294
昔	-14295
遂	-14296
酪	-14297
澡	-14298
铣	-14299
菱	-14300
慨	-14301
萍	-14302
僧	-14303
惟	-14304
琪	-14305
愤	-14306
堤	-14307
皂	-14308
枕	-14309
〉	-14310
粹	-14311
骏	-14312
溉	-14313
砍	-14314
崛	-14315
锯	-14316
洱	-14317
拦	-14318
卤	-14319
吓	-14320
娇	-14321
喘	-14322
莹	-14323
牺	-14324
ч	-14325
沂	-14326
刃	-14327
庸	-14328
疱	-14329
郡	-14330
钓	-14331
〈	-14332
逛	-14333
焕	-14334
掀	-14335
懒	-14336
吵	-14337
胰	-14338
巅	-14339
瘙	-14340
裔	-14341
嗽	-14342
撼	-14343
渊	-14344
锰	-14345
ы	-14346
躲	-14347
艘	-14348
佣	-14349
涩	-14350
铲	-14351
矶	-14352
è	-14353
熏	-14354
缅	-14355
丑	-14356
坯	-14357
篷	-14358
佑	-14359
聆	-14360
顷	-14361
邵	-14362
豹	-14363
棵	-14364
绸	-14365
柠	-14366
瞩	-14367
邱	-14368
儒	-14369
檬	-14370
饿	-14371
匆	-14372
帖	-14373
衫	-14374
崭	-14375
闽	-14376
奎	-14377
萤	-14378
潍	-14379
宵	-14380
夯	-14381
栖	-14382
谅	-14383
滕	-14384
仕	-14385
啥	-14386
乓	-14387
栗	-14388
晃	-14389
肆	-14390
屠	-14391
饶	-14392
晖	-14393
冕	-14394
箔	-14395
蚊	-14396
昊	-14397
醚	-14398
牡	-14399
翩	-14400
榄	-14401
靶	-14402
唇	-14403
缀	-14404
屯	-14405
£	-14406
à	-14407
葵	-14408
蔚	-14409
沛	-14410
辱	-14411
喀	-14412
尬	-14413
吾	-14414
炫	-14415
纶	-14416
沐	-14417
柿	-14418
麟	-14419
圭	-14420
疡	-14421
蛮	-14422
呕	-14423
橱	-14424
疤	-14425
楠	-14426
澜	-14427
赣	-14428
曰	-14429
吻	-14430
绞	-14431
琐	-14432
骂	-14433
瀑	-14434
拱	-14435
尴	-14436
盯	-14437
廖	-14438
惹	-14439
褪	-14440
莅	-14441
飙	-14442
ł	-14443
裸	-14444
痴	-14445
痰	-14446
畸	-14447
赌	-14448
祂	-14449
′	-14450
捏	-14451
倦	-14452
愧	-14453
蕉	-14454
崖	-14455
颂	-14456
叛	-14457
拧	-14458
祷	-14459
楞	-14460
蜀	-14461
尹	-14462
耍	-14463
锚	-14464
夷	-14465
绽	-14466
殷	-14467
耽	-14468
扔	-14469
畔	-14470
涅	-14471
棘	-14472
仑	-14473
淑	-14474
睹	-14475
碟	-14476
葫	-14477
橄	-14478
屿	-14479
肇	-14480
禾	-14481
焙	-14482
厄	-14483
垄	-14484
炖	-14485
霆	-14486
杞	-14487
秤	-14488
笋	-14489
姨	-14490
椰	-14491
阜	-14492
魄	-14493
柚	-14494
薛	-14495
瑶	-14496
栈	-14497
佼	-14498
虐	-14499
酥	-14500
贞	-14501
琦	-14502
妃	-14503
砺	-14504
秆	-14505
崎	-14506
榆	-14507
踊	-14508
鞍	-14509
挠	-14510
镶	-14511
乾	-14512
≥	-14513
»	-14514
х	-14515
襄	-14516
娟	-14517
雁	-14518
廓	-14519
趟	-14520
壹	-14521
惕	-14522
揉	-14523
拯	-14524
靓	-14525
椭	-14526
釉	-14527
穗	-14528
孜	-14529
戚	-14530
剔	-14531
灼	-14532
雌	-14533
钝	-14534
羞	-14535
©	-14536
傻	-14537
叮	-14538
霾	-14539
堰	-14540
墩	-14541
枸	-14542
饺	-14543
傍	-14544
蛛	-14545
芭	-14546
喔	-14547
灸	-14548
羡	-14549
澎	-14550
勺	-14551
淤	-14552
坞	-14553
秸	-14554
哨	-14555
肴	-14556
恳	-14557
堿	-14558
翘	-14559
馅	-14560
雯	-14561
奴	-14562
铂	-14563
蒲	-14564
芜	-14565
鞭	-14566
泸	-14567
矮	-14568
骼	-14569
侈	-14570
寡	-14571
讶	-14572
荔	-14573
瞄	-14574
淇	-14575
沼	-14576
漓	-14577
ц	-14578
哺	-14579
淄	-14580
禄	-14581
蠕	-14582
婉	-14583
宛	-14584
芙	-14585
毗	-14586
彤	-14587
痣	-14588
帜	-14589
瘾	-14590
黔	-14591
嘛	-14592
å	-14593
拐	-14594
溜	-14595
汀	-14596
绷	-14597
匪	-14598
巫	-14599
爪	-14600
筝	-14601
韶	-14602
掺	-14603
氰	-14604
妊	-14605
遏	-14606
菠	-14607
甩	-14608
遴	-14609
酋	-14610
腌	-14611
奕	-14612
柑	-14613
棱	-14614
嵩	-14615
脐	-14616
娠	-14617
俯	-14618
砥	-14619
蹄	-14620
脖	-14621
蜗	-14622
汕	-14623
诀	-14624
硼	-14625
曦	-14626
郝	-14627
晾	-14628
柬	-14629
ж	-14630
邹	-14631
矢	-14632
饥	-14633
悍	-14634
肋	-14635
躯	-14636
袍	-14637
榴	-14638
炬	-14639
怜	-14640
汲	-14641
潢	-14642
逗	-14643
扯	-14644
槟	-14645
愚	-14646
骚	-14647
盏	-14648
肽	-14649
溅	-14650
翡	-14651
蚂	-14652
惫	-14653
熄	-14654
澈	-14655
珀	-14656
禹	-14657
捆	-14658
◆	-14659
拣	-14660
邢	-14661
喧	-14662
窖	-14663
斋	-14664
砸	-14665
匈	-14666
旷	-14667
卿	-14668
荫	-14669
霖	-14670
稽	-14671
姬	-14672
瘀	-14673
茁	-14674
の	-14675
糯	-14676
○	-14677
羟	-14678
捡	-14679
贼	-14680
咏	-14681
蜘	-14682
孢	-14683
谎	-14684
昼	-14685
扛	-14686
琅	-14687
嚼	-14688
碾	-14689
睾	-14690
垦	-14691
嘲	-14692
绚	-14693
淳	-14694
阪	-14695
桔	-14696
阮	-14697
茵	-14698
皓	-14699
冥	-14700
芹	-14701
刨	-14702
腥	-14703
嗅	-14704
苔	-14705
埠	-14706
钨	-14707
抒	-14708
侍	-14709
潇	-14710
漳	-14711
淹	-14712
敛	-14713
媚	-14714
贬	-14715
亢	-14716
棍	-14717
瀚	-14718
蝴	-14719
赎	-14720
喇	-14721
粽	-14722
惰	-14723
幢	-14724
驿	-14725
羌	-14726
甫	-14727
迦	-14728
ー	-14729
弓	-14730
渤	-14731
匿	-14732
‧	-14733
邑	-14734
哑	-14735
眩	-14736
寝	-14737
胱	-14738
讽	-14739
芋	-14740
跻	-14741
龚	-14742
腋	-14743
窦	-14744
忱	-14745
斐	-14746
寞	-14747
靴	-14748
怠	-14749
骁	-14750
庐	-14751
С	-14752
梓	-14753
倪	-14754
沁	-14755
辜	-14756
蚕	-14757
妍	-14758
靡	-14759
‍	-14760
咀	-14761
虞	-14762
汞	-14763
涝	-14764
荟	-14765
媛	-14766
盎	-14767
兢	-14768
磋	-14769
豁	-14770
倘	-14771
魁	-14772
梵	-14773
渲	-14774
妄	-14775
藉	-14776
嗜	-14777
缤	-14778
臻	-14779
娅	-14780
牟	-14781
暇	-14782
※	-14783
嘅	-14784
囱	-14785
硒	-14786
冤	-14787
挨	-14788
碘	-14789
贿	-14790
樊	-14791
烛	-14792
笨	-14793
溺	-14794
耦	-14795
铵	-14796
乖	-14797
闵	-14798
俭	-14799
笛	-14800
楷	-14801
磺	-14802
棠	-14803
觅	-14804
α	-14805
烁	-14806
­	-14807
稚	-14808
β	-14809
肘	-14810
兜	-14811
恪	-14812
酌	-14813
颤	-14814
恕	-14815
钣	-14816
痤	-14817
苷	-14818
瘫	-14819
瑕	-14820
搓	-14821
韭	-14822
樟	-14823
恤	-14824
耿	-14825
皿	-14826
俞	-14827
弛	-14828
荨	-14829
簿	-14830
琢	-14831
峨	-14832
摧	-14833
耻	-14834
͏	-14835
庚	-14836
皖	-14837
蔗	-14838
鸽	-14839
钳	-14840
ç	-14841
黛	-14842
娥	-14843
煲	-14844
渭	-14845
锣	-14846
炳	-14847
筷	-14848
凳	-14849
麒	-14850
蝉	-14851
梢	-14852
颅	-14853
叭	-14854
呎	-14855
岚	-14856
汝	-14857
ш	-14858
瞒	-14859
窟	-14860
浚	-14861
毋	-14862
昕	-14863
梧	-14864
卒	-14865
淆	-14866
龈	-14867
晟	-14868
祀	-14869
鲤	-14870
倚	-14871
倩	-14872
钧	-14873
湃	-14874
檀	-14875
噬	-14876
肛	-14877
眷	-14878
笃	-14879
阱	-14880
娩	-14881
窥	-14882
П	-14883
罹	-14884
挛	-14885
玮	-14886
纾	-14887
媳	-14888
祁	-14889
邯	-14890
侃	-14891
吟	-14892
■	-14893
磕	-14894
蘑	-14895
睫	-14896
歪	-14897
啸	-14898
憩	-14899
鲸	-14900
哮	-14901
拢	-14902
俏	-14903
禧	-14904
町	-14905
颐	-14906
帧	-14907
耘	-14908
缕	-14909
憬	-14910
菁	-14911
沮	-14912
鲨	-14913
掷	-14914
嚣	-14915
戎	-14916
炙	-14917
蛙	-14918
濒	-14919
麓	-14920
滇	-14921
曙	-14922
憧	-14923
↓	-14924
蹲	-14925
巍	-14926
缚	-14927
搁	-14928
∶	-14929
狄	-14930
逮	-14931
栩	-14932
凋	-14933
蹦	-14934
尧	-14935
寥	-14936
腑	-14937
璨	-14938
糜	-14939
趾	-14940
钞	-14941
亟	-14942
ú	-14943
毡	-14944
殡	-14945
雍	-14946
鸦	-14947
犀	-14948
诫	-14949
铰	-14950
朔	-14951
桨	-14952
吋	-14953
捣	-14954
窍	-14955
郸	-14956
ф	-14957
睦	-14958
隋	-14959
凿	-14960
瘟	-14961
秃	-14962
瞧	-14963
楂	-14964
琉	-14965
蠢	-14966
袜	-14967
蜕	-14968
拇	-14969
璀	-14970
岂	-14971
痉	-14972
ю	-14973
芸	-14974
仆	-14975
娶	-14976
玺	-14977
佰	-14978
祠	-14979
诡	-14980
昱	-14981
掏	-14982
疣	-14983
缮	-14984
卦	-14985
璐	-14986
嗓	-14987
汾	-14988
骆	-14989
檐	-14990
颌	-14991
暮	-14992
盔	-14993
聂	-14994
钼	-14995
竿	-14996
冉	-14997
咤	-14998
槐	-14999
驼	-15000
孚	-15001
惬	-15002
镖	-15003
泣	-15004
猕	-15005
洼	-15006
ン	-15007
舜	-15008
嫂	-15009
矣	-15010
闺	-15011
睁	-15012
铆	-15013
陡	-15014
搪	-15015
茜	-15016
姊	-15017
蛀	-15018
钴	-15019
В	-15020
奸	-15021
ę	-15022
妒	-15023
溴	-15024
痹	-15025
陋	-15026
谍	-15027
钰	-15028
朽	-15029
娴	-15030
驴	-15031
汹	-15032
痊	-15033
聋	-15034
雏	-15035
驭	-15036
闫	-15037
呐	-15038
ą	-15039
礁	-15040
К	-15041
汶	-15042
藕	-15043
毂	-15044
锆	-15045
佬	-15046
啮	-15047
啰	-15048
荼	-15049
鳍	-15050
陇	-15051
疵	-15052
榕	-15053
榻	-15054
窜	-15055
慷	-15056
熠	-15057
绊	-15058
苟	-15059
劈	-15060
豚	-15061
桦	-15062
«	-15063
讳	-15064
跪	-15065
斧	-15066
揣	-15067
昧	-15068
羁	-15069
耸	-15070
兮	-15071
芥	-15072
譬	-15073
簇	-15074
⋯	-15075
禀	-15076
逅	-15077
晤	-15078
翟	-15079
僻	-15080
踝	-15081
鞠	-15082
邂	-15083
丞	-15084
堕	-15085
鳄	-15086
抉	-15087
眺	-15088
圃	-15089
屁	-15090
茉	-15091
弈	-15092
◎	-15093
漱	-15094
媲	-15095
茗	-15096
莆	-15097
臀	-15098
裴	-15099
č	-15100
懦	-15101
铮	-15102
庇	-15103
茸	-15104
渺	-15105
戳	-15106
萱	-15107
彪	-15108
嫉	-15109
氩	-15110
挝	-15111
咐	-15112
ã	-15113
痔	-15114
璇	-15115
缪	-15116
ā	-15117
烙	-15118
哇	-15119
蝇	-15120
炜	-15121
薰	-15122
炽	-15123
娓	-15124
蕊	-15125
瑚	-15126
冗	-15127
膺	-15128
Ω	-15129
嘎	-15130
馒	-15131
蚌	-15132
垛	-15133
拂	-15134
彝	-15135
殴	-15136
焉	-15137
悚	-15138
噩	-15139
脲	-15140
ا	-15141
い	-15142
寅	-15143
莘	-15144
瑙	-15145
祉	-15146
舅	-15147
蘸	-15148
蝎	-15149
鹃	-15150
掠	-15151
扒	-15152
蝠	-15153
哩	-15154
泾	-15155
腈	-15156
侥	-15157
ě	-15158
窒	-15159
匮	-15160
幂	-15161
嬉	-15162
厥	-15163
匡	-15164
贰	-15165
恺	-15166
戊	-15167
嘻	-15168
宕	-15169
拙	-15170
觑	-15171
秧	-15172
攒	-15173
蒿	-15174
哄	-15175
捍	-15176
绅	-15177
荞	-15178
淌	-15179
Φ	-15180
娄	-15181
锭	-15182
哉	-15183
屹	-15184
撬	-15185
ñ	-15186
虔	-15187
煞	-15188
杖	-15189
缉	-15190
凄	-15191
璧	-15192
坷	-15193
唾	-15194
怯	-15195
狸	-15196
坟	-15197
粱	-15198
瞰	-15199
衢	-15200
俐	-15201
菏	-15202
乍	-15203
悼	-15204
鳌	-15205
腱	-15206
蝙	-15207
徊	-15208
鸥	-15209
唑	-15210
茹	-15211
镉	-15212
峭	-15213
绥	-15214
缭	-15215
亥	-15216
镂	-15217
篆	-15218
А	-15219
咕	-15220
榈	-15221
穹	-15222
徘	-15223
犁	-15224
▼	-15225
Н	-15226
咯	-15227
嘘	-15228
屉	-15229
悸	-15230
Р	-15231
姥	-15232
沽	-15233
札	-15234
绰	-15235
š	-15236
颊	-15237
叁	-15238
峪	-15239
绮	-15240
蚝	-15241
螃	-15242
垮	-15243
趴	-15244
撇	-15245
摒	-15246
谛	-15247
坂	-15248
囚	-15249
唔	-15250
哗	-15251
М	-15252
€	-15253
剃	-15254
苓	-15255
铠	-15256
桁	-15257
廿	-15258
	-15259
篡	-15260
辗	-15261
螂	-15262
岑	-15263
陨	-15264
矾	-15265
¥	-15266
颓	-15267
瞳	-15268
嗨	-15269
涕	-15270
滔	-15271
拷	-15272
帼	-15273
寮	-15274
窘	-15275
琶	-15276
爹	-15277
坍	-15278
跋	-15279
祺	-15280
螨	-15281
砷	-15282
懿	-15283
恬	-15284
楔	-15285
韬	-15286
恍	-15287
ż	-15288
驯	-15289
搐	-15290
羧	-15291
姗	-15292
鹕	-15293
绯	-15294
鹈	-15295
篱	-15296
☆	-15297
褶	-15298
薏	-15299
蹭	-15300
泓	-15301
枉	-15302
谬	-15303
扼	-15304
氦	-15305
烨	-15306
黯	-15307
俨	-15308
漩	-15309
墟	-15310
珑	-15311
峥	-15312
忏	-15313
涧	-15314
璋	-15315
岐	-15316
钵	-15317
痪	-15318
咙	-15319
し	-15320
髦	-15321
俘	-15322
煅	-15323
猩	-15324
淫	-15325
ß	-15326
乞	-15327
鹭	-15328
玖	-15329
阎	-15330
濮	-15331
ś	-15332
囤	-15333
茯	-15334
谧	-15335
羹	-15336
垣	-15337
躬	-15338
苞	-15339
ス	-15340
骇	-15341
炊	-15342
蹴	-15343
吼	-15344
匝	-15345
芍	-15346
迥	-15347
φ	-15348
ї	-15349
煜	-15350
锵	-15351
铿	-15352
挟	-15353
懵	-15354
ž	-15355
に	-15356
霓	-15357
晏	-15358
焖	-15359
邨	-15360
寇	-15361
丨	-15362
曳	-15363
膛	-15364
莺	-15365
尉	-15366
る	-15367
宸	-15368
岔	-15369
丫	-15370
茧	-15371
咋	-15372
ò	-15373
Б	-15374
伶	-15375
た	-15376
龋	-15377
膊	-15378
烊	-15379
诙	-15380
酝	-15381
イ	-15382
幺	-15383
鞘	-15384
芷	-15385
颚	-15386
睑	-15387
ل	-15388
汐	-15389
扦	-15390
嗯	-15391
と	-15392
粳	-15393
芪	-15394
糠	-15395
箍	-15396
砾	-15397
襟	-15398
憎	-15399
砚	-15400
ル	-15401
禺	-15402
耙	-15403
歼	-15404
纫	-15405
泗	-15406
祢	-15407
贱	-15408
迸	-15409
惶	-15410
蛳	-15411
Д	-15412
ă	-15413
炔	-15414
晗	-15415
芃	-15416
ì	-15417
慑	-15418
猿	-15419
筐	-15420
鹊	-15421
凛	-15422
慜	-15423
莽	-15424
拽	-15425
庵	-15426
钡	-15427
丶	-15428
ř	-15429
桓	-15430
琥	-15431
瞎	-15432
踵	-15433
粟	-15434
屎	-15435
蟑	-15436
谴	-15437
É	-15438
↑	-15439
寰	-15440
О	-15441
щ	-15442
匾	-15443
诣	-15444
赘	-15445
侮	-15446
饵	-15447
恃	-15448
熨	-15449
胳	-15450
嫦	-15451
烽	-15452
砼	-15453
漾	-15454
镗	-15455
憨	-15456
磐	-15457
刁	-15458
猝	-15459
斓	-15460
蜒	-15461
焯	-15462
Ф	-15463
礴	-15464
痿	-15465
皋	-15466
幌	-15467
蜿	-15468
ј	-15469
喃	-15470
逍	-15471
啼	-15472
眶	-15473
呤	-15474
な	-15475
舵	-15476
瑾	-15477
榔	-15478
佟	-15479
秽	-15480
戟	-15481
嘟	-15482
荤	-15483
辙	-15484
隅	-15485
嫣	-15486
徙	-15487
袂	-15488
隽	-15489
â	-15490
藩	-15491
哆	-15492
疚	-15493
峦	-15494
湄	-15495
ト	-15496
哔	-15497
遐	-15498
毓	-15499
葩	-15500
眸	-15501
侄	-15502
憋	-15503
戛	-15504
ý	-15505
悯	-15506
潼	-15507
痢	-15508
匣	-15509
羲	-15510
燊	-15511
蛤	-15512
朦	-15513
岱	-15514
啃	-15515
骋	-15516
喱	-15517
钒	-15518
酗	-15519
洙	-15520
胧	-15521
葆	-15522
哟	-15523
喵	-15524
羚	-15525
诲	-15526
晦	-15527
搔	-15528
捻	-15529
衅	-15530
漯	-15531
褒	-15532
ø	-15533
僚	-15534
惋	-15535
鄙	-15536
眨	-15537
摹	-15538
ê	-15539
袱	-15540
珈	-15541
槌	-15542
擞	-15543
纂	-15544
嗣	-15545
婧	-15546
瞪	-15547
琛	-15548
邸	-15549
吏	-15550
赡	-15551
翌	-15552
て	-15553
骸	-15554
砝	-15555
琵	-15556
峙	-15557
豌	-15558
ま	-15559
侪	-15560
狩	-15561
裱	-15562
棺	-15563
濑	-15564
炯	-15565
嚏	-15566
歹	-15567
涟	-15568
△	-15569
酣	-15570
邃	-15571
馥	-15572
岌	-15573
揪	-15574
Т	-15575
蛎	-15576
吡	-15577
ī	-15578
俪	-15579
璞	-15580
滁	-15581
髋	-15582
潺	-15583
痂	-15584
栾	-15585
瓯	-15586
曜	-15587
圩	-15588
卯	-15589
寐	-15590
鱿	-15591
吝	-15592
婪	-15593
す	-15594
狙	-15595
Г	-15596
粕	-15597
茬	-15598
徕	-15599
を	-15600
斟	-15601
は	-15602
嘿	-15603
辄	-15604
辍	-15605
玥	-15606
纭	-15607
抨	-15608
叨	-15609
捂	-15610
荃	-15611
苇	-15612
轼	-15613
掖	-15614
蔷	-15615
厝	-15616
ラ	-15617
湍	-15618
か	-15619
鲲	-15620
藜	-15621
暧	-15622
で	-15623
孪	-15624
淼	-15625
椿	-15626
葚	-15627
驹	-15628
撩	-15629
婿	-15630
裳	-15631
飓	-15632
晔	-15633
厮	-15634
麸	-15635
斛	-15636
昵	-15637
擂	-15638
擒	-15639
嬷	-15640
赃	-15641
鳗	-15642
喆	-15643
霹	-15644
彗	-15645
阖	-15646
扉	-15647
祐	-15648
螯	-15649
镰	-15650
️	-15651
稼	-15652
诏	-15653
喺	-15654
涪	-15655
阈	-15656
珞	-15657
珂	-15658
戌	-15659
跤	-15660
剁	-15661
甬	-15662
酐	-15663
が	-15664
ん	-15665
瑛	-15666
忻	-15667
靳	-15668
咚	-15669
〇	-15670
涎	-15671
γ	-15672
嵘	-15673
殆	-15674
缜	-15675
咫	-15676
祯	-15677
И	-15678
沌	-15679
ア	-15680
谤	-15681
沱	-15682
啶	-15683
亳	-15684
谚	-15685
杷	-15686
雳	-15687
呗	-15688
壬	-15689
镯	-15690
ć	-15691
嘌	-15692
ù	-15693
́	-15694
枇	-15695
飨	-15696
う	-15697
芮	-15698
跆	-15699
ń	-15700
ク	-15701
哼	-15702
岖	-15703
轶	-15704
呛	-15705
█	-15706
毙	-15707
羯	-15708
婕	-15709
竺	-15710
哎	-15711
瀛	-15712
冢	-15713
戮	-15714
り	-15715
リ	-15716
蛾	-15717
ô	-15718
攘	-15719
阑	-15720
腮	-15721
咎	-15722
榫	-15723
敖	-15724
萦	-15725
铎	-15726
У	-15727
蓓	-15728
庶	-15729
渥	-15730
浒	-15731
铀	-15732
飒	-15733
奂	-15734
叩	-15735
撷	-15736
饕	-15737
褥	-15738
钎	-15739
萼	-15740
冇	-15741
笙	-15742
诅	-15743
簸	-15744
嘹	-15745
珐	-15746
棣	-15747
溧	-15748
鞣	-15749
妞	-15750
漪	-15751
勐	-15752
涓	-15753
Л	-15754
佢	-15755
煦	-15756
陂	-15757
彷	-15758
钊	-15759
掐	-15760
拎	-15761
蛟	-15762
虏	-15763
ō	-15764
赦	-15765
郴	-15766
淅	-15767
偕	-15768
噜	-15769
孽	-15770
翊	-15771
覃	-15772
坜	-15773
懊	-15774
蕃	-15775
熹	-15776
罄	-15777
谙	-15778
咧	-15779
疙	-15780
ё	-15781
砧	-15782
裘	-15783
兀	-15784
矗	-15785
蛰	-15786
孰	-15787
馍	-15788
臼	-15789
藓	-15790
î	-15791
瘩	-15792
疝	-15793
缎	-15794
蜢	-15795
撮	-15796
锑	-15797
皈	-15798
婺	-15799
踞	-15800
昀	-15801
恣	-15802
茱	-15803
矸	-15804
嗡	-15805
濡	-15806
羔	-15807
讴	-15808
鄱	-15809
籁	-15810
钯	-15811
镐	-15812
诟	-15813
愣	-15814
嘶	-15815
姣	-15816
嘈	-15817
遁	-15818
啪	-15819
睇	-15820
胤	-15821
忡	-15822
吩	-15823
疟	-15824
‰	-15825
笠	-15826
迩	-15827
袅	-15828
钕	-15829
筱	-15830
こ	-15831
俑	-15832
玑	-15833
唠	-15834
莠	-15835
鲫	-15836
蕙	-15837
ǎ	-15838
沅	-15839
辕	-15840
掰	-15841
栀	-15842
涿	-15843
臧	-15844
蓟	-15845
镭	-15846
惭	-15847
淞	-15848
ら	-15849
攸	-15850
悖	-15851
夭	-15852
鹦	-15853
奚	-15854
م	-15855
ي	-15856
怼	-15857
阙	-15858
昙	-15859
骅	-15860
渎	-15861
郫	-15862
雹	-15863
涮	-15864
莴	-15865
蚤	-15866
←	-15867
沓	-15868
霏	-15869
呱	-15870
侏	-15871
脯	-15872
捅	-15873
翱	-15874
疸	-15875
枭	-15876
榛	-15877
芡	-15878
鲈	-15879
蛭	-15880
氪	-15881
虱	-15882
粼	-15883
腩	-15884
ر	-15885
皙	-15886
宥	-15887
祎	-15888
绢	-15889
诬	-15890
狡	-15891
瘢	-15892
蹊	-15893
颍	-15894
瓢	-15895
麾	-15896
崂	-15897
煽	-15898
浔	-15899
赓	-15900
赂	-15901
隘	-15902
æ	-15903
贻	-15904
き	-15905
ъ	-15906
炅	-15907
旻	-15908
镌	-15909
蔻	-15910
◇	-15911
ő	-15912
ㄧ	-15913
鸠	-15914
ッ	-15915
癞	-15916
蕨	-15917
麝	-15918
哒	-15919
苋	-15920
唉	-15921
怅	-15922
侬	-15923
茴	-15924
亘	-15925
眯	-15926
拮	-15927
ē	-15928
蔼	-15929
荚	-15930
仟	-15931
倔	-15932
裨	-15933
愫	-15934
诽	-15935
さ	-15936
冽	-15937
喑	-15938
徉	-15939
く	-15940
诛	-15941
徜	-15942
煸	-15943
皑	-15944
玟	-15945
玷	-15946
蒡	-15947
槃	-15948
噢	-15949
锾	-15950
⁄	-15951
楹	-15952
÷	-15953
墒	-15954
咔	-15955
榭	-15956
褚	-15957
菅	-15958
鹉	-15959
呋	-15960
З	-15961
蕲	-15962
璟	-15963
渚	-15964
豉	-15965
呦	-15966
糅	-15967
吱	-15968
淖	-15969
岷	-15970
楣	-15971
帚	-15972
缨	-15973
樽	-15974
邕	-15975
啬	-15976
铢	-15977
佘	-15978
涸	-15979
燎	-15980
蜻	-15981
鸳	-15982
阂	-15983
馋	-15984
あ	-15985
侗	-15986
筏	-15987
ن	-15988
ë	-15989
唷	-15990
噱	-15991
酉	-15992
ド	-15993
も	-15994
擀	-15995
锲	-15996
潞	-15997
恙	-15998
泞	-15999
蜓	-16000
睽	-16001
遨	-16002
撸	-16003
氓	-16004
鸯	-16005
氙	-16006
跷	-16007
锄	-16008
و	-16009
弭	-16010
甾	-16011
れ	-16012
馁	-16013
呜	-16014
ș	-16015
惮	-16016
汴	-16017
缇	-16018
溏	-16019
袤	-16020
瘠	-16021
苒	-16022
タ	-16023
犷	-16024
π	-16025
饽	-16026
稞	-16027
シ	-16028
妓	-16029
烬	-16030
毽	-16031
漕	-16032
瞿	-16033
−	-16034
壑	-16035
甙	-16036
盂	-16037
轭	-16038
衙	-16039
鳃	-16040
妾	-16041
柒	-16042
э	-16043
痞	-16044
坩	-16045
徨	-16046
谕	-16047
筠	-16048
丐	-16049
铉	-16050
惺	-16051
谏	-16052
桧	-16053
孳	-16054
辫	-16055
擘	-16056
捺	-16057
沣	-16058
咗	-16059
埚	-16060
っ	-16061
唏	-16062
讥	-16063
脍	-16064
掳	-16065
ω	-16066
傣	-16067
殉	-16068
宦	-16069
绫	-16070
蜈	-16071
є	-16072
粑	-16073
蹬	-16074
骥	-16075
鳝	-16076
ロ	-16077
剿	-16078
儋	-16079
惚	-16080
垠	-16081
σ	-16082
俺	-16083
瓮	-16084
萘	-16085
隼	-16086
嗦	-16087
旌	-16088
瑄	-16089
郜	-16090
珉	-16091
癖	-16092
蚓	-16093
腓	-16094
疽	-16095
讷	-16096
荏	-16097
樵	-16098
铨	-16099
〜	-16100
亵	-16101
橇	-16102
慵	-16103
蟠	-16104
胫	-16105
叱	-16106
苁	-16107
伫	-16108
囧	-16109
镓	-16110
►	-16111
跖	-16112
邬	-16113
螫	-16114
叽	-16115
歆	-16116
鹑	-16117
骊	-16118
啉	-16119
嘀	-16120
醌	-16121
伎	-16122
咲	-16123
鲑	-16124
ジ	-16125
谆	-16126
骶	-16127
フ	-16128
焱	-16129
蟒	-16130
啧	-16131
惦	-16132
焗	-16133
弋	-16134
惘	-16135
沭	-16136
篦	-16137
巿	-16138
蜥	-16139
姝	-16140
蔑	-16141
芊	-16142
旖	-16143
荀	-16144
琊	-16145
犊	-16146
カ	-16147
桅	-16148
箴	-16149
俾	-16150
荠	-16151
莒	-16152
骛	-16153
蚯	-16154
お	-16155
嗝	-16156
癸	-16157
迢	-16158
皎	-16159
λ	-16160
绛	-16161
鹌	-16162
幡	-16163
噶	-16164
貂	-16165
鼾	-16166
嚷	-16167
诧	-16168
拈	-16169
Ü	-16170
δ	-16171
啄	-16172
瞥	-16173
蝗	-16174
遛	-16175
ǐ	-16176
マ	-16177
逞	-16178
巳	-16179
铛	-16180
ū	-16181
鸢	-16182
岘	-16183
栉	-16184
ț	-16185
苣	-16186
赈	-16187
濠	-16188
剽	-16189
猖	-16190
胥	-16191
鏖	-16192
ρ	-16193
肮	-16194
レ	-16195
隍	-16196
搽	-16197
眈	-16198
忐	-16199
稷	-16200
蚣	-16201
闰	-16202
嫡	-16203
忑	-16204
搀	-16205
Ö	-16206
谌	-16207
苡	-16208
赧	-16209
偃	-16210
滦	-16211
饯	-16212
迂	-16213
膈	-16214
婵	-16215
蜚	-16216
旎	-16217
诃	-16218
嬴	-16219
灏	-16220
み	-16221
祟	-16222
埗	-16223
埕	-16224
涣	-16225
荥	-16226
胭	-16227
喋	-16228
嗒	-16229
噻	-16230
迳	-16231
珩	-16232
藿	-16233
桉	-16234
铑	-16235
ů	-16236
̇	-16237
奄	-16238
ち	-16239
钗	-16240
鳕	-16241
抠	-16242
骞	-16243
鄞	-16244
懋	-16245
灞	-16246
睢	-16247
舔	-16248
ο	-16249
檩	-16250
邛	-16251
箕	-16252
√	-16253
ε	-16254
桢	-16255
挞	-16256
娲	-16257
榉	-16258
锹	-16259
鬓	-16260
ب	-16261
砜	-16262
帛	-16263
惆	-16264
拴	-16265
桀	-16266
餮	-16267
け	-16268
枷	-16269
溥	-16270
蟾	-16271
篝	-16272
镳	-16273
鳖	-16274
蛹	-16275
铌	-16276
›	-16277
蔺	-16278
テ	-16279
潦	-16280
脘	-16281
ı	-16282
Е	-16283
泷	-16284
卞	-16285
耆	-16286
讹	-16287
颞	-16288
镦	-16289
笆	-16290
洮	-16291
痧	-16292
龛	-16293
芎	-16294
箫	-16295
猬	-16296
苜	-16297
蓿	-16298
咁	-16299
蚜	-16300
艮	-16301
喳	-16302
§	-16303
嗪	-16304
娑	-16305
叟	-16306
殃	-16307
髙	-16308
▪	-16309
掣	-16310
瞅	-16311
د	-16312
オ	-16313
ت	-16314
谥	-16315
浣	-16316
珺	-16317
羿	-16318
嬛	-16319
昶	-16320
翎	-16321
鳅	-16322
膦	-16323
つ	-16324
偎	-16325
臆	-16326
阆	-16327
妩	-16328
畲	-16329
诿	-16330
栎	-16331
琨	-16332
喽	-16333
陛	-16334
飚	-16335
兖	-16336
悴	-16337
钽	-16338
郅	-16339
搂	-16340
曩	-16341
銮	-16342
õ	-16343
埤	-16344
啲	-16345
璜	-16346
τ	-16347
嘧	-16348
猥	-16349
簪	-16350
Х	-16351
烩	-16352
暄	-16353
麋	-16354
ミ	-16355
壕	-16356
憔	-16357
哽	-16358
瞭	-16359
矜	-16360
捎	-16361
Δ	-16362
ニ	-16363
霁	-16364
コ	-16365
妤	-16366
│	-16367
趸	-16368
饨	-16369
娣	-16370
浜	-16371
氡	-16372
咄	-16373
邳	-16374
桎	-16375
锉	-16376
猾	-16377
痈	-16378
Ø	-16379
槿	-16380
嵊	-16381
丕	-16382
馄	-16383
喹	-16384
垩	-16385
谒	-16386
邺	-16387
祇	-16388
遽	-16389
Ш	-16390
塬	-16391
梏	-16392
泱	-16393
偈	-16394
泯	-16395
缈	-16396
ν	-16397
拗	-16398
柞	-16399
燮	-16400
崽	-16401
琰	-16402
笺	-16403
ï	-16404
キ	-16405
壅	-16406
骷	-16407
ع	-16408
袄	-16409
怦	-16410
腭	-16411
ィ	-16412
屌	-16413
敝	-16414
‐	-16415
幔	-16416
挹	-16417
髅	-16418
佗	-16419
垭	-16420
缥	-16421
柘	-16422
袒	-16423
堇	-16424
芩	-16425
锶	-16426
捶	-16427
狈	-16428
篓	-16429
赟	-16430
蠡	-16431
埂	-16432
舀	-16433
Ч	-16434
鹜	-16435
猷	-16436
筵	-16437
唆	-16438
奘	-16439
瓴	-16440
阡	-16441
螳	-16442
纣	-16443
铟	-16444
笈	-16445
煨	-16446
羰	-16447
骐	-16448
枞	-16449
甥	-16450
よ	-16451
サ	-16452
吮	-16453
萜	-16454
ˋ	-16455
塾	-16456
坨	-16457
畿	-16458
爰	-16459
讫	-16460
プ	-16461
怂	-16462
牦	-16463
ه	-16464
剌	-16465
碚	-16466
郧	-16467
幄	-16468
Á	-16469
メ	-16470
匍	-16471
ǔ	-16472
س	-16473
粿	-16474
醴	-16475
ㄨ	-16476
婀	-16477
辘	-16478
黝	-16479
ة	-16480
孺	-16481
璎	-16482
歙	-16483
埼	-16484
嶂	-16485
杵	-16486
漉	-16487
偌	-16488
だ	-16489
枳	-16490
踌	-16491
嗔	-16492
珮	-16493
이	-16494
盅	-16495
蛊	-16496
缙	-16497
躇	-16498
魇	-16499
〞	-16500
堀	-16501
褂	-16502
暹	-16503
嚎	-16504
铋	-16505
伉	-16506
偻	-16507
弩	-16508
扈	-16509
仄	-16510
呷	-16511
睬	-16512
❤	-16513
佚	-16514
黍	-16515
η	-16516
バ	-16517
ナ	-16518
梆	-16519
獗	-16520
锢	-16521
咛	-16522
咆	-16523
朕	-16524
夙	-16525
驮	-16526
苫	-16527
ウ	-16528
涞	-16529
崴	-16530
镊	-16531
ャ	-16532
ι	-16533
崃	-16534
卅	-16535
噌	-16536
锗	-16537
冼	-16538
匐	-16539
莪	-16540
蟀	-16541
泠	-16542
蟋	-16543
掂	-16544
铍	-16545
鸾	-16546
谩	-16547
陲	-16548
า	-16549
戍	-16550
澧	-16551
菖	-16552
碉	-16553
腆	-16554
╱	-16555
坳	-16556
〗	-16557
畦	-16558
萸	-16559
鲢	-16560
吠	-16561
ズ	-16562
デ	-16563
ा	-16564
籼	-16565
ブ	-16566
岬	-16567
窿	-16568
チ	-16569
婶	-16570
掬	-16571
颉	-16572
〖	-16573
罔	-16574
腼	-16575
谲	-16576
颧	-16577
唧	-16578
澍	-16579
蹿	-16580
椹	-16581
滘	-16582
斡	-16583
榷	-16584
え	-16585
碁	-16586
刍	-16587
劵	-16588
嫔	-16589
芈	-16590
谟	-16591
グ	-16592
徇	-16593
蓦	-16594
ム	-16595
嗑	-16596
遑	-16597
呃	-16598
佝	-16599
戬	-16600
エ	-16601
や	-16602
蜷	-16603
雉	-16604
鲶	-16605
稔	-16606
瞌	-16607
蜇	-16608
蹋	-16609
蜴	-16610
獭	-16611
め	-16612
砰	-16613
倭	-16614
朐	-16615
瘁	-16616
诋	-16617
俸	-16618
沏	-16619
肱	-16620
Š	-16621
∼	-16622
吆	-16623
潴	-16624
舷	-16625
骡	-16626
鲅	-16627
わ	-16628
罡	-16629
踔	-16630
轲	-16631
ダ	-16632
啜	-16633
枋	-16634
瘪	-16635
藐	-16636
鲔	-16637
ˊ	-16638
珏	-16639
诘	-16640
髻	-16641
洵	-16642
臃	-16643
酊	-16644
鎏	-16645
⊙	-16646
滢	-16647
珲	-16648
荻	-16649
铤	-16650
喙	-16651
愕	-16652
炀	-16653
胯	-16654
蚵	-16655
胍	-16656
醺	-16657
岫	-16658
鄢	-16659
湮	-16660
綦	-16661
觊	-16662
豇	-16663
咩	-16664
焓	-16665
舫	-16666
パ	-16667
樾	-16668
诩	-16669
♥	-16670
そ	-16671
湟	-16672
ュ	-16673
疥	-16674
瘘	-16675
碣	-16676
弼	-16677
妲	-16678
膻	-16679
跛	-16680
揍	-16681
贲	-16682
窨	-16683
翀	-16684
觎	-16685
َ	-16686
浃	-16687
犒	-16688
怙	-16689
蕞	-16690
泔	-16691
ی	-16692
擢	-16693
阚	-16694
氲	-16695
濯	-16696
蜊	-16697
瓤	-16698
碴	-16699
苄	-16700
骜	-16701
熵	-16702
篑	-16703
〝	-16704
瞠	-16705
せ	-16706
ビ	-16707
濂	-16708
ǒ	-16709
氤	-16710
缄	-16711
弑	-16712
旸	-16713
讧	-16714
鲟	-16715
舸	-16716
硐	-16717
𫖯	-16718
踹	-16719
Č	-16720
滓	-16721
锏	-16722
赊	-16723
揾	-16724
鹫	-16725
桡	-16726
嗤	-16727
峇	-16728
磡	-16729
盱	-16730
荸	-16731
菓	-16732
蓖	-16733
蔫	-16734
骰	-16735
邝	-16736
坻	-16737
忒	-16738
崧	-16739
谑	-16740
靛	-16741
巯	-16742
掸	-16743
咦	-16744
痱	-16745
茭	-16746
唬	-16747
牍	-16748
じ	-16749
哋	-16750
盥	-16751
Å	-16752
讪	-16753
髂	-16754
љ	-16755
煊	-16756
蹶	-16757
霎	-16758
†	-16759
≈	-16760
叻	-16761
巽	-16762
蘖	-16763
邈	-16764
θ	-16765
吭	-16766
鬃	-16767
殇	-16768
炕	-16769
忿	-16770
晞	-16771
眙	-16772
砟	-16773
膘	-16774
ど	-16775
∕	-16776
嗳	-16777
蹒	-16778
葺	-16779
遒	-16780
馔	-16781
觐	-16782
🙂	-16783
堑	-16784
峒	-16785
槭	-16786
丼	-16787
戾	-16788
І	-16789
婢	-16790
¢	-16791
ð	-16792
Э	-16793
敕	-16794
ف	-16795
葳	-16796
鲳	-16797
庾	-16798
芘	-16799
蜃	-16800
鹳	-16801
ろ	-16802
蚩	-16803
娆	-16804
羸	-16805
貔	-16806
κ	-16807
誊	-16808
∞	-16809
啖	-16810
嚟	-16811
嬅	-16812
攫	-16813
蒽	-16814
崁	-16815
跚	-16816
茏	-16817
邋	-16818
蛔	-16819
崀	-16820
纨	-16821
￼	-16822
्	-16823
晁	-16824
赅	-16825
र	-16826
噎	-16827
耒	-16828
芾	-16829
〓	-16830
哚	-16831
ş	-16832
傀	-16833
犍	-16834
椴	-16835
鲷	-16836
啾	-16837
貅	-16838
鲛	-16839
鹄	-16840
琍	-16841
嗷	-16842
汨	-16843
瘴	-16844
胛	-16845
琮	-16846
畊	-16847
砻	-16848
谯	-16849
氖	-16850
ق	-16851
匕	-16852
牒	-16853
น	-16854
儡	-16855
遢	-16856
鳜	-16857
ร	-16858
ς	-16859
侑	-16860
霈	-16861
糍	-16862
菡	-16863
蓁	-16864
扪	-16865
纰	-16866
腴	-16867
噗	-16868
潟	-16869
踮	-16870
菟	-16871
麂	-16872
凇	-16873
砀	-16874
獒	-16875
筚	-16876
モ	-16877
囿	-16878
盹	-16879
逵	-16880
摁	-16881
饴	-16882
蚪	-16883
觞	-16884
狞	-16885
ガ	-16886
劾	-16887
劭	-16888
碇	-16889
爻	-16890
蝮	-16891
镕	-16892
Σ	-16893
њ	-16894
俚	-16895
跎	-16896
叼	-16897
囡	-16898
垚	-16899
浐	-16900
溱	-16901
疖	-16902
セ	-16903
鳟	-16904
☑	-16905
孑	-16906
湳	-16907
郓	-16908
鲭	-16909
拄	-16910
淦	-16911
绶	-16912
瘸	-16913
祜	-16914
▶	-16915
蹉	-16916
霭	-16917
ˇ	-16918
汆	-16919
聿	-16920
驸	-16921
ハ	-16922
夔	-16923
攥	-16924
蝌	-16925
铱	-16926
ノ	-16927
呻	-16928
堃	-16929
绀	-16930
挎	-16931
杳	-16932
다	-16933
畀	-16934
ョ	-16935
嫖	-16936
澹	-16937
窈	-16938
馗	-16939
泫	-16940
犸	-16941
渑	-16942
仝	-16943
佃	-16944
崮	-16945
箩	-16946
恿	-16947
荪	-16948
아	-16949
墉	-16950
郯	-16951
钏	-16952
Ž	-16953
न	-16954
‬	-16955
嚓	-16956
楫	-16957
饷	-16958
ź	-16959
勠	-16960
汩	-16961
皴	-16962
辋	-16963
∩	-16964
洄	-16965
秭	-16966
尕	-16967
捋	-16968
吲	-16969
掇	-16970
撂	-16971
濉	-16972
虢	-16973
唢	-16974
赭	-16975
ゆ	-16976
郾	-16977
髌	-16978
鬟	-16979
殒	-16980
狰	-16981
肼	-16982
♀	-16983
咭	-16984
孖	-16985
楸	-16986
舛	-16987
镧	-16988
邰	-16989
ご	-16990
獐	-16991
芫	-16992
蟆	-16993
Ц	-16994
嘢	-16995
岀	-16996
邗	-16997
埭	-16998
摞	-16999
迤	-17000
क	-17001
ひ	-17002
捌	-17003
蜱	-17004
ि	-17005
铐	-17006
阉	-17007
	-17008
Α	-17009
་	-17010
ァ	-17011
晌	-17012
蹂	-17013
傩	-17014
恻	-17015
臾	-17016
ツ	-17017
瘜	-17018
鸵	-17019
ม	-17020
∙	-17021
姹	-17022
淙	-17023
醪	-17024
闾	-17025
ج	-17026
酞	-17027
∮	-17028
裟	-17029
々	-17030
ㄟ	-17031
畈	-17032
ح	-17033
惴	-17034
梿	-17035
躏	-17036
े	-17037
厩	-17038
涠	-17039
燧	-17040
釆	-17041
陉	-17042
	-17043
檗	-17044
窕	-17045
Я	-17046
赝	-17047
鼬	-17048
噼	-17049
嶙	-17050
颢	-17051
缰	-17052
蚬	-17053
가	-17054
刈	-17055
铧	-17056
颔	-17057
ğ	-17058
Ś	-17059
อ	-17060
藁	-17061
黉	-17062
朊	-17063
抿	-17064
祚	-17065
绌	-17066
하	-17067
ə	-17068
岙	-17069
诰	-17070
佯	-17071
炝	-17072
莳	-17073
锟	-17074
鞅	-17075
ェ	-17076
峋	-17077
碲	-17078
啫	-17079
磬	-17080
苕	-17081
醅	-17082
铄	-17083
仞	-17084
峁	-17085
坭	-17086
箐	-17087
仨	-17088
胄	-17089
蒴	-17090
ी	-17091
槎	-17092
绦	-17093
増	-17094
嬿	-17095
褓	-17096
υ	-17097
ケ	-17098
衮	-17099
袈	-17100
隈	-17101
徬	-17102
醍	-17103
飕	-17104
孱	-17105
浉	-17106
绔	-17107
𠮶	-17108
悭	-17109
氘	-17110
痼	-17111
佤	-17112
钌	-17113
시	-17114
Ж	-17115
哌	-17116
嗖	-17117
荽	-17118
醮	-17119
▍	-17120
亰	-17121
谪	-17122
颛	-17123
仃	-17124
酩	-17125
嵇	-17126
痨	-17127
硚	-17128
铈	-17129
ѕ	-17130
่	-17131
彧	-17132
镛	-17133
한	-17134
̄	-17135
髯	-17136
磴	-17137
跬	-17138
Ó	-17139
ば	-17140
ネ	-17141
徳	-17142
摈	-17143
茼	-17144
ك	-17145
唁	-17146
孀	-17147
槲	-17148
茍	-17149
蛐	-17150
肟	-17151
蓼	-17152
ű	-17153
㓥	-17154
倏	-17155
褛	-17156
י	-17157
珙	-17158
	-17159
ย	-17160
俟	-17161
瓿	-17162
痍	-17163
苴	-17164
♦	-17165
昴	-17166
畑	-17167
裆	-17168
钇	-17169
硖	-17170
郦	-17171
桠	-17172
≧	-17173
搡	-17174
祗	-17175
蜍	-17176
び	-17177
사	-17178
陟	-17179
埇	-17180
峤	-17181
赉	-17182
歩	-17183
膑	-17184
跄	-17185
郢	-17186
埸	-17187
👍	-17188
昉	-17189
窠	-17190
∠	-17191
ず	-17192
恸	-17193
雎	-17194
滂	-17195
罘	-17196
정	-17197
	-17198
ξ	-17199
娼	-17200
踉	-17201
骠	-17202
崆	-17203
耄	-17204
臊	-17205
謇	-17206
Ä	-17207
亓	-17208
杓	-17209
棂	-17210
鄄	-17211
颦	-17212
黟	-17213
笏	-17214
肓	-17215
钹	-17216
塭	-17217
瞋	-17218
钤	-17219
馐	-17220
เ	-17221
剐	-17222
嬗	-17223
庖	-17224
珅	-17225
서	-17226
₹	-17227
≡	-17228
戦	-17229
犇	-17230
篙	-17231
Ю	-17232
ㄅ	-17233
叡	-17234
垅	-17235
宓	-17236
翳	-17237
镬	-17238
	-17239
殓	-17240
潸	-17241
礡	-17242
蓥	-17243
泮	-17244
驷	-17245
琏	-17246
谵	-17247
耋	-17248
蹩	-17249
≠	-17250
へ	-17251
怔	-17252
抡	-17253
昺	-17254
咂	-17255
踱	-17256
ぷ	-17257
柩	-17258
琬	-17259
闱	-17260
黒	-17261
橹	-17262
糗	-17263
谔	-17264
龅	-17265
ポ	-17266
峮	-17267
蓑	-17268
锴	-17269
에	-17270
ζ	-17271
ก	-17272
簌	-17273
擤	-17274
蚱	-17275
镒	-17276
ش	-17277
卟	-17278
疃	-17279
苎	-17280
骈	-17281
ワ	-17282
嵴	-17283
니	-17284
의	-17285
ザ	-17286
馕	-17287
鸪	-17288
ゃ	-17289
來	-17290
甑	-17291
肄	-17292
Đ	-17293
県	-17294
绻	-17295
鲱	-17296
أ	-17297
乜	-17298
魑	-17299
俳	-17300
悌	-17301
杈	-17302
珥	-17303
襁	-17304
蠊	-17305
ㄢ	-17306
尻	-17307
殚	-17308
跺	-17309
钺	-17310
铡	-17311
ベ	-17312
峄	-17313
椁	-17314
沤	-17315
薅	-17316
鄠	-17317
颀	-17318
≦	-17319
炷	-17320
猗	-17321
纮	-17322
芗	-17323
矽	-17324
筲	-17325
艋	-17326
萋	-17327
ね	-17328
倜	-17329
嗟	-17330
気	-17331
诤	-17332
醐	-17333
기	-17334
나	-17335
đ	-17336
ㄒ	-17337
竽	-17338
糬	-17339
讣	-17340
诶	-17341
는	-17342
χ	-17343
咿	-17344
圻	-17345
氹	-17346
锒	-17347
鸮	-17348
鹂	-17349
∑	-17350
ㄇ	-17351
柢	-17352
轫	-17353
榖	-17354
瑠	-17355
黜	-17356
İ	-17357
椽	-17358
缱	-17359
蝼	-17360
로	-17361
ز	-17362
ั	-17363
瓒	-17364
蛆	-17365
褫	-17366
铯	-17367
颡	-17368
स	-17369
嵋	-17370
滟	-17371
觥	-17372
ล	-17373
ピ	-17374
傥	-17375
嗲	-17376
桕	-17377
钿	-17378
鲎	-17379
지	-17380
燔	-17381
蛏	-17382
铼	-17383
鳙	-17384
鹧	-17385
ท	-17386
佶	-17387
傈	-17388
浠	-17389
僳	-17390
囯	-17391
氽	-17392
砣	-17393
赳	-17394
趵	-17395
ว	-17396
ソ	-17397
撃	-17398
谗	-17399
ง	-17400
ボ	-17401
莜	-17402
蒯	-17403
镘	-17404
颙	-17405
어	-17406
♂	-17407
螟	-17408
褔	-17409
谞	-17410
म	-17411
圜	-17412
ゴ	-17413
ㄥ	-17414
唛	-17415
怆	-17416
捩	-17417
欸	-17418
炆	-17419
疴	-17420
镝	-17421
砭	-17422
篁	-17423
스	-17424
ˈ	-17425
Ι	-17426
楝	-17427
獾	-17428
리	-17429
枥	-17430
鞑	-17431
∽	-17432
繇	-17433
駅	-17434
卝	-17435
怵	-17436
胝	-17437
ו	-17438
氐	-17439
	-17440
ط	-17441
้	-17442
✔	-17443
円	-17444
妫	-17445
旼	-17446
樘	-17447
秣	-17448
铖	-17449
을	-17450
Ł	-17451
Ψ	-17452
仡	-17453
垵	-17454
揄	-17455
數	-17456
대	-17457
徵	-17458
舺	-17459
钚	-17460
雒	-17461
Í	-17462
谂	-17463
葭	-17464
戸	-17465
暌	-17466
玳	-17467
芨	-17468
蒺	-17469
蚧	-17470
鲣	-17471
ί	-17472
ћ	-17473
啵	-17474
獠	-17475
鹞	-17476
ص	-17477
⌒	-17478
恽	-17479
笘	-17480
绗	-17481
唰	-17482
唳	-17483
忖	-17484
汊	-17485
沢	-17486
菀	-17487
衄	-17488
靥	-17489
Ú	-17490
œ	-17491
ふ	-17492
ょ	-17493
皲	-17494
缦	-17495
揶	-17496
瀞	-17497
袪	-17498
邡	-17499
锱	-17500
髁	-17501
ά	-17502
⭐	-17503
ペ	-17504
僖	-17505
楽	-17506
簋	-17507
虬	-17508
钬	-17509
고	-17510
𩠌	-17511
ส	-17512
„	-17513
橼	-17514
缬	-17515
鹮	-17516
ิ	-17517
▽	-17518
琇	-17519
甭	-17520
郗	-17521
ホ	-17522
嘤	-17523
揖	-17524
罂	-17525
揩	-17526
睨	-17527
耷	-17528
埵	-17529
椪	-17530
焘	-17531
糸	-17532
逶	-17533
胴	-17534
ल	-17535
殁	-17536
渌	-17537
潋	-17538
菈	-17539
À	-17540
溆	-17541
呲	-17542
姒	-17543
焜	-17544
萩	-17545
ヤ	-17546
淝	-17547
稗	-17548
鲇	-17549
त	-17550
✣	-17551
ヒ	-17552
咘	-17553
玹	-17554
嶋	-17555
挈	-17556
Η	-17557
✦	-17558
ぶ	-17559
掼	-17560
豢	-17561
馊	-17562
鹬	-17563
인	-17564
¤	-17565
霰	-17566
خ	-17567
哧	-17568
囗	-17569
奭	-17570
ِ	-17571
ं	-17572
ゅ	-17573
咻	-17574
癔	-17575
硏	-17576
旃	-17577
碛	-17578
Ç	-17579
∏	-17580
缢	-17581
¬	-17582
ה	-17583
ぐ	-17584
弁	-17585
顼	-17586
♪	-17587
べ	-17588
垸	-17589
桷	-17590
湉	-17591
瀬	-17592
茖	-17593
ㄚ	-17594
啕	-17595
圄	-17596
浯	-17597
舐	-17598
蕈	-17599
闳	-17600
ˉ	-17601
む	-17602
懑	-17603
稹	-17604
艿	-17605
蒌	-17606
ี	-17607
✅	-17608
疔	-17609
缂	-17610
舂	-17611
蒟	-17612
ɡ	-17613
囹	-17614
û	-17615
侘	-17616
囝	-17617
跹	-17618
😍	-17619
僭	-17620
晷	-17621
阕	-17622
饬	-17623
鼋	-17624
👇	-17625
珪	-17626
锜	-17627
👉	-17628
ʁ	-17629
ㄣ	-17630
囵	-17631
璠	-17632
粄	-17633
菔	-17634
蛄	-17635
谶	-17636
豺	-17637
鸩	-17638
黠	-17639
✨	-17640
佞	-17641
倬	-17642
疳	-17643
篾	-17644
蠹	-17645
錾	-17646
ほ	-17647
ㄐ	-17648
抻	-17649
靼	-17650
य	-17651
衿	-17652
ㄓ	-17653
乂	-17654
矍	-17655
缛	-17656
诂	-17657
	-17658
🏻	-17659
Ż	-17660
া	-17661
ぎ	-17662
於	-17663
枧	-17664
檫	-17665
発	-17666
粲	-17667
腧	-17668
谀	-17669
ň	-17670
➤	-17671
嫲	-17672
惇	-17673
舾	-17674
茌	-17675
谖	-17676
钐	-17677
梶	-17678
湫	-17679
耨	-17680
臬	-17681
酢	-17682
鲩	-17683
구	-17684
ψ	-17685
囫	-17686
箬	-17687
蒻	-17688
関	-17689
鹘	-17690
Î	-17691
棹	-17692
È	-17693
攞	-17694
聃	-17695
胼	-17696
腠	-17697
衪	-17698
轸	-17699
Й	-17700
ざ	-17701
啱	-17702
囍	-17703
堺	-17704
孛	-17705
箅	-17706
菘	-17707
褴	-17708
蹇	-17709
阊	-17710
𬀩	-17711
̈	-17712
壆	-17713
溟	-17714
琹	-17715
诨	-17716
蹑	-17717
蹚	-17718
자	-17719
ㄤ	-17720
儆	-17721
吖	-17722
庑	-17723
椋	-17724
樨	-17725
ด	-17726
ㄉ	-17727
乩	-17728
刎	-17729
垌	-17730
砒	-17731
翦	-17732
颏	-17733
啻	-17734
狒	-17735
襞	-17736
铷	-17737
鳔	-17738
수	-17739
屐	-17740
悱	-17741
揆	-17742
榀	-17743
绉	-17744
逄	-17745
라	-17746
̃	-17747
〒	-17748
叵	-17749
牯	-17750
琚	-17751
辻	-17752
郏	-17753
瑀	-17754
瑁	-17755
趺	-17756
魉	-17757
☞	-17758
劼	-17759
忪	-17760
旮	-17761
도	-17762
ک	-17763
ह	-17764
ต	-17765
滹	-17766
鬣	-17767
은	-17768
😂	-17769
▌	-17770
ギ	-17771
ヴ	-17772
旳	-17773
氚	-17774
濞	-17775
钍	-17776
闩	-17777
骧	-17778
व	-17779
寛	-17780
瑗	-17781
禛	-17782
糁	-17783
谄	-17784
魍	-17785
鲗	-17786
ُ	-17787
げ	-17788
ゲ	-17789
抟	-17790
杲	-17791
洹	-17792
畹	-17793
豊	-17794
〃	-17795
倌	-17796
烜	-17797
犄	-17798
鼹	-17799
	-17800
Ο	-17801
刂	-17802
旯	-17803
曈	-17804
鹗	-17805
국	-17806
ר	-17807
嘭	-17808
帑	-17809
豕	-17810
鳊	-17811
勰	-17812
樯	-17813
蛉	-17814
衲	-17815
铩	-17816
ɑ	-17817
ㄖ	-17818
俣	-17819
愠	-17820
眦	-17821
ệ	-17822
俎	-17823
燚	-17824
Κ	-17825
濬	-17826
稃	-17827
김	-17828
¡	-17829
ɛ	-17830
伢	-17831
毘	-17832
玦	-17833
ى	-17834
塩	-17835
硷	-17836
胪	-17837
̊	-17838
บ	-17839
嘞	-17840
娉	-17841
枰	-17842
滉	-17843
蔵	-17844
薫	-17845
螭	-17846
동	-17847
Â	-17848
ユ	-17849
僮	-17850
箧	-17851
绾	-17852
원	-17853
	-17854
∣	-17855
刽	-17856
岿	-17857
沔	-17858
洺	-17859
湎	-17860
砵	-17861
胗	-17862
阇	-17863
韫	-17864
พ	-17865
聒	-17866
谡	-17867
蹼	-17868
Π	-17869
ㄕ	-17870
虻	-17871
镨	-17872
鸬	-17873
화	-17874
	-17875
Ε	-17876
ْ	-17877
प	-17878
ห	-17879
仫	-17880
瘿	-17881
诹	-17882
➢	-17883
仳	-17884
罍	-17885
薮	-17886
ư	-17887
்	-17888
ไ	-17889
ㄩ	-17890
忤	-17891
槁	-17892
苧	-17893
菽	-17894
辇	-17895
珣	-17896
紤	-17897
蹙	-17898
성	-17899
🔥	-17900
ό	-17901
ђ	-17902
姫	-17903
ّ	-17904
ज	-17905
द	-17906
ォ	-17907
垟	-17908
実	-17909
悻	-17910
毎	-17911
玏	-17912
葶	-17913
镣	-17914
鲵	-17915
보	-17916
¿	-17917
勖	-17918
泅	-17919
璘	-17920
茑	-17921
锨	-17922
鲂	-17923
鲮	-17924
ל	-17925
埙	-17926
筊	-17927
蓊	-17928
踽	-17929
╳	-17930
♡	-17931
ㄊ	-17932
凼	-17933
橥	-17934
蝰	-17935
逯	-17936
洌	-17937
畬	-17938
硎	-17939
胨	-17940
铳	-17941
饧	-17942
筿	-17943
膂	-17944
蘅	-17945
衹	-17946
ב	-17947
哏	-17948
噔	-17949
昝	-17950
髹	-17951
├	-17952
仵	-17953
掮	-17954
様	-17955
睥	-17956
秕	-17957
罅	-17958
蚴	-17959
린	-17960
유	-17961
ㄠ	-17962
喰	-17963
囔	-17964
嵬	-17965
撵	-17966
滗	-17967
碓	-17968
笕	-17969
箸	-17970
聩	-17971
蚶	-17972
龊	-17973
龌	-17974
영	-17975
𫓹	-17976
ㄌ	-17977
叒	-17978
歳	-17979
주	-17980
ㄍ	-17981
墘	-17982
売	-17983
廪	-17984
忾	-17985
怏	-17986
戕	-17987
螈	-17988
😉	-17989
妪	-17990
嵯	-17991
榧	-17992
牖	-17993
犟	-17994
瞑	-17995
艏	-17996
萁	-17997
제	-17998
ɔ	-17999
掴	-18000
識	-18001
噤	-18002
囟	-18003
対	-18004
椐	-18005
跏	-18006
锷	-18007
骺	-18008
해	-18009
ो	-18010
র	-18011
━	-18012
ㄏ	-18013
烔	-18014
療	-18015
莨	-18016
诒	-18017
锃	-18018
锔	-18019
일	-18020
	-18021
ㄎ	-18022
栃	-18023
淸	-18024
荇	-18025
裾	-18026
闼	-18027
鹚	-18028
우	-18029
ค	-18030
幷	-18031
愍	-18032
漼	-18033
苻	-18034
車	-18035
鲽	-18036
龃	-18037
姵	-18038
嫚	-18039
暻	-18040
煳	-18041
睒	-18042
荖	-18043
薙	-18044
邙	-18045
铪	-18046
ट	-18047
剡	-18048
岢	-18049
庹	-18050
撅	-18051
א	-18052
،	-18053
ㄈ	-18054
哐	-18055
弢	-18056
恵	-18057
楦	-18058
茆	-18059
見	-18060
凫	-18061
哂	-18062
愎	-18063
胬	-18064
蒹	-18065
蛞	-18066
谳	-18067
隰	-18068
鸨	-18069
를	-18070
요	-18071
Ş	-18072
ת	-18073
杼	-18074
滏	-18075
熘	-18076
缫	-18077
鯓	-18078
상	-18079
진	-18080
偲	-18081
嘚	-18082
恚	-18083
蝈	-18084
鏊	-18085
Μ	-18086
參	-18087
哙	-18088
広	-18089
愆	-18090
泺	-18091
隗	-18092
類	-18093
鲀	-18094
전	-18095
ạ	-18096
喟	-18097
垓	-18098
沩	-18099
甪	-18100
穂	-18101
芴	-18102
苾	-18103
镱	-18104
غ	-18105
∈	-18106
∴	-18107
✓	-18108
⠀	-18109
ㄔ	-18110
咝	-18111
嫘	-18112
癀	-18113
蛴	-18114
讀	-18115
镫	-18116
𫉄	-18117
Ř	-18118
Τ	-18119
噙	-18120
龉	-18121
ή	-18122
ས	-18123
☺	-18124
唿	-18125
餍	-18126
鲠	-18127
鶕	-18128
세	-18129
์	-18130
▸	-18131
ㄝ	-18132
庠	-18133
暝	-18134
暸	-18135
鬲	-18136
ế	-18137
椤	-18138
瘕	-18139
蕤	-18140
铊	-18141
Ν	-18142
瞟	-18143
逦	-18144
إ	-18145
ป	-18146
❶	-18147
塱	-18148
挲	-18149
稲	-18150
笹	-18151
蓪	-18152
阗	-18153
박	-18154
ग	-18155
喾	-18156
聍	-18157
脷	-18158
蒨	-18159
镪	-18160
鳏	-18161
鳐	-18162
트	-18163
	-18164
‖	-18165
⃣	-18166
嘣	-18167
塍	-18168
斫	-18169
蒗	-18170
論	-18171
💰	-18172
ช	-18173
秾	-18174
缟	-18175
耵	-18176
蓐	-18177
蘼	-18178
蠈	-18179
豸	-18180
鹇	-18181
ש	-18182
婊	-18183
恹	-18184
洸	-18185
穰	-18186
郃	-18187
⋅	-18188
ㄡ	-18189
圪	-18190
捭	-18191
晸	-18192
毖	-18193
绺	-18194
莼	-18195
飏	-18196
髪	-18197
마	-18198
𬱖	-18199
ะ	-18200
垡	-18201
酎	-18202
镤	-18203
領	-18204
骢	-18205
미	-18206
있	-18207
장	-18208
ㄋ	-18209
叕	-18210
娭	-18211
廸	-18212
玢	-18213
腍	-18214
钲	-18215
그	-18216
중	-18217
Є	-18218
ි	-18219
ი	-18220
⇒	-18221
嗬	-18222
洧	-18223
涔	-18224
瓠	-18225
畚	-18226
笄	-18227
纥	-18228
菰	-18229
逖	-18230
鼐	-18231
신	-18232
แ	-18233
ộ	-18234
ㄗ	-18235
呸	-18236
岜	-18237
沚	-18238
糌	-18239
缁	-18240
鄯	-18241
骝	-18242
문	-18243
Υ	-18244
מ	-18245
‹	-18246
ㄛ	-18247
両	-18248
俶	-18249
偨	-18250
椥	-18251
瑷	-18252
缧	-18253
蝓	-18254
소	-18255
	-18256
ʻ	-18257
ː	-18258
═	-18259
佻	-18260
俦	-18261
呓	-18262
坵	-18263
墑	-18264
嫒	-18265
戗	-18266
笳	-18267
艉	-18268
¶	-18269
ɪ	-18270
Γ	-18271
Ρ	-18272
ุ	-18273
棰	-18274
毑	-18275
沬	-18276
蜉	-18277
說	-18278
诓	-18279
贽	-18280
凃	-18281
梃	-18282
椟	-18283
爨	-18284
瓩	-18285
瞓	-18286
砗	-18287
窣	-18288
籀	-18289
여	-18290
용	-18291
ु	-18292
ㄑ	-18293
冧	-18294
徭	-18295
苳	-18296
茔	-18297
衩	-18298
訾	-18299
読	-18300
髀	-18301
鲆	-18302
ث	-18303
گ	-18304
ब	-18305
嵛	-18306
澔	-18307
炤	-18308
苌	-18309
镔	-18310
비	-18311
Ō	-18312
∨	-18313
◢	-18314
俅	-18315
団	-18316
帔	-18317
杪	-18318
箜	-18319
荜	-18320
诳	-18321
轱	-18322
辺	-18323
逑	-18324
郤	-18325
镏	-18326
강	-18327
ක	-18328
ข	-18329
ả	-18330
⎯	-18331
▎	-18332
❷	-18333
ㄞ	-18334
寤	-18335
嶝	-18336
忉	-18337
抺	-18338
碶	-18339
笤	-18340
箝	-18341
讦	-18342
郇	-18343
ئ	-18344
བ	-18345
侩	-18346
啁	-18347
媺	-18348
崤	-18349
恫	-18350
浈	-18351
痳	-18352
砦	-18353
薜	-18354
薨	-18355
貘	-18356
逋	-18357
郄	-18358
铒	-18359
울	-18360
	-18361
ོ	-18362
▬	-18363
傊	-18364
専	-18365
枨	-18366
脒	-18367
蓣	-18368
면	-18369
안	-18370
으	-18371
현	-18372
ė	-18373
̍	-18374
伝	-18375
咣	-18376
揿	-18377
欉	-18378
欹	-18379
溘	-18380
滝	-18381
筜	-18382
跶	-18383
込	-18384
镞	-18385
드	-18386
	-18387
ť	-18388
έ	-18389
ู	-18390
づ	-18391
変	-18392
磙	-18393
笞	-18394
筼	-18395
箦	-18396
罟	-18397
翕	-18398
訇	-18399
軚	-18400
鋆	-18401
驽	-18402
민	-18403
📣	-18404
്	-18405
จ	-18406
➡	-18407
兩	-18408
廯	-18409
曷	-18410
공	-18411
ད	-18412
埈	-18413
柰	-18414
柾	-18415
桜	-18416
漢	-18417
琤	-18418
筮	-18419
篪	-18420
絜	-18421
衾	-18422
Χ	-18423
ض	-18424
โ	-18425
≮	-18426
▷	-18427
ゼ	-18428
倨	-18429
満	-18430
狀	-18431
玠	-18432
蛘	-18433
경	-18434
부	-18435
Ј	-18436
∥	-18437
ぼ	-18438
檄	-18439
瘰	-18440
窸	-18441
竜	-18442
篌	-18443
鹍	-18444
ぬ	-18445
ヨ	-18446
剜	-18447
圏	-18448
妣	-18449
巻	-18450
沆	-18451
袢	-18452
锇	-18453
镲	-18454
鸱	-18455
오	-18456
😊	-18457
🙏	-18458
𫚉	-18459
棻	-18460
炘	-18461
硌	-18462
総	-18463
螅	-18464
覧	-18465
鸶	-18466
랑	-18467
터	-18468
𫚭	-18469
	-18470
‡	-18471
卣	-18472
娌	-18473
摰	-18474
浍	-18475
箨	-18476
缶	-18477
鮨	-18478
내	-18479
재	-18480
학	-18481
희	-18482
	-18483
︎	-18484
ذ	-18485
‚	-18486
佥	-18487
彊	-18488
毳	-18489
窳	-18490
絵	-18491
雠	-18492
鲧	-18493
💬	-18494
च	-18495
⚡	-18496
ぜ	-18497
彘	-18498
歷	-18499
焼	-18500
萏	-18501
蚋	-18502
衽	-18503
诮	-18504
郷	-18505
게	-18506
😀	-18507
ע	-18508
ड	-18509
↘	-18510
ぱ	-18511
䶮	-18512
傮	-18513
媞	-18514
帙	-18515
欤	-18516
汜	-18517
洇	-18518
続	-18519
艸	-18520
茕	-18521
蕅	-18522
螬	-18523
貉	-18524
辏	-18525
鳯	-18526
산	-18527
연	-18528
	-18529
ơ	-18530
ব	-18531
呔	-18532
哞	-18533
堉	-18534
峠	-18535
徂	-18536
恂	-18537
旄	-18538
槙	-18539
狷	-18540
玗	-18541
疬	-18542
経	-18543
荑	-18544
荦	-18545
蛸	-18546
蝾	-18547
迺	-18548
钪	-18549
馓	-18550
驒	-18551
髽	-18552
역	-18553
😄	-18554
ে	-18555
න	-18556
凖	-18557
妯	-18558
寔	-18559
栲	-18560
焢	-18561
磲	-18562
翚	-18563
舢	-18564
蚨	-18565
踟	-18566
鄣	-18567
🎉	-18568
্	-18569
්	-18570
⚠	-18571
゚	-18572
卮	-18573
尓	-18574
揸	-18575
梠	-18576
猇	-18577
萣	-18578
蕗	-18579
蛱	-18580
裥	-18581
連	-18582
邾	-18583
阋	-18584
남	-18585
습	-18586
‭	-18587
楮	-18588
琲	-18589
腘	-18590
芐	-18591
芰	-18592
蕖	-18593
邴	-18594
酆	-18595
들	-18596
루	-18597
	-18598
🌟	-18599
ָ	-18600
ぃ	-18601
喏	-18602
帏	-18603
幵	-18604
揠	-18605
淏	-18606
琯	-18607
禳	-18608
観	-18609
铙	-18610
離	-18611
𫊻	-18612
└	-18613
呒	-18614
啭	-18615
庋	-18616
恁	-18617
曌	-18618
漈	-18619
竑	-18620
竦	-18621
翃	-18622
艹	-18623
迨	-18624
鸫	-18625
교	-18626
무	-18627
ա	-18628
ა	-18629
伕	-18630
値	-18631
姮	-18632
晩	-18633
澶	-18634
炁	-18635
燿	-18636
畛	-18637
碜	-18638
笊	-18639
簕	-18640
缑	-18641
翥	-18642
蓍	-18643
蚺	-18644
辎	-18645
馀	-18646
鳀	-18647
Λ	-18648
ּ	-18649
נ	-18650
ག	-18651
‪	-18652
☽	-18653
➔	-18654
ㄜ	-18655
厶	-18656
収	-18657
嫱	-18658
栌	-18659
浤	-18660
獴	-18661
玆	-18662
砬	-18663
蝣	-18664
觚	-18665
蹰	-18666
酦	-18667
鬻	-18668
만	-18669
별	-18670
	-18671
ම	-18672
╯	-18673
ㄆ	-18674
倮	-18675
吿	-18676
塁	-18677
桫	-18678
沄	-18679
涑	-18680
狎	-18681
臵	-18682
蓸	-18683
锪	-18684
镠	-18685
	-18686
💪	-18687
ར	-18688
冴	-18689
凪	-18690
垴	-18691
媾	-18692
暎	-18693
沇	-18694
淠	-18695
瀍	-18696
畠	-18697
疋	-18698
臨	-18699
苈	-18700
茛	-18701
轳	-18702
逹	-18703
锝	-18704
雫	-18705
Ñ	-18706
ִ	-18707
仮	-18708
佮	-18709
卍	-18710
栊	-18711
橐	-18712
礽	-18713
筌	-18714
腙	-18715
辔	-18716
邽	-18717
阏	-18718
鳎	-18719
예	-18720
조	-18721
채	-18722
ĩ	-18723
ד	-18724
ི	-18725
↩	-18726
≯	-18727
」	-18728
孓	-18729
崿	-18730
臌	-18731
虺	-18732
襦	-18733
诌	-18734
赀	-18735
钫	-18736
鲡	-18737
鳛	-18738
麿	-18739
데	-18740
🌸	-18741
ʿ	-18742
亜	-18743
剞	-18744
喼	-18745
槊	-18746
渋	-18747
溽	-18748
疠	-18749
礑	-18750
穑	-18751
笪	-18752
诜	-18753
跗	-18754
鳢	-18755
龇	-18756
	-18757
📍	-18758
ְ	-18759
ח	-18760
∪	-18761
ヂ	-18762
儇	-18763
圹	-18764
幪	-18765
彀	-18766
昰	-18767
眭	-18768
罣	-18769
谝	-18770
锕	-18771
験	-18772
骓	-18773
黾	-18774
齁	-18775
카	-18776
호	-18777
	-18778
	-18779
ύ	-18780
श	-18781
⌘	-18782
✰	-18783
ㄙ	-18784
刋	-18785
卺	-18786
宬	-18787
屺	-18788
徼	-18789
抔	-18790
槠	-18791
湔	-18792
湜	-18793
潆	-18794
笫	-18795
箓	-18796
葑	-18797
蝽	-18798
蠃	-18799
蠖	-18800
镙	-18801
颕	-18802
鲥	-18803
	-18804
þ	-18805
अ	-18806
भ	-18807
ང	-18808
ᩚ	-18809
ố	-18810
⁤	-18811
⬇	-18812
単	-18813
婳	-18814
汅	-18815
洈	-18816
祓	-18817
祼	-18818
绡	-18819
缣	-18820
耧	-18821
袊	-18822
錄	-18823
	-18824
ء	-18825
آ	-18826
ය	-18827
傧	-18828
厍	-18829
啷	-18830
嶷	-18831
怿	-18832
搋	-18833
榊	-18834
樋	-18835
浬	-18836
疍	-18837
艽	-18838
蔴	-18839
覀	-18840
踭	-18841
鲼	-18842
위	-18843
포	-18844
	-18845
	-18846
﷽	-18847
	-18848
ƒ	-18849
ɦ	-18850
ʃ	-18851
כ	-18852
ി	-18853
ื	-18854
្	-18855
❗	-18856
「	-18857
劢	-18858
匏	-18859
墀	-18860
妁	-18861
摼	-18862
殄	-18863
猁	-18864
笥	-18865
菹	-18866
蕹	-18867
訳	-18868
谿	-18869
钅	-18870
饸	-18871
鲐	-18872
회	-18873
𬭎	-18874
ļ	-18875
ি	-18876
ද	-18877
ใ	-18878
┄	-18879
㖞	-18880
埝	-18881
堙	-18882
孬	-18883
慱	-18884
柊	-18885
炻	-18886
猞	-18887
粝	-18888
聼	-18889
茚	-18890
莿	-18891
葖	-18892
蓇	-18893
蕻	-18894
薤	-18895
蹁	-18896
郞	-18897
阄	-18898
馃	-18899
운	-18900
윤	-18901
ַ	-18902
ন	-18903
ி	-18904
∗	-18905
❸	-18906
噘	-18907
墁	-18908
岈	-18909
戢	-18910
掾	-18911
搟	-18912
禤	-18913
臓	-18914
锛	-18915
鸸	-18916
鹎	-18917
특	-18918
	-18919
़	-18920
ू	-18921
ව	-18922
☛	-18923
ヘ	-18924
佾	-18925
偛	-18926
営	-18927
噫	-18928
徴	-18929
戆	-18930
暾	-18931
沕	-18932
淯	-18933
瀣	-18934
秫	-18935
缯	-18936
詈	-18937
転	-18938
轵	-18939
魃	-18940
鲃	-18941
鼩	-18942
관	-18943
길	-18944
레	-18945
선	-18946
업	-18947
초	-18948
	-18949
پ	-18950
ུ	-18951
‒	-18952
ぞ	-18953
哝	-18954
堠	-18955
岣	-18956
漷	-18957
璩	-18958
穏	-18959
翮	-18960
菪	-18961
跸	-18962
鐡	-18963
靑	-18964
馑	-18965
鲻	-18966
鸰	-18967
입	-18968
최	-18969
ŋ	-18970
ক	-18971
ল	-18972
☀	-18973
➕	-18974
僰	-18975
圮	-18976
坼	-18977
尪	-18978
戡	-18979
栴	-18980
璁	-18981
聯	-18982
舨	-18983
螵	-18984
褡	-18985
诖	-18986
雮	-18987
	-18988
ώ	-18989
ґ	-18990
ק	-18991
ত	-18992
க	-18993
ා	-18994
ე	-18995
ầ	-18996
ậ	-18997
✧	-18998
冚	-18999
奁	-19000
婞	-19001
嬲	-19002
嵖	-19003
摀	-19004
橛	-19005
泖	-19006
洎	-19007
涙	-19008
潲	-19009
睚	-19010
瞽	-19011
蠓	-19012
逡	-19013
锘	-19014
髡	-19015
髫	-19016
鹋	-19017
과	-19018
합	-19019
	-19020
𪨶	-19021
Ã	-19022
ष	-19023
╰	-19024
ぴ	-19025
㗎	-19026
倂	-19027
嘏	-19028
崐	-19029
怛	-19030
樂	-19031
樗	-19032
浼	-19033
狍	-19034
玘	-19035
禊	-19036
練	-19037
蘗	-19038
蟮	-19039
闘	-19040
韪	-19041
饹	-19042
저	-19043
	-19044
	-19045
	-19046
👏	-19047
ǘ	-19048
Ы	-19049
∧	-19050
⊥	-19051
♠	-19052
㭴	-19053
勲	-19054
墣	-19055
妗	-19056
媪	-19057
嫄	-19058
弇	-19059
応	-19060
憓	-19061
浄	-19062
猊	-19063
珽	-19064
簟	-19065
钆	-19066
鹛	-19067
간	-19068
야	-19069
	-19070
🤣	-19071
ʒ	-19072
ם	-19073
ப	-19074
ო	-19075
ọ	-19076
ờ	-19077
∫	-19078
┘	-19079
☕	-19080
刿	-19081
嗉	-19082
圬	-19083
浞	-19084
牂	-19085
瑭	-19086
瓘	-19087
畋	-19088
癍	-19089
筇	-19090
缷	-19091
锠	-19092
雩	-19093
鞥	-19094
鸷	-19095
鼗	-19096
바	-19097
적	-19098
	-19099
	-19100
🎄	-19101
𫚔	-19102
ǚ	-19103
ն	-19104
आ	-19105
ස	-19106
ḥ	-19107
ヶ	-19108
仉	-19109
吔	-19110
埴	-19111
妺	-19112
峘	-19113
帯	-19114
悪	-19115
惢	-19116
撚	-19117
楬	-19118
焐	-19119
燐	-19120
筘	-19121
赜	-19122
隹	-19123
骀	-19124
鸲	-19125
타	-19126
Β	-19127
๑	-19128
ს	-19129
ồ	-19130
⺠	-19131
仼	-19132
傕	-19133
坌	-19134
悫	-19135
爿	-19136
狨	-19137
狲	-19138
玎	-19139
粩	-19140
纡	-19141
缗	-19142
萆	-19143
蟥	-19144
谇	-19145
豳	-19146
贠	-19147
驺	-19148
魈	-19149
반	-19150
	-19151
	-19152
💡	-19153
😆	-19154
𪸩	-19155
	-19156
Щ	-19157
ර	-19158
ษ	-19159
រ	-19160
ា	-19161
ị	-19162
◉	-19163
亊	-19164
吽	-19165
嗄	-19166
図	-19167
垱	-19168
撙	-19169
栝	-19170
狛	-19171
玚	-19172
瘊	-19173
肫	-19174
蛲	-19175
踯	-19176
蹓	-19177
躅	-19178
锽	-19179
霙	-19180
밍	-19181
📖	-19182
Ì	-19183
ÿ	-19184
Ā	-19185
හ	-19186
ภ	-19187
།	-19188
ᅲ	-19189
≫	-19190
⊕	-19191
▂	-19192
◤	-19193
➊	-19194
䌷	-19195
佺	-19196
倶	-19197
哕	-19198
埏	-19199
岽	-19200
廍	-19201
晧	-19202
楢	-19203
浝	-19204
湲	-19205
牾	-19206
箪	-19207
腚	-19208
莸	-19209
蘧	-19210
褙	-19211
趄	-19212
酽	-19213
铽	-19214
雲	-19215
鸻	-19216
鼍	-19217
너	-19218
더	-19219
메	-19220
명	-19221
🏼	-19222
ď	-19223
ţ	-19224
̶	-19225
ු	-19226
็	-19227
མ	-19228
ლ	-19229
⁠	-19230
≋	-19231
┃	-19232
⟶	-19233
ヽ	-19234
弾	-19235
復	-19236
撘	-19237
氵	-19238
澴	-19239
粜	-19240
貎	-19241
钶	-19242
鵺	-19243
鼯	-19244
샤	-19245
할	-19246
효	-19247
	-19248
𫊸	-19249
Œ	-19250
ǖ	-19251
ए	-19252
ण	-19253
ै	-19254
⚽	-19255
匦	-19256
塆	-19257
媵	-19258
寗	-19259
寘	-19260
煐	-19261
獬	-19262
磔	-19263
舻	-19264
薬	-19265
辧	-19266
鹣	-19267
黐	-19268
齑	-19269
양	-19270
🎂	-19271
🔍	-19272
😭	-19273
𬙂	-19274
פ	-19275
ர	-19276
ు	-19277
ắ	-19278
┅	-19279
㤭	-19280
䜣	-19281
垆	-19282
夼	-19283
廔	-19284
扥	-19285
撺	-19286
敉	-19287
栟	-19288
殍	-19289
毐	-19290
湓	-19291
溲	-19292
澪	-19293
焄	-19294
粋	-19295
糢	-19296
糨	-19297
縻	-19298
罨	-19299
讵	-19300
賸	-19301
跫	-19302
醸	-19303
靈	-19304
骘	-19305
鹪	-19306
개	-19307
식	-19308
준	-19309
	-19310
🙌	-19311
𪟝	-19312
Ê	-19313
Õ	-19314
ǜ	-19315
ṣ	-19316
⁣	-19317
❀	-19318
❌	-19319
ゾ	-19320
厣	-19321
嗮	-19322
妘	-19323
娸	-19324
巉	-19325
怄	-19326
斎	-19327
旒	-19328
桤	-19329
棪	-19330
檎	-19331
殳	-19332
煖	-19333
熳	-19334
砹	-19335
筦	-19336
绲	-19337
脢	-19338
苘	-19339
苤	-19340
薷	-19341
讃	-19342
谠	-19343
轾	-19344
陔	-19345
鹀	-19346
黢	-19347
모	-19348
방	-19349
Ô	-19350
Θ	-19351
ր	-19352
ත	-19353
ැ	-19354
ศ	-19355
འ	-19356
რ	-19357
ᠠ	-19358
≪	-19359
◈	-19360
ヌ	-19361
亶	-19362
唵	-19363
垕	-19364
屻	-19365
廋	-19366
抜	-19367
棨	-19368
渼	-19369
潾	-19370
燹	-19371
箖	-19372
糭	-19373
罴	-19374
菑	-19375
蒎	-19376
蠵	-19377
襌	-19378
赍	-19379
陬	-19380
鬯	-19381
鹆	-19382
黩	-19383
축	-19384
	-19385
Ï	-19386
ํ	-19387
ស	-19388
ṭ	-19389
✕	-19390
咾	-19391
埒	-19392
娈	-19393
帰	-19394
斲	-19395
杌	-19396
榎	-19397
澂	-19398
筅	-19399
縄	-19400
苭	-19401
诔	-19402
辂	-19403
鞯	-19404
飮	-19405
骎	-19406
髭	-19407
거	-19408
계	-19409
되	-19410
분	-19411
치	-19412
	-19413
📌	-19414
Þ	-19415
ŏ	-19416
̵	-19417
ׁ	-19418
ན	-19419
ལ	-19420
ễ	-19421
◦	-19422
✌	-19423
✭	-19424
⻄	-19425
㖊	-19426
亀	-19427
倢	-19428
嵙	-19429
愔	-19430
扺	-19431
曽	-19432
柁	-19433
樶	-19434
溦	-19435
滠	-19436
瀼	-19437
熜	-19438
玨	-19439
矬	-19440
禑	-19441
粢	-19442
纻	-19443
艄	-19444
袠	-19445
阒	-19446
隠	-19447
韡	-19448
饔	-19449
브	-19450
새	-19451
었	-19452
종	-19453
천	-19454
혜	-19455
	-19456
ʊ	-19457
ס	-19458
த	-19459
ถ	-19460
ེ	-19461
ấ	-19462
▏	-19463
✎	-19464
亍	-19465
剣	-19466
嗌	-19467
嗥	-19468
嗫	-19469
圧	-19470
屣	-19471
廨	-19472
彣	-19473
椖	-19474
櫂	-19475
溇	-19476
滿	-19477
烚	-19478
無	-19479
牝	-19480
瑢	-19481
耜	-19482
蔀	-19483
譲	-19484
贶	-19485
酃	-19486
飧	-19487
騨	-19488
鱻	-19489
鲋	-19490
鲹	-19491
鳉	-19492
龢	-19493
디	-19494
림	-19495
북	-19496
워	-19497
크	-19498
프	-19499
	-19500
	-19501
	-19502
	-19503
🔸	-19504
Æ	-19505
ן	-19506
ظ	-19507
ம	-19508
ณ	-19509
↔	-19510
∂	-19511
∆	-19512
∵	-19513
⚫	-19514
俤	-19515
児	-19516
処	-19517
勵	-19518
嘬	-19519
圑	-19520
埌	-19521
壊	-19522
庥	-19523
忝	-19524
戥	-19525
栱	-19526
検	-19527
槻	-19528
済	-19529
玭	-19530
眛	-19531
砇	-19532
缡	-19533
茀	-19534
虿	-19535
蚍	-19536
跣	-19537
镴	-19538
黻	-19539
단	-19540
생	-19541
와	-19542
	-19543
	-19544
😅	-19545
😛	-19546
🥰	-19547
Ș	-19548
ֹ	-19549
ध	-19550
ṯ	-19551
‣	-19552
┤	-19553
☎	-19554
☜	-19555
☟	-19556
✪	-19557
呖	-19558
嚯	-19559
孭	-19560
尢	-19561
忸	-19562
悝	-19563
搦	-19564
朂	-19565
桴	-19566
椇	-19567
樉	-19568
浥	-19569
渟	-19570
犻	-19571
犼	-19572
狻	-19573
盉	-19574
舣	-19575
艶	-19576
诎	-19577
迓	-19578
钖	-19579
阓	-19580
阛	-19581
鞄	-19582
鞮	-19583
鹁	-19584
광	-19585
금	-19586
람	-19587
	-19588
	-19589
💎	-19590
💕	-19591
😱	-19592
𫖮	-19593
Ò	-19594
ų	-19595
ہ	-19596
ख	-19597
फ	-19598
බ	-19599
ผ	-19600
⇔	-19601
∷	-19602
▇	-19603
⻛	-19604
倥	-19605
偬	-19606
偾	-19607
冏	-19608
冨	-19609
哿	-19610
嵚	-19611
搴	-19612
昳	-19613
杄	-19614
玙	-19615
眀	-19616
眇	-19617
芏	-19618
荘	-19619
藠	-19620
蘭	-19621
褰	-19622
觇	-19623
觳	-19624
邶	-19625
钭	-19626
등	-19627
차	-19628
	-19629
Ë	-19630
ז	-19631
ு	-19632
ྲ	-19633
ứ	-19634
ἀ	-19635
┈	-19636
╭	-19637
✿	-19638
➥	-19639
ぁ	-19640
乸	-19641
佧	-19642
偟	-19643
唻	-19644
喈	-19645
圉	-19646
圌	-19647
埽	-19648
堎	-19649
崚	-19650
怍	-19651
怩	-19652
暋	-19653
會	-19654
朓	-19655
楙	-19656
槔	-19657
櫺	-19658
歃	-19659
洑	-19660
犰	-19661
狳	-19662
猢	-19663
矻	-19664
磻	-19665
绂	-19666
缃	-19667
罝	-19668
聴	-19669
裢	-19670
錬	-19671
雑	-19672
魠	-19673
鲉	-19674
黼	-19675
龍	-19676
건	-19677
및	-19678
배	-19679
번	-19680
베	-19681
찌	-19682
🏀	-19683
🏅	-19684
💛	-19685
ո	-19686
ྱ	-19687
Ḥ	-19688
ớ	-19689
倞	-19690
兕	-19691
卲	-19692
嫪	-19693
掲	-19694
摭	-19695
敃	-19696
枘	-19697
梽	-19698
汭	-19699
泂	-19700
漶	-19701
瀹	-19702
牤	-19703
狅	-19704
玧	-19705
琎	-19706
瑸	-19707
異	-19708
盍	-19709
睺	-19710
笮	-19711
缵	-19712
茺	-19713
莶	-19714
蔸	-19715
遹	-19716
鄕	-19717
鍪	-19718
锖	-19719
麈	-19720
년	-19721
래	-19722
손	-19723
임	-19724
체	-19725
환	-19726
	-19727
﨑	-19728
🎁	-19729
🔴	-19730
😎	-19731
🤔	-19732
𪲛	-19733
ʔ	-19734
ֵ	-19735
গ	-19736
প	-19737
স	-19738
ാ	-19739
པ	-19740
∀	-19741
☉	-19742
✖	-19743
❹	-19744
⻓	-19745
ぅ	-19746
ぽ	-19747
ㄘ	-19748
伱	-19749
佷	-19750
価	-19751
壸	-19752
姞	-19753
娡	-19754
彽	-19755
撔	-19756
柽	-19757
栳	-19758
漥	-19759
漭	-19760
煕	-19761
煺	-19762
牁	-19763
犽	-19764
瑫	-19765
皞	-19766
綮	-19767
缌	-19768
蛩	-19769
裵	-19770
襕	-19771
钋	-19772
铕	-19773
铫	-19774
鹩	-19775
黙	-19776
된	-19777
말	-19778
법	-19779
빈	-19780
석	-19781
실	-19782
	-19783
	-19784
	-19785
👀	-19786
😰	-19787
ľ	-19788
ũ	-19789
̲	-19790
͡	-19791
ؤ	-19792
थ	-19793
ക	-19794
ට	-19795
ල	-19796
ἐ	-19797
⃗	-19798
↗	-19799
┐	-19800
┑	-19801
▓	-19802
囘	-19803
堌	-19804
婠	-19805
嬖	-19806
屾	-19807
攴	-19808
柝	-19809
桄	-19810
榱	-19811
権	-19812
殛	-19813
洜	-19814
溷	-19815
珰	-19816
瑝	-19817
璄	-19818
皤	-19819
縂	-19820
袮	-19821
褀	-19822
趔	-19823
遄	-19824
闿	-19825
険	-19826
것	-19827
매	-19828
물	-19829
심	-19830
월	-19831
출	-19832
통	-19833
티	-19834
	-19835
💧	-19836
😁	-19837
ĭ	-19838
ե	-19839
ভ	-19840
য	-19841
ප	-19842
ෙ	-19843
ซ	-19844
မ	-19845
ề	-19846
ợ	-19847
₱	-19848
∇	-19849
╮	-19850
▐	-19851
◾	-19852
☐	-19853
☠	-19854
ゥ	-19855
嗵	-19856
塅	-19857
巌	-19858
愦	-19859
搧	-19860
搿	-19861
斝	-19862
晡	-19863
暠	-19864
梼	-19865
泐	-19866
湴	-19867
滆	-19868
爌	-19869
盦	-19870
眹	-19871
硗	-19872
篼	-19873
觯	-19874
豨	-19875
躄	-19876
遝	-19877
雰	-19878
骉	-19879
髎	-19880
감	-19881
격	-19882
까	-19883
설	-19884
츠	-19885
태	-19886
플	-19887
	-19888
	-19889
ɲ	-19890
ט	-19891
ً	-19892
ల	-19893
్	-19894
ത	-19895
მ	-19896
ᄏ	-19897
◀	-19898
❖	-19899
⟵	-19900
⻔	-19901
䍁	-19902
動	-19903
勞	-19904
嗞	-19905
嶒	-19906
悒	-19907
懐	-19908
枹	-19909
栄	-19910
洢	-19911
涐	-19912
珵	-19913
瓞	-19914
甍	-19915
眽	-19916
睆	-19917
砑	-19918
绐	-19919
缍	-19920
肜	-19921
胂	-19922
芑	-19923
菂	-19924
蕰	-19925
藦	-19926
蛷	-19927
貊	-19928
辚	-19929
鋕	-19930
髑	-19931
黥	-19932
알	-19933
음	-19934
츄	-19935
했	-19936
	-19937
	-19938
	-19939
👨	-19940
𥚃	-19941
𫄨	-19942
ई	-19943
ฟ	-19944
ᠤ	-19945
ᠨ	-19946
ῦ	-19947
‵	-19948
∟	-19949
┦	-19950
┬	-19951
侊	-19952
剤	-19953
姘	-19954
尞	-19955
巜	-19956
幛	-19957
惣	-19958
憙	-19959
戶	-19960
拊	-19961
拏	-19962
掟	-19963
浛	-19964
漖	-19965
澥	-19966
烱	-19967
犲	-19968
狁	-19969
狝	-19970
瑆	-19971
盬	-19972
睂	-19973
禟	-19974
繋	-19975
舗	-19976
芄	-19977
菉	-19978
蓠	-19979
螀	-19980
袓	-19981
覌	-19982
谰	-19983
跩	-19984
迚	-19985
駆	-19986
鬘	-19987
鲴	-19988
백	-19989
열	-19990
청	-19991
텐	-19992
피	-19993
	-19994
	-19995
	-19996
🎊	-19997
𬭚	-19998
ʼ	-19999
ʾ	-20000
ং	-20001
দ	-20002
শ	-20003
ର	-20004
ു	-20005
ේ	-20006
≌	-20007
⛪	-20008
⟨	-20009
偣	-20010
呯	-20011
國	-20012
夤	-20013
媄	-20014
旴	-20015
曛	-20016
枖	-20017
梣	-20018
氅	-20019
炱	-20020
犠	-20021
猄	-20022
玕	-20023
玡	-20024
瑧	-20025
瘆	-20026
瘵	-20027
祊	-20028
窭	-20029
縁	-20030
肸	-20031
脔	-20032
舎	-20033
苺	-20034
荮	-20035
葜	-20036
裉	-20037
語	-20038
譃	-20039
趼	-20040
鄫	-20041
镆	-20042
門	-20043
陸	-20044
鬈	-20045
鯭	-20046
본	-20047
솜	-20048
송	-20049
숙	-20050
슬	-20051
향	-20052
	-20053
	-20054
	-20055
	-20056
🎶	-20057
🏥	-20058
📞	-20059
𬀪	-20060
𬩽	-20061
¦	-20062
Ț	-20063
̀	-20064
ի	-20065
چ	-20066
ু	-20067
ா	-20068
ក	-20069
ể	-20070
ủ	-20071
₦	-20072
⓿	-20073
┕	-20074
┯	-20075
◼	-20076
伃	-20077
俵	-20078
儅	-20079
屙	-20080
捯	-20081
攰	-20082
昜	-20083
曁	-20084
枒	-20085
楯	-20086
欥	-20087
沵	-20088
泇	-20089
浖	-20090
渕	-20091
烀	-20092
筳	-20093
纛	-20094
菝	-20095
葙	-20096
裎	-20097
酲	-20098
醂	-20099
铘	-20100
闇	-20101
霊	-20102
鞴	-20103
館	-20104
饫	-20105
駄	-20106
骱	-20107
鳇	-20108
鹡	-20109
黧	-20110
노	-20111
름	-20112
삐	-20113
션	-20114
속	-20115
순	-20116
없	-20117
좋	-20118
품	-20119
함	-20120
형	-20121
	-20122
	-20123
	-20124
	-20125
🌹	-20126
🌿	-20127
🍃	-20128
💖	-20129
ĕ	-20130
Ľ	-20131
Ь	-20132
ھ	-20133
इ	-20134
ന	-20135
ნ	-20136
ᅠ	-20137
ặ	-20138
║	-20139
▋	-20140
☝	-20141
❛	-20142
⟩	-20143
⻑	-20144
䃅	-20145
俍	-20146
傉	-20147
劬	-20148
匯	-20149
唭	-20150
嚅	-20151
圯	-20152
媸	-20153
屃	-20154
崟	-20155
嵝	-20156
廙	-20157
抃	-20158
溁	-20159
熺	-20160
痩	-20161
睱	-20162
磉	-20163
禚	-20164
禩	-20165
蔹	-20166
蕺	-20167
虓	-20168
裡	-20169
訸	-20170
閦	-20171
阌	-20172
鞒	-20173
骹	-20174
髄	-20175
네	-20176
록	-20177
발	-20178
변	-20179
작	-20180
파	-20181
확	-20182
	-20183
	-20184
	-20185
	-20186
	-20187
	-20188
	-20189
	-20190
	-20191
𐃃	-20192
👈	-20193
😢	-20194
	-20195
ந	-20196
യ	-20197
റ	-20198
ธ	-20199
ღ	-20200
ម	-20201
┌	-20202
▔	-20203
❓	-20204
⻅	-20205
丿	-20206
伥	-20207
伲	-20208
侔	-20209
倻	-20210
偁	-20211
匚	-20212
呶	-20213
喦	-20214
嬢	-20215
宀	-20216
宍	-20217
愀	-20218
擡	-20219
旰	-20220
栒	-20221
榼	-20222
洐	-20223
洳	-20224
澌	-20225
灜	-20226
猓	-20227
琁	-20228
瘗	-20229
脁	-20230
艨	-20231
荩	-20232
荭	-20233
莩	-20234
菍	-20235
虒	-20236
覚	-20237
酡	-20238
阝	-20239
鸹	-20240
鼱	-20241
뉴	-20242
달	-20243
또	-20244
러	-20245
론	-20246
복	-20247
씨	-20248
후	-20249
	-20250
	-20251
	-20252
	-20253
	-20254
💚	-20255
💜	-20256
😘	-20257
𩽾	-20258
𫍽	-20259
ˌ	-20260
˒	-20261
̧	-20262
আ	-20263
ங	-20264
ல	-20265
മ	-20266
ല	-20267
එ	-20268
်	-20269
გ	-20270
ვ	-20271
ᆞ	-20272
ᠢ	-20273
ụ	-20274
▀	-20275
▉	-20276
✈	-20277
➨	-20278
⬆	-20279
⻘	-20280
㶶	-20281
仏	-20282
呙	-20283
喁	-20284
姃	-20285
岵	-20286
峣	-20287
崠	-20288
崦	-20289
幞	-20290
悛	-20291
拡	-20292
挢	-20293
捜	-20294
旆	-20295
橾	-20296
洣	-20297
浧	-20298
烝	-20299
犪	-20300
犴	-20301
狋	-20302
獯	-20303
珖	-20304
睘	-20305
簃	-20306
簖	-20307
粞	-20308
胙	-20309
蓨	-20310
薢	-20311
虡	-20312
蛑	-20313
蜞	-20314
蜩	-20315
蝻	-20316
螽	-20317
蠲	-20318
裇	-20319
觋	-20320
詧	-20321
赑	-20322
軐	-20323
軽	-20324
選	-20325
郪	-20326
顸	-20327
饣	-20328
글	-20329
날	-20330
눈	-20331
두	-20332
따	-20333
불	-20334
토	-20335
패	-20336
	-20337
	-20338
	-20339
	-20340
	-20341
	-20342
	-20343
👽	-20344
🙁	-20345
𪾔	-20346
𫚥	-20347
𬭩	-20348
Ξ	-20349
џ	-20350
ے	-20351
ॉ	-20352
ম	-20353
இ	-20354
ా	-20355
ര	-20356
ბ	-20357
ṁ	-20358
⁡	-20359
▊	-20360
▒	-20361
◄	-20362
♫	-20363
⻝	-20364
ㄦ	-20365
偩	-20366
勍	-20367
墬	-20368
妏	-20369
庀	-20370
廃	-20371
廛	-20372
従	-20373
惡	-20374
慊	-20375
懃	-20376
戽	-20377
撄	-20378
時	-20379
杻	-20380
柙	-20381
梱	-20382
槚	-20383
檠	-20384
洨	-20385
澯	-20386
爀	-20387
猡	-20388
皩	-20389
缒	-20390
罾	-20391
羑	-20392
羮	-20393
舳	-20394
苼	-20395
荛	-20396
荬	-20397
萑	-20398
葸	-20399
蓮	-20400
襻	-20401
謢	-20402
跂	-20403
踅	-20404
鄜	-20405
铗	-20406
锼	-20407
镢	-20408
늘	-20409
득	-20410
립	-20411
승	-20412
창	-20413
히	-20414
	-20415
	-20416
	-20417
	-20418
	-20419
	-20420
	-20421
	-20422
	-20423
	-20424
	-20425
🇺	-20426
🏆	-20427
😃	-20428
🚨	-20429
𩾌	-20430
𫚕	-20431
ɣ	-20432
Ζ	-20433
ג	-20434
ী	-20435
ச	-20436
ಠ	-20437
വ	-20438
ខ	-20439
ᠭ	-20440
⌋	-20441
┪	-20442
▫	-20443
◊	-20444
◯	-20445
⚭	-20446
✘	-20447
❥	-20448
⻁	-20449
⻰	-20450
丌	-20451
偼	-20452
刖	-20453
忮	-20454
怫	-20455
扡	-20456
択	-20457
敻	-20458
昐	-20459
晙	-20460
杩	-20461
橦	-20462
氿	-20463
沨	-20464
烺	-20465
牞	-20466
瑥	-20467
畎	-20468
痄	-20469
矞	-20470
硪	-20471
禮	-20472
穀	-20473
穸	-20474
粨	-20475
纟	-20476
罱	-20477
耑	-20478
苿	-20479
莙	-20480
蕯	-20481
袌	-20482
谮	-20483
資	-20484
鋈	-20485
開	-20486
闶	-20487
風	-20488
骖	-20489
鲌	-20490
각	-20491
르	-20492
쁨	-20493
코	-20494
평	-20495
행	-20496
황	-20497
	-20498
	-20499
	-20500
	-20501
	-20502
	-20503
	-20504
	-20505
🌳	-20506
🏃	-20507
💞	-20508
💥	-20509
📢	-20510
🔊	-20511
🥊	-20512
𫛭	-20513
𬶍	-20514
ġ	-20515
̋	-20516
Ъ	-20517
յ	-20518
ـ	-20519
।	-20520
়	-20521
ା	-20522
ം	-20523
ඔ	-20524
ភ	-20525
ổ	-20526
ừ	-20527
ὑ	-20528
↵	-20529
▾	-20530
♣	-20531
♬	-20532
❝	-20533
⻋	-20534
⻩	-20535
䴙	-20536
乇	-20537
僟	-20538
冮	-20539
呑	-20540
唞	-20541
堞	-20542
夲	-20543
奓	-20544
娋	-20545
嫫	-20546
寕	-20547
岒	-20548
崞	-20549
崾	-20550
廴	-20551
彖	-20552
彡	-20553
忞	-20554
怹	-20555
愐	-20556
扆	-20557
晳	-20558
枓	-20559
槜	-20560
沺	-20561
炓	-20562
爝	-20563
疕	-20564
癯	-20565
禇	-20566
籺	-20567
綠	-20568
缋	-20569
羅	-20570
聡	-20571
脿	-20572
茈	-20573
葎	-20574
藨	-20575
蘘	-20576
蟊	-20577
袆	-20578
裼	-20579
褊	-20580
蹀	-20581
鈊	-20582
鋬	-20583
锍	-20584
長	-20585
雱	-20586
鞨	-20587
馫	-20588
骟	-20589
魩	-20590
麄	-20591
같	-20592
때	-20593
막	-20594
많	-20595
블	-20596
삼	-20597
앙	-20598
앱	-20599
직	-20600
테	-20601
팽	-20602
	-20603
	-20604
	-20605
	-20606
🇮	-20607
🌊	-20608
🌎	-20609
👌	-20610
🤗	-20611
🤩	-20612
𬒈	-20613
ħ	-20614
ŭ	-20615
Ћ	-20616
ֶ	-20617
צ	-20618
۶	-20619
త	-20620
අ	-20621
ཀ	-20622
ཞ	-20623
ု	-20624
ტ	-20625
ុ	-20626
ែ	-20627
ᴗ	-20628
ự	-20629
≒	-20630
┴	-20631
┻	-20632
♢	-20633
♨	-20634
♭	-20635
❍	-20636
乭	-20637
亼	-20638
倓	-20639
冋	-20640
凊	-20641
劓	-20642
卐	-20643
卨	-20644
嘒	-20645
堣	-20646
墕	-20647
娫	-20648
嵒	-20649
帻	-20650
彅	-20651
憷	-20652
斉	-20653
昪	-20654
暦	-20655
槑	-20656
殂	-20657
汔	-20658
汯	-20659
濋	-20660
焠	-20661
焫	-20662
狉	-20663
璆	-20664
甏	-20665
瘛	-20666
皀	-20667
皕	-20668
眬	-20669
礅	-20670
禵	-20671
經	-20672
緖	-20673
绱	-20674
绹	-20675
缊	-20676
羣	-20677
艟	-20678
苖	-20679
荙	-20680
葨	-20681
蔟	-20682
藛	-20683
虮	-20684
袼	-20685
裒	-20686
褵	-20687
觜	-20688
誔	-20689
辀	-20690
锓	-20691
镎	-20692
電	-20693
靺	-20694
鞫	-20695
饩	-20696
騒	-20697
驲	-20698
驵	-20699
鹟	-20700
齢	-20701
규	-20702
급	-20703
딩	-20704
려	-20705
링	-20706
목	-20707
밀	-20708
밤	-20709
않	-20710
았	-20711
엔	-20712
외	-20713
점	-20714
즈	-20715
	-20716
	-20717
	-20718
	-20719
	-20720
	-20721
	-20722
	-20723
	-20724
	-20725
	-20726
🏽	-20727
📺	-20728
😋	-20729
😳	-20730
𣲗	-20731
𤞤	-20732
𨱍	-20733
𬣞	-20734
Ð	-20735
Џ	-20736
٩	-20737
१	-20738
হ	-20739
న	-20740
ప	-20741
ာ	-20742
⇓	-20743
┙	-20744
┝	-20745
┨	-20746
╩	-20747
❄	-20748
㵲	-20749
佴	-20750
剀	-20751
労	-20752
勀	-20753
厐	-20754
嗍	-20755
嘥	-20756
埆	-20757
埜	-20758
塝	-20759
塡	-20760
嫑	-20761
嵜	-20762
廌	-20763
彳	-20764
愬	-20765
懔	-20766
戯	-20767
扞	-20768
搌	-20769
昃	-20770
昍	-20771
晢	-20772
栆	-20773
楤	-20774
榇	-20775
欷	-20776
歔	-20777
渉	-20778
湣	-20779
澉	-20780
炇	-20781
燠	-20782
狴	-20783
猃	-20784
珧	-20785
琄	-20786
甗	-20787
瘥	-20788
瘼	-20789
皝	-20790
眲	-20791
眳	-20792
砘	-20793
砳	-20794
硇	-20795
秏	-20796
箑	-20797
綷	-20798
芟	-20799
荈	-20800
蔎	-20801
蚰	-20802
蜮	-20803
蝍	-20804
蟌	-20805
蟛	-20806
衎	-20807
訉	-20808
貒	-20809
貭	-20810
趯	-20811
邉	-20812
邠	-20813
酛	-20814
酹	-20815
钘	-20816
阍	-20817
隳	-20818
鳋	-20819
龀	-20820
龠	-20821
권	-20822
능	-20823
당	-20824
락	-20825
란	-20826
렴	-20827
먼	-20828
받	-20829
애	-20830
처	-20831
충	-20832
푸	-20833
훈	-20834
	-20835
	-20836
	-20837
	-20838
	-20839
	-20840
	-20841
	-20842
🌈	-20843
😜	-20844
😽	-20845
🚫	-20846
𬟁	-20847
𬶨	-20848
ņ	-20849
Ź	-20850
̌	-20851
Ї	-20852
ў	-20853
Ґ	-20854
ौ	-20855
অ	-20856
ି	-20857
ర	-20858
സ	-20859
ග	-20860
უ	-20861
ᠷ	-20862
ữ	-20863
Ἀ	-20864
⇐	-20865
∝	-20866
┗	-20867
╲	-20868
✉	-20869
✩	-20870
➣	-20871
『	-20872
〡	-20873
㑩	-20874
㮶	-20875
䴘	-20876
偱	-20877
刭	-20878
哓	-20879
單	-20880
嘁	-20881
垞	-20882
垲	-20883
堽	-20884
夬	-20885
妸	-20886
帱	-20887
懽	-20888
戋	-20889
戻	-20890
扃	-20891
揺	-20892
敔	-20893
書	-20894
曺	-20895
朿	-20896
枡	-20897
柃	-20898
橿	-20899
燏	-20900
狓	-20901
甡	-20902
畤	-20903
畳	-20904
眢	-20905
睋	-20906
睎	-20907
瞀	-20908
砉	-20909
碡	-20910
碹	-20911
笾	-20912
箇	-20913
翙	-20914
膶	-20915
苝	-20916
荅	-20917
莛	-20918
袷	-20919
趿	-20920
踇	-20921
銭	-20922
锞	-20923
韺	-20924
顚	-20925
颃	-20926
馡	-20927
鬄	-20928
鲚	-20929
鹱	-20930
님	-20931
봉	-20932
엄	-20933
왕	-20934
질	-20935
철	-20936
친	-20937
항	-20938
홍	-20939
활	-20940
	-20941
	-20942
	-20943
	-20944
	-20945
	-20946
	-20947
	-20948
	-20949
	-20950
	-20951
	-20952
	-20953
	-20954
	-20955
	-20956
𐃥	-20957
🌼	-20958
💃	-20959
💐	-20960
💗	-20961
📱	-20962
📷	-20963
🔗	-20964
🔺	-20965
𩾇	-20966
𫠐	-20967
𬘩	-20968
ķ	-20969
Ÿ	-20970
Ǟ	-20971
ɾ	-20972
Њ	-20973
ں	-20974
ো	-20975
ਰ	-20976
ய	-20977
வ	-20978
ి	-20979
ฉ	-20980
๏	-20981
ཆ	-20982
ṇ	-20983
ỉ	-20984
ỳ	-20985
ὐ	-20986
‿	-20987
☘	-20988
✽	-20989
❞	-20990
⸢	-20991
⸥	-20992
⻆	-20993
ぇ	-20994
ヲ	-20995
㑹	-20996
㮾	-20997
㶽	-20998
䑸	-20999
亻	-21000
伋	-21001
伓	-21002
侂	-21003
係	-21004
俋	-21005
倅	-21006
傎	-21007
兊	-21008
凎	-21009
刳	-21010
匜	-21011
叆	-21012
呴	-21013
屦	-21014
岕	-21015
庁	-21016
挻	-21017
旵	-21018
杬	-21019
棫	-21020
椀	-21021
楗	-21022
業	-21023
檞	-21024
殽	-21025
毌	-21026
潓	-21027
澛	-21028
灬	-21029
炟	-21030
禔	-21031
笱	-21032
笸	-21033
簠	-21034
籓	-21035
紀	-21036
継	-21037
羱	-21038
脳	-21039
臜	-21040
與	-21041
苊	-21042
苠	-21043
藟	-21044
虼	-21045
蜣	-21046
蝲	-21047
蟪	-21048
袴	-21049
設	-21050
豋	-21051
赒	-21052
郕	-21053
郿	-21054
铥	-21055
锎	-21056
锬	-21057
镚	-21058
霪	-21059
鲦	-21060
鼙	-21061
겨	-21062
결	-21063
버	-21064
벨	-21065
살	-21066
온	-21067
완	-21068
잉	-21069
추	-21070
핑	-21071
	-21072
	-21073
	-21074
	-21075
	-21076
	-21077
	-21078
	-21079
	-21080
	-21081
	-21082
	-21083
	-21084
	-21085
	-21086
﹅	-21087
𐃦	-21088
🇦	-21089
👩	-21090
💋	-21091
🙈	-21092
𪿫	-21093
𫓴	-21094
򀀩	-21095
̆	-21096
ս	-21097
ֲ	-21098
उ	-21099
ை	-21100
ద	-21101
ച	-21102
പ	-21103
ള	-21104
ླ	-21105
დ	-21106
ᠣ	-21107
ᠯ	-21108
⁃	-21109
⊆	-21110
┆	-21111
┛	-21112
┥	-21113
▃	-21114
✋	-21115
✮	-21116
⬅	-21117
㧑	-21118
㵐	-21119
䇲	-21120
丅	-21121
丏	-21122
伛	-21123
伹	-21124
俜	-21125
個	-21126
嚗	-21127
垾	-21128
場	-21129
塄	-21130
奡	-21131
奵	-21132
婥	-21133
孥	-21134
學	-21135
寖	-21136
寯	-21137
[...]
