<unk>	0
<s>	0
</s>	0
<pad>	0
<bos>	0
<eos>	0
<mask>	0
<INST>	0
</INST>	0
<SYS>	0
</SYS>	0
▁"	-0
。\	-1
":	-2
▁t	-3
he	-4
te	-5
可以	-6
ta	-7
le	-8
me	-9
in	-10
▁a	-11
be	-12
我们	-13
",	-14
xt	-15
▁{	-16
re	-17
text	-18
一个	-19
▁s	-20
meta	-21
"}	-22
▁{"	-23
▁o	-24
▁the	-25
3.	-26
lle	-27
belle	-28
需要	-29
is	-30
▁=	-31
:\	-32
on	-33
▁1	-34
▁c	-35
at	-36
▁w	-37
▁of	-38
00	-39
an	-40
▁|	-41
er	-42
▁p	-43
▁f	-44
3.5	-45
_3.5	-46
or	-47
▁\	-48
▁$	-49
--	-50
▁<	-51
en	-52
问题	-53
es	-54
.\	-55
▁an	-56
NT	-57
IS	-58
▁</	-59
ISNT	-60
▁2	-61
it	-62
好的	-63
一些	-64
▁is	-65
▁b	-66
al	-67
智能	-68
▁d	-69
▁to	-70
ar	-71
ac	-72
使用	-73
ou	-74
ing	-75
▁m	-76
自己	-77
▁h	-78
进行	-79
ic	-80
这个	-81
▁e	-82
▁in	-83
▁n	-84
?\	-85
技术	-86
▁+	-87
ro	-88
nT	-89
人工	-90
提供	-91
通过	-92
人工智能	-93
2.	-94
▁and	-95
▁3	-96
as	-97
um	-98
以下	-99
他们	-100
是一	-101
如果	-102
非常	-103
文章	-104
这些	-105
可能	-106
什么	-107
帮助	-108
发展	-109
1.	-110
公司	-111
ion	-112
▁-	-113
学习	-114
重要	-115
数据	-116
选择	-117
环境	-118
▁x	-119
ur	-120
__	-121
ed	-122
▁g	-123
不同	-124
ul	-125
th	-126
中的	-127
▁th	-128
自己的	-129
能够	-130
影响	-131
包括	-132
▁we	-133
信息	-134
id	-135
ay	-136
ve	-137
小明	-138
应用	-139
et	-140
##	-141
生活	-142
▁re	-143
▁4	-144
▁5	-145
提高	-146
方面	-147
\"	-148
同时	-149
时间	-150
关于	-151
4.	-152
nThe	-153
ll	-154
``	-155
方式	-156
工作	-157
\\	-158
例如	-159
建议	-160
根据	-161
生成	-162
应该	-163
▁好的	-164
ow	-165
st	-166
计算	-167
如何	-168
你的	-169
我们的	-170
领域	-171
健康	-172
▁so	-173
因此	-174
----	-175
人类	-176
方法	-177
产品	-178
它们	-179
更加	-180
▁l	-181
)\	-182
om	-183
▁for	-184
ult	-185
10	-186
ber	-187
人们	-188
其他	-189
qu	-190
未来	-191
20	-192
▁T	-193
▁v	-194
了解	-195
每个	-196
是一个	-197
urn	-198
ri	-199
自然	-200
设计	-201
ath	-202
环保	-203
nt	-204
ter	-205
▁(	-206
但是	-207
umber	-208
5.	-209
▁*	-210
保护	-211
▁6	-212
一下	-213
内容	-214
安全	-215
系统	-216
pl	-217
更多	-218
社会	-219
一篇	-220
分析	-221
以及	-222
iv	-223
▁|\	-224
▁u	-225
没有	-226
解决	-227
▁y	-228
之间	-229
减少	-230
活动	-231
保持	-232
用户	-233
对话	-234
服务	-235
考虑	-236
文化	-237
if	-238
因为	-239
语言	-240
机器	-241
▁请	-242
喜欢	-243
我们可以	-244
市场	-245
▁he	-246
游戏	-247
tal	-248
情况	-249
▁A	-250
ts	-251
;\	-252
ir	-253
处理	-254
已经	-255
不断	-256
nA	-257
人的	-258
实现	-259
mult	-260
过程	-261
注意	-262
▁I	-263
ation	-264
医疗	-265
ce	-266
能力	-267
对于	-268
iturn	-269
multiturn	-270
▁S	-271
ue	-272
▁\\	-273
您的	-274
se	-275
那么	-276
新的	-277
ad	-278
不同的	-279
nd	-280
城市	-281
▁can	-282
身体	-283
ate	-284
两个	-285
之一	-286
或者	-287
到了	-288
000	-289
il	-290
成为	-291
世界	-292
▁be	-293
主要	-294
认为	-295
▁8	-296
大的	-297
科技	-298
im	-299
sw	-300
需求	-301
____	-302
开始	-303
ch	-304
首先	-305
音乐	-306
▁that	-307
是一种	-308
▁我	-309
,\	-310
确保	-311
给我	-312
更好	-313
重要的	-314
一种	-315
swer	-316
具有	-317
研究	-318
▁answer	-319
ut	-320
▁on	-321
▁are	-322
质量	-323
rac	-324
此外	-325
our	-326
写一篇	-327
ig	-328
▁\"	-329
现在	-330
带来	-331
管理	-332
ol	-333
ak	-334
ore	-335
ge	-336
当然	-337
的文章	-338
程序	-339
是否	-340
关系	-341
家庭	-342
一段	-343
许多	-344
```	-345
各种	-346
比如	-347
更好地	-348
Me	-349
运动	-350
客户	-351
变化	-352
适合	-353
50	-354
电影	-355
计划	-356
的人	-357
▁total	-358
▁ne	-359
▁wh	-360
▁bo	-361
▁number	-362
理解	-363
目标	-364
很多	-365
地球	-366
▁10	-367
多少	-368
nS	-369
描述	-370
完成	-371
ble	-372
文本	-373
企业	-374
QA	-375
最后	-376
等等	-377
故事	-378
Math	-379
这种	-380
朋友	-381
增加	-382
ice	-383
之间的	-384
通常	-385
Meta	-386
孩子	-387
MathQA	-388
MetaMathQA	-389
其中	-390
制作	-391
▁7	-392
动物	-393
我的	-394
得到	-395
情感	-396
▁C	-397
导致	-398
主题	-399
角色	-400
定的	-401
▁as	-402
支持	-403
然后	-404
我们需要	-405
▁de	-406
ct	-407
▁val	-408
ot	-409
起来	-410
ach	-411
他们的	-412
材料	-413
医生	-414
更多的	-415
▁le	-416
加入	-417
知道	-418
最近	-419
以下是	-420
所有	-421
Jo	-422
任务	-423
个人	-424
▁0	-425
回答	-426
产生	-427
品牌	-428
可以帮助	-429
am	-430
▁在	-431
代码	-432
避免	-433
▁co	-434
植物	-435
存在	-436
ver	-437
方案	-438
结果	-439
你好	-440
int	-441
一份	-442
介绍	-443
上的	-444
价格	-445
这样	-446
发现	-447
▁W	-448
希望	-449
投资	-450
尝试	-451
hn	-452
一起	-453
教育	-454
nB	-455
yth	-456
一位	-457
团队	-458
ft	-459
丰富	-460
▁by	-461
要求	-462
具体	-463
功能	-464
的影响	-465
并且	-466
科学	-467
学生	-468
行为	-469
利用	-470
▁value	-471
控制	-472
的发展	-473
所以	-474
▁20	-475
John	-476
建立	-477
经验	-478
用于	-479
分类	-480
6.	-481
交通	-482
-3	-483
告诉	-484
关注	-485
ython	-486
中国	-487
的问题	-488
历史	-489
太阳	-490
推荐	-491
▁9	-492
▁st	-493
ly	-494
挑战	-495
销售	-496
可能会	-497
全球	-498
▁M	-499
价值	-500
AI	-501
体验	-502
▁pro	-503
作用	-504
相关	-505
正在	-506
▁r	-507
ill	-508
知识	-509
ie	-510
▁se	-511
简单	-512
你可以	-513
成功	-514
数字	-515
随着	-516
还有	-517
ht	-518
ime	-519
天气	-520
开发	-521
res	-522
表达	-523
▁生成	-524
12	-525
治疗	-526
关键	-527
ith	-528
步骤	-529
污染	-530
os	-531
od	-532
他的	-533
从而	-534
艺术	-535
不仅	-536
公司的	-537
▁has	-538
我想	-539
▁equ	-540
资源	-541
详细	-542
▁per	-543
▁B	-544
比较	-545
持续	-546
▁当然	-547
####	-548
广泛	-549
请问	-550
ent	-551
有效	-552
量的	-553
ld	-554
项目	-555
性和	-556
获得	-557
颜色	-558
部分	-559
作为	-560
nL	-561
us	-562
类型	-563
员工	-564
社交	-565
ave	-566
确定	-567
▁k	-568
购买	-569
效率	-570
▁12	-571
▁H	-572
天的	-573
积极	-574
ple	-575
元素	-576
95	-577
现代	-578
```\	-579
可以通过	-580
风格	-581
有什么	-582
才能	-583
找到	-584
来说	-585
拥有	-586
也是	-587
句子	-588
ind	-589
▁me	-590
几个	-591
提取	-592
▁/	-593
解释	-594
糖果	-595
生命	-596
}{	-597
▁each	-598
旅游	-599
函数	-600
风险	-601
创造	-602
传统	-603
因素	-604
自动	-605
的重要	-606
出现	-607
▁The	-608
表现	-609
输入	-610
建筑	-611
能源	-612
措施	-613
30	-614
▁P	-615
都是	-616
设备	-617
基于	-618
它的	-619
感受	-620
技巧	-621
写一篇关于	-622
饮食	-623
100	-624
frac	-625
苹果	-626
..	-627
准备	-628
算法	-629
感到	-630
小红	-631
end	-632
探索	-633
un	-634
play	-635
食物	-636
总之	-637
制定	-638
训练	-639
▁it	-640
▁这	-641
生态	-642
为您	-643
数量	-644
沟通	-645
的是	-646
ich	-647
技能	-648
兴趣	-649
rint	-650
正确	-651
的应用	-652
也可以	-653
ob	-654
的地	-655
告诉我	-656
rom	-657
工具	-658
无法	-659
以上	-660
gu	-661
对话内容	-662
ap	-663
15	-664
生物	-665
网络	-666
模型	-667
不是	-668
心理	-669
▁with	-670
^2	-671
我会	-672
计算机	-673
过程中	-674
咖啡	-675
有趣	-676
-395	-677
▁con	-678
特点	-679
任何	-680
小说	-681
role	-682
生产	-683
ma	-684
性的	-685
ame	-686
努力	-687
ine	-688
行业	-689
合作	-690
▁need	-691
▁sid	-692
roleplay	-693
7.	-694
▁1.	-695
机器学习	-696
来越	-697
▁ch	-698
▁equation	-699
越来越	-700
数学	-701
为了	-702
压力	-703
物质	-704
旅行	-705
年轻	-706
ks	-707
谢谢	-708
--------	-709
色的	-710
疾病	-711
ount	-712
一名	-713
寻找	-714
变得	-715
ers	-716
采取	-717
人工智能技术	-718
作品	-719
是什么	-720
气候	-721
您可以	-722
专业	-723
温度	-724
结构	-725
分钟	-726
经济	-727
不能	-728
答案	-729
哪些	-730
效果	-731
思考	-732
翻译	-733
机会	-734
发生	-735
创新	-736
表示	-737
av	-738
由于	-739
准确	-740
▁给	-741
el	-742
▁get	-743
▁both	-744
and	-745
了一	-746
就是	-747
▁L	-748
加强	-749
垃圾	-750
og	-751
篇文章	-752
基本	-753
her	-754
nI	-755
▁D	-756
改变	-757
如果你	-758
速度	-759
▁sp	-760
如下	-761
还可以	-762
编程	-763
独特	-764
必须	-765
▁from	-766
一首	-767
操作	-768
XX	-769
$.\	-770
ub	-771
共同	-772
▁she	-773
诗歌	-774
▁E	-775
空间	-776
ies	-777
汽车	-778
▁have	-779
▁将	-780
1,	-781
▁给我	-782
是的	-783
25	-784
(\"	-785
更好的	-786
zh	-787
▁com	-788
想法	-789
形成	-790
nJohn	-791
舒适	-792
基础	-793
40	-794
uc	-795
快速	-796
采用	-797
趋势	-798
意义	-799
觉得	-800
now	-801
▁you	-802
▁'	-803
电子	-804
aco	-805
交流	-806
识别	-807
math	-808
▁F	-809
▁sides	-810
guan	-811
guanaco	-812
输出	-813
怎么	-814
▁J	-815
这是	-816
不要	-817
感觉	-818
感谢	-819
不错	-820
有关	-821
nW	-822
一步	-823
我可以	-824
最终	-825
单词	-826
美元	-827
充满	-828
ute	-829
▁or	-830
等方面	-831
代表	-832
列表	-833
反应	-834
▁day	-835
字符	-836
Python	-837
消费	-838
Number	-839
爱情	-840
ia	-841
一直	-842
▁你好	-843
位置	-844
还是	-845
一次	-846
的方法	-847
________	-848
良好的	-849
检查	-850
调整	-851
ud	-852
容易	-853
帮我	-854
60	-855
▁hour	-856
ive	-857
时候	-858
复杂	-859
les	-860
可持续	-861
空气	-862
实际	-863
意识	-864
整个	-865
化的	-866
比赛	-867
▁which	-868
▁sol	-869
练习	-870
▁giv	-871
营销	-872
阅读	-873
成本	-874
编写	-875
策略	-876
▁$1	-877
享受	-878
op	-879
想要	-880
食品	-881
患者	-882
诊断	-883
的一	-884
吸引	-885
三个	-886
▁30	-887
自我	-888
all	-889
▁$2	-890
nTo	-891
职业	-892
est	-893
都有	-894
ord	-895
sft	-896
竞争	-897
▁15	-898
▁un	-899
了一个	-900
让我们	-901
平衡	-902
美丽	-903
▁man	-904
机器人	-905
80	-906
ag	-907
它们的	-908
ke	-909
nTom	-910
高的	-911
助于	-912
▁min	-913
其次	-914
一段对话	-915
这里	-916
做出	-917
平台	-918
▁写一篇关于	-919
行动	-920
条件	-921
餐厅	-922
宠物	-923
商业	-924
增强	-925
▁ex	-926
创意	-927
你能	-928
联系	-929
▁根据	-930
改善	-931
媒体	-932
one	-933
满足	-934
预测	-935
下面	-936
ents	-937
手机	-938
美食	-939
▁G	-940
放松	-941
rt	-942
使得	-943
总结	-944
▁cost	-945
你们	-946
角色信息	-947
are	-948
以便	-949
),	-950
而且	-951
bo	-952
方向	-953
ake	-954
降低	-955
ment	-956
lice	-957
题目	-958
8.	-959
ack	-960
联网	-961
包含	-962
状态	-963
如果您	-964
▁sh	-965
分享	-966
文学	-967
fore	-968
for	-969
另外	-970
ide	-971
▁time	-972
当地	-973
▁this	-974
▁will	-975
nWe	-976
阳光	-977
有助于	-978
平均	-979
可以在	-980
这篇文章	-981
▁al	-982
参与	-983
软件	-984
age	-985
pt	-986
ist	-987
▁qu	-988
力和	-989
是指	-990
听起来	-991
特征	-992
每个人	-993
化学	-994
按照	-995
▁R	-996
责任	-997
注重	-998
营养	-999
事情	-1000
多种	-1001
常见	-1002
19	-1003
表格	-1004
促进	-1005
造成	-1006
测试	-1007
▁$\\	-1008
iz	-1009
pac	-1010
实验	-1011
深入	-1012
▁pl	-1013
在这个	-1014
场景	-1015
自由	-1016
看到	-1017
合适	-1018
▁从	-1019
金融	-1020
蔬菜	-1021
水平	-1022
参加	-1023
▁为	-1024
▁do	-1025
有一个	-1026
一定	-1027
目前	-1028
将会	-1029
”,	-1030
行星	-1031
▁at	-1032
原因	-1033
情绪	-1034
ound	-1035
有着	-1036
合理	-1037
▁solve	-1038
政府	-1039
特别	-1040
的信息	-1041
水果	-1042
形式	-1043
今天	-1044
商品	-1045
第二	-1046
▁given	-1047
继续	-1048
简单的	-1049
适应	-1050
深度	-1051
同时也	-1052
▁j	-1053
优化	-1054
ra	-1055
的生活	-1056
名称	-1057
习惯	-1058
这个问题	-1059
ess	-1060
让我	-1061
组成	-1062
保证	-1063
下来	-1064
不会	-1065
欢迎	-1066
决策	-1067
在医疗	-1068
受到	-1069
定期	-1070
推广	-1071
老师	-1072
搭配	-1073
医学	-1074
清洁	-1075
规划	-1076
日常	-1077
气候变化	-1078
不可	-1079
是在	-1080
ars	-1081
ans	-1082
ity	-1083
,000	-1084
说明	-1085
组织	-1086
你需要	-1087
提升	-1088
▁fo	-1089
有些	-1090
鼓励	-1091
创作	-1092
成长	-1093
只有	-1094
瑜伽	-1095
$,	-1096
宇宙	-1097
生长	-1098
经历	-1099
未来的	-1100
逐渐	-1101
▁minute	-1102
即可	-1103
观点	-1104
有趣的	-1105
提出	-1106
▁If	-1107
距离	-1108
高效	-1109
小时	-1110
足够	-1111
▁50	-1112
ight	-1113
):\	-1114
▁当然可以	-1115
模式	-1116
人员	-1117
适当	-1118
然而	-1119
▁tw	-1120
ted	-1121
给出	-1122
细节	-1123
法律	-1124
口感	-1125
SM	-1126
nThere	-1127
面积	-1128
报告	-1129
▁生成一个	-1130
▁100	-1131
▁many	-1132
▁i	-1133
▁en	-1134
ok	-1135
有很多	-1136
多个	-1137
的建议	-1138
稳定	-1139
购物	-1140
每天	-1141
print	-1142
中心	-1143
GSM	-1144
应对	-1145
混合	-1146
讨论	-1147
ry	-1148
添加	-1149
追求	-1150
ond	-1151
范围	-1152
记录	-1153
▁there	-1154
财务	-1155
改进	-1156
决定	-1157
健身	-1158
▁te	-1159
家居	-1160
社交媒体	-1161
nC	-1162
背景	-1163
人类的	-1164
物理	-1165
:“	-1166
▁if	-1167
虽然	-1168
英语	-1169
▁fe	-1170
呼吸	-1171
必要	-1172
paca	-1173
alpaca	-1174
玩家	-1175
及时	-1176
评估	-1177
著名	-1178
$\	-1179
力量	-1180
蛋糕	-1181
▁num	-1182
hat	-1183
▁0.	-1184
面的	-1185
独特的	-1186
我认为	-1187
进一步	-1188
名字	-1189
针对	-1190
ard	-1191
ps	-1192
掌握	-1193
度和	-1194
nD	-1195
▁us	-1196
家具	-1197
事件	-1198
我们应该	-1199
物品	-1200
]\	-1201
时尚	-1202
ome	-1203
nM	-1204
性能	-1205
ght	-1206
情况下	-1207
网站	-1208
进步	-1209
字符串	-1210
合适的	-1211
让人	-1212
定义	-1213
▁her	-1214
海洋	-1215
自然语言	-1216
ike	-1217
绿色	-1218
ne	-1219
fe	-1220
剩下	-1221
▁sta	-1222
有一	-1223
之前	-1224
▁up	-1225
以下是一	-1226
▁[	-1227
力的	-1228
▁find	-1229
相信	-1230
错误	-1231
成员	-1232
物体	-1233
pres	-1234
状况	-1235
将其	-1236
流行	-1237
互联网	-1238
ract	-1239
▁ad	-1240
▁minutes	-1241
mount	-1242
相互	-1243
。”	-1244
}\	-1245
nx	-1246
ort	-1247
ure	-1248
nTherefore	-1249
2,	-1250
达到	-1251
oc	-1252
▁如果	-1253
turn	-1254
概念	-1255
幸福	-1256
解决方案	-1257
nce	-1258
指导	-1259
▁当	-1260
▁N	-1261
驾驶	-1262
0.	-1263
维护	-1264
中提取	-1265
▁his	-1266
-1	-1267
丰富的	-1268
者的	-1269
个性	-1270
还需要	-1271
语音	-1272
ys	-1273
公共	-1274
大小	-1275
子的	-1276
收入	-1277
per	-1278
锻炼	-1279
▁O	-1280
标准	-1281
问题的	-1282
▁#	-1283
nBob	-1284
相对	-1285
nAlice	-1286
技术的	-1287
多样	-1288
现实	-1289
▁wor	-1290
提供了	-1291
也会	-1292
贡献	-1293
长度	-1294
明确	-1295
▁60	-1296
季节	-1297
高兴	-1298
用的	-1299
预算	-1300
---	-1301
排放	-1302
ass	-1303
ily	-1304
精神	-1305
的方式	-1306
面临	-1307
尊重	-1308
▁hours	-1309
以确保	-1310
工程	-1311
▁return	-1312
展示	-1313
符合	-1314
地区	-1315
2)	-1316
应的	-1317
美国	-1318
分别	-1319
黑洞	-1320
适量	-1321
执行	-1322
▁inc	-1323
放入	-1324
的时间	-1325
歌曲	-1326
探讨	-1327
ial	-1328
\",	-1329
可以让	-1330
经典	-1331
的工作	-1332
真正	-1333
▁$3	-1334
9.	-1335
创建	-1336
ify	-1337
正确的	-1338
业务	-1339
放在	-1340
困难	-1341
睡眠	-1342
推动	-1343
arn	-1344
大量的	-1345
应用程序	-1346
▁ro	-1347
18	-1348
▁16	-1349
▁than	-1350
社区	-1351
听说	-1352
so	-1353
可以使用	-1354
北京	-1355
优势	-1356
ng	-1357
塑料	-1358
不过	-1359
▁25	-1360
16	-1361
均匀	-1362
这一	-1363
nE	-1364
神秘	-1365
▁40	-1366
个苹果	-1367
她的	-1368
▁ye	-1369
环境保护	-1370
排序	-1371
的地方	-1372
铅笔	-1373
▁all	-1374
人工智能的	-1375
经常	-1376
num	-1377
无论	-1378
变量	-1379
广告	-1380
▁To	-1381
产品的	-1382
是多少	-1383
()	-1384
人生	-1385
▁cl	-1386
为什么	-1387
涉及	-1388
ree	-1389
判断	-1390
装饰	-1391
很好	-1392
▁int	-1393
生活中	-1394
思维	-1395
ick	-1396
▁div	-1397
政策	-1398
严重	-1399
表面	-1400
▁X	-1401
方面的	-1402
ould	-1403
自然语言处理	-1404
美好	-1405
▁What	-1406
上面	-1407
系列	-1408
话题	-1409
能量	-1410
年的	-1411
现象	-1412
药物	-1413
年轻的	-1414
impl	-1415
▁var	-1416
▁more	-1417
的关键	-1418
▁then	-1419
电视	-1420
一般	-1421
互动	-1422
面对	-1423
支付	-1424
带来了	-1425
对方	-1426
大利	-1427
巧克	-1428
ions	-1429
流程	-1430
的小	-1431
循环	-1432
nLet	-1433
out	-1434
强调	-1435
成为了	-1436
▁res	-1437
ant	-1438
优点	-1439
思想	-1440
增长	-1441
类型的	-1442
生态系统	-1443
200	-1444
鸡蛋	-1445
费用	-1446
ase	-1447
nprint	-1448
需要注意	-1449
优秀	-1450
品质	-1451
后的	-1452
深刻	-1453
实践	-1454
500	-1455
快乐	-1456
隐私	-1457
样的	-1458
hes	-1459
▁po	-1460
制造	-1461
调查	-1462
宣传	-1463
直接	-1464
常见的	-1465
并在	-1466
安排	-1467
uch	-1468
ab	-1469
房间	-1470
蛋白	-1471
irst	-1472
区域	-1473
学习和	-1474
足够的	-1475
▁was	-1476
ust	-1477
▁pe	-1478
您需要	-1479
充分	-1480
美味	-1481
完全	-1482
的主要	-1483
”。	-1484
某些	-1485
在线	-1486
度的	-1487
缺点	-1488
引起	-1489
设置	-1490
art	-1491
nNumber	-1492
认识	-1493
99	-1494
▁set	-1495
室内	-1496
有所	-1497
▁print	-1498
新闻	-1499
日期	-1500
中最	-1501
大家	-1502
方便	-1503
nJ	-1504
▁{\	-1505
▁tr	-1506
21	-1507
接受	-1508
年龄	-1509
▁wee	-1510
发挥	-1511
缓解	-1512
道德	-1513
令人	-1514
ring	-1515
共有	-1516
ast	-1517
英文	-1518
▁基于	-1519
和其他	-1520
哪个	-1521
夏天	-1522
▁24	-1523
很高兴	-1524
ary	-1525
规则	-1526
form	-1527
▁know	-1528
put	-1529
一只	-1530
写作	-1531
反馈	-1532
搅拌	-1533
巧克力	-1534
牛奶	-1535
口味	-1536
内部	-1537
温暖	-1538
环境的	-1539
消费者	-1540
大气	-1541
一家	-1542
▁18	-1543
imp	-1544
负面	-1545
implify	-1546
ces	-1547
的需求	-1548
句话	-1549
接下来	-1550
一款	-1551
上最	-1552
结合	-1553
的环境	-1554
氧化	-1555
公式	-1556
生存	-1557
获取	-1558
美的	-1559
进入	-1560
▁your	-1561
▁sum	-1562
焦虑	-1563
您好	-1564
最大	-1565
值得	-1566
▁what	-1567
古代	-1568
长期	-1569
▁amount	-1570
是由	-1571
▁ap	-1572
▁one	-1573
美好的	-1574
他们的对话内容	-1575
具体的	-1576
喜欢的	-1577
ef	-1578
▁非常	-1579
/2	-1580
多的	-1581
直到	-1582
到的	-1583
量子	-1584
生成一段	-1585
qrt	-1586
出来	-1587
▁el	-1588
}$	-1589
取得	-1590
ange	-1591
▁ar	-1592
方程	-1593
减轻	-1594
形象	-1595
适当的	-1596
等领域	-1597
意大利	-1598
▁那	-1599
▁how	-1600
寻求	-1601
',	-1602
相同	-1603
▁是的	-1604
ang	-1605
akes	-1606
情节	-1607
这段	-1608
▁dis	-1609
llow	-1610
3,	-1611
相关的	-1612
出了	-1613
人物	-1614
总的	-1615
气温	-1616
清晰	-1617
讲述	-1618
——	-1619
连接	-1620
!\	-1621
搜索	-1622
食材	-1623
pe	-1624
▁lo	-1625
ining	-1626
{1	-1627
数的	-1628
▁$4	-1629
学校	-1630
感兴趣	-1631
▁they	-1632
字母	-1633
第一	-1634
tem	-1635
▁你	-1636
▁14	-1637
有效的	-1638
培训	-1639
课程	-1640
他们之间的	-1641
非常重要的	-1642
ons	-1643
周围	-1644
sqrt	-1645
夏季	-1646
当前	-1647
景点	-1648
▁==	-1649
安装	-1650
转换	-1651
hen	-1652
以下是一些	-1653
存储	-1654
收集	-1655
小明有	-1656
返回	-1657
领导	-1658
美丽的	-1659
很有	-1660
高度	-1661
总的来说	-1662
▁first	-1663
▁fl	-1664
理论	-1665
提供一些	-1666
iable	-1667
分配	-1668
信任	-1669
可持续发展	-1670
移动	-1671
森林	-1672
所需	-1673
自信	-1674
色彩	-1675
气体	-1676
▁bre	-1677
视觉	-1678
时间和	-1679
著名的	-1680
);\	-1681
我们将	-1682
ction	-1683
种类	-1684
大量	-1685
ara	-1686
健康的	-1687
受欢迎	-1688
在一起	-1689
▁&	-1690
满意	-1691
重新	-1692
▁人工智能	-1693
狗狗	-1694
里的	-1695
▁stud	-1696
各个	-1697
核心	-1698
相应的	-1699
列出	-1700
左右	-1701
创业	-1702
red	-1703
▁also	-1704
24	-1705
▁K	-1706
破坏	-1707
学会	-1708
观察	-1709
ax	-1710
▁sc	-1711
ile	-1712
推理	-1713
游泳	-1714
保健	-1715
程度	-1716
▁two	-1717
呈现	-1718
cd	-1719
咨询	-1720
rite	-1721
nIf	-1722
经过	-1723
例子	-1724
▁给你	-1725
人们的	-1726
▁“	-1727
最佳	-1728
ata	-1729
python	-1730
坚持	-1731
总是	-1732
电脑	-1733
不知道	-1734
我是	-1735
know	-1736
给定的	-1737
▁variable	-1738
夏天的	-1739
tract	-1740
哲学	-1741
成分	-1742
的技术	-1743
味道	-1744
太空	-1745
爱好	-1746
时期	-1747
▁描述	-1748
的数据	-1749
深度学习	-1750
巨大的	-1751
known	-1752
张三	-1753
ain	-1754
限制	-1755
了一些	-1756
意味	-1757
ong	-1758
公园	-1759
第三	-1760
可以选择	-1761
▁left	-1762
土壤	-1763
mat	-1764
假设	-1765
图像	-1766
、《	-1767
▁go	-1768
神经	-1769
▁bu	-1770
经理	-1771
变得更加	-1772
▁给你两个	-1773
自动化	-1774
详细丰富	-1775
要求对话内容	-1776
角色信息如下	-1777
生成他们之间的	-1778
要求对话内容详细丰富	-1779
▁给你两个角色信息如下	-1780
生成他们之间的一段对话	-1781
甚至	-1782
尽可能	-1783
的故事	-1784
▁unknown	-1785
分为	-1786
▁sec	-1787
虚拟	-1788
自行	-1789
红色	-1790
随时	-1791
必要的	-1792
目的	-1793
新鲜	-1794
生成一段他们的对话内容	-1795
我也	-1796
来自	-1797
动作	-1798
装修	-1799
):	-1800
培养	-1801
地方	-1802
感受到	-1803
▁基于以下	-1804
角度	-1805
的重要性	-1806
这是一个	-1807
父母	-1808
完成一段对话	-1809
▁基于以下角色信息	-1810
▁基于以下角色信息完成一段对话	-1811
孩子的	-1812
my	-1813
玛丽	-1814
ns	-1815
ubtract	-1816
细胞	-1817
蛋白质	-1818
读者	-1819
模拟	-1820
ark	-1821
娱乐	-1822
5,	-1823
轻松	-1824
综上	-1825
并不	-1826
**	-1827
形状	-1828
设施	-1829
应用于	-1830
女性	-1831
领域的	-1832
分子	-1833
太阳系	-1834
有一些	-1835
▁以下是一	-1836
本书	-1837
合同	-1838
box	-1839
饮料	-1840
意味着	-1841
>\	-1842
除了	-1843
的时候	-1844
建设	-1845
氛围	-1846
每个人都	-1847
意见	-1848
车辆	-1849
个糖果	-1850
随机	-1851
▁rema	-1852
day	-1853
时代	-1854
智能家居	-1855
确实	-1856
NA	-1857
用来	-1858
看看	-1859
最高	-1860
term	-1861
展现	-1862
称为	-1863
科学家	-1864
ters	-1865
相似	-1866
的天气	-1867
所述	-1868
至少	-1869
▁follow	-1870
1)	-1871
摄入	-1872
过度	-1873
世纪	-1874
价值观	-1875
中文	-1876
等于	-1877
工业	-1878
机构	-1879
意思	-1880
独立	-1881
面包	-1882
》、《	-1883
▁200	-1884
数为	-1885
区块	-1886
保障	-1887
ip	-1888
倒入	-1889
du	-1890
交易	-1891
自身	-1892
也需要	-1893
14	-1894
fter	-1895
顾客	-1896
运行	-1897
ss	-1898
未知	-1899
请你	-1900
▁add	-1901
声音	-1902
平方	-1903
和文化	-1904
ince	-1905
的值	-1906
卫生	-1907
编程语言	-1908
属于	-1909
那些	-1910
igh	-1911
彼此	-1912
的主题	-1913
过去	-1914
原理	-1915
预防	-1916
▁their	-1917
特殊	-1918
明白	-1919
负责	-1920
oney	-1921
它可以	-1922
光线	-1923
的使用	-1924
nH	-1925
邮件	-1926
ther	-1927
▁How	-1928
▁写一篇	-1929
▁new	-1930
act	-1931
综上所述	-1932
十分	-1933
真实	-1934
10.	-1935
看起来	-1936
类似	-1937
什么是	-1938
▁week	-1939
位于	-1940
选项	-1941
数据分析	-1942
浪费	-1943
▁times	-1944
blem	-1945
利润	-1946
阶段	-1947
的选择	-1948
区块链	-1949
有没有	-1950
▁使用	-1951
▁repres	-1952
资金	-1953
只是	-1954
尽量	-1955
看法	-1956
/4	-1957
运算	-1958
ost	-1959
cdot	-1960
可以根据	-1961
特色	-1962
11	-1963
own	-1964
▁problem	-1965
都会	-1966
▁pa	-1967
天空	-1968
▁`	-1969
gin	-1970
ition	-1971
的情感	-1972
指南	-1973
▁不	-1974
小李	-1975
差异	-1976
▁needs	-1977
row	-1978
东西	-1979
潜在	-1980
▁out	-1981
ople	-1982
▁comp	-1983
nSo	-1984
我需要	-1985
▁break	-1986
证据	-1987
we	-1988
演讲	-1989
真的	-1990
第一个	-1991
ulti	-1992
和发展	-1993
成功的	-1994
会议	-1995
出的	-1996
生活方式	-1997
和社会	-1998
仍然	-1999
分给	-2000
最重要的	-2001
另一个	-2002
ally	-2003
尤其	-2004
可能是	-2005
time	-2006
打开	-2007
遇到	-2008
ater	-2009
智慧	-2010
▁gr	-2011
▁second	-2012
▁编写	-2013
一样	-2014
你在	-2015
up	-2016
聊天	-2017
得到了	-2018
数据的	-2019
三角	-2020
查询	-2021
人际	-2022
休息	-2023
灵感	-2024
观众	-2025
可靠	-2026
able	-2027
ish	-2028
▁80	-2029
内心	-2030
皮肤	-2031
蓝色	-2032
评价	-2033
这样的	-2034
小学	-2035
烤箱	-2036
以下几个	-2037
▁money	-2038
▁首先	-2039
一定的	-2040
▁对	-2041
海滩	-2042
双方	-2043
有的	-2044
股票	-2045
2\	-2046
规定	-2047
非常重要	-2048
语法	-2049
ence	-2050
舞蹈	-2051
boxed	-2052
逻辑	-2053
户外	-2054
ace	-2055
na	-2056
回收	-2057
物的	-2058
重复	-2059
ava	-2060
▁days	-2061
梦想	-2062
its	-2063
充足	-2064
生命的	-2065
酒店	-2066
在家	-2067
▁×	-2068
孤独	-2069
想象	-2070
termine	-2071
70	-2072
自然的	-2073
主义	-2074
飞行	-2075
前景	-2076
超过	-2077
地球的	-2078
来源	-2079
的好	-2080
有哪些	-2081
▁那么	-2082
复杂的	-2083
衣服	-2084
规律	-2085
▁people	-2086
ite	-2087
在一个	-2088
主人	-2089
形的	-2090
正常	-2091
是一位	-2092
灾害	-2093
▁la	-2094
3)	-2095
▁mon	-2096
心和	-2097
环保的	-2098
▁《	-2099
参考	-2100
变暖	-2101
的水	-2102
数学题	-2103
自行车	-2104
的数量	-2105
显示	-2106
重视	-2107
ec	-2108
▁inte	-2109
保险	-2110
ous	-2111
▁bl	-2112
他人	-2113
能否	-2114
尽管	-2115
效率和	-2116
nc	-2117
番茄	-2118
的价格	-2119
lf	-2120
体的	-2121
爱的	-2122
种植	-2123
态度	-2124
保护环境	-2125
环境污染	-2126
先生	-2127
切成	-2128
就可以	-2129
rix	-2130
变成	-2131
房屋	-2132
具备	-2133
支出	-2134
生成一个	-2135
▁We	-2136
所有的	-2137
的内容	-2138
22	-2139
的一个	-2140
星期	-2141
部门	-2142
▁ab	-2143
销售额	-2144
在未来	-2145
段落	-2146
nIn	-2147
75	-2148
整数	-2149
▁pos	-2150
威胁	-2151
his	-2152
书籍	-2153
在于	-2154
等问题	-2155
开放	-2156
是我们	-2157
日本	-2158
组合	-2159
▁的	-2160
防止	-2161
iles	-2162
症状	-2163
lic	-2164
事实	-2165
ings	-2166
基因	-2167
研发	-2168
▁not	-2169
ade	-2170
解决问题	-2171
儿童	-2172
的总	-2173
}$.\	-2174
我很	-2175
身心	-2176
婴儿	-2177
▁2,	-2178
证明	-2179
是一名	-2180
详细的	-2181
为你	-2182
难以	-2183
优秀的	-2184
ib	-2185
宝宝	-2186
工程师	-2187
品种	-2188
不断地	-2189
表明	-2190
▁make	-2191
冒险	-2192
法规	-2193
约翰	-2194
肌肉	-2195
上升	-2196
所在	-2197
婚礼	-2198
▁$5	-2199
一个人	-2200
橙子	-2201
更好地理解	-2202
你对	-2203
危险	-2204
新型	-2205
积极的	-2206
家人	-2207
披萨	-2208
面试	-2209
安全性	-2210
事项	-2211
灵活	-2212
认真	-2213
▁13	-2214
文化和	-2215
也有	-2216
脂肪	-2217
▁had	-2218
比例	-2219
之外	-2220
翻译成	-2221
如此	-2222
________________	-2223
你是	-2224
fere	-2225
综合	-2226
▁可以	-2227
olate	-2228
请告诉我	-2229
示例	-2230
含有	-2231
▁pr	-2232
▁ever	-2233
作者	-2234
▁determine	-2235
之后	-2236
这将	-2237
厘米	-2238
▁题目	-2239
最好的	-2240
等方式	-2241
▁Y	-2242
ins	-2243
生日	-2244
智能化	-2245
▁In	-2246
内的	-2247
节约	-2248
ors	-2249
nLuc	-2250
但我	-2251
▁He	-2252
▁earn	-2253
互相	-2254
文章中	-2255
的基本	-2256
的基础	-2257
▁squ	-2258
而言	-2259
攻击	-2260
在医疗领域	-2261
▁V	-2262
缺乏	-2263
黄色	-2264
cc	-2265
烹饪	-2266
欣赏	-2267
颗糖果	-2268
消耗	-2269
预报	-2270
热情	-2271
银行	-2272
ply	-2273
最好	-2274
资产	-2275
有效地	-2276
▁---	-2277
得出	-2278
13	-2279
专注	-2280
分成	-2281
知名	-2282
还剩下	-2283
▁write	-2284
结束	-2285
最大的	-2286
你有什么	-2287
▁inform	-2288
物种	-2289
笑话	-2290
▁down	-2291
▁into	-2292
的事情	-2293
密码	-2294
引力	-2295
▁divide	-2296
的质量	-2297
上海	-2298
身体健康	-2299
90	-2300
iding	-2301
手段	-2302
{1}{	-2303
而不是	-2304
不足	-2305
小的	-2306
关键词	-2307
right	-2308
我将	-2309
技术和	-2310
▁3,	-2311
▁three	-2312
公里	-2313
科幻	-2314
▁month	-2315
▁gre	-2316
清单	-2317
成就	-2318
要注意	-2319
星球	-2320
给你	-2321
ndef	-2322
摘要	-2323
▁÷	-2324
长的	-2325
很好的	-2326
▁\\\	-2327
▁imp	-2328
喜好	-2329
The	-2330
城市的	-2331
对手	-2332
垃圾分类	-2333
谢谢你的	-2334
▁represents	-2335
▁pound	-2336
ru	-2337
完善	-2338
白色	-2339
分布	-2340
哪里	-2341
需要考虑	-2342
物理学	-2343
....	-2344
如果我们	-2345
gh	-2346
可以提高	-2347
更新	-2348
get	-2349
回答问题	-2350
重量	-2351
数据集	-2352
数组	-2353
nEm	-2354
全球变暖	-2355
发布	-2356
00\	-2357
认知	-2358
调味	-2359
很大的	-2360
协作	-2361
这是一	-2362
nP	-2363
一天	-2364
结论	-2365
▁years	-2366
简洁	-2367
和服务	-2368
轻轻	-2369
并提供	-2370
期待	-2371
不断发展	-2372
便利	-2373
浪漫	-2374
运用	-2375
菜品	-2376
的电影	-2377
世界上最	-2378
出行	-2379
大型	-2380
和挑战	-2381
每个朋友	-2382
两种	-2383
4,	-2384
的产品	-2385
强烈	-2386
:\"	-2387
请输入	-2388
ends	-2389
▁feet	-2390
ff	-2391
并将	-2392
论文	-2393
汤姆	-2394
道路	-2395
食用	-2396
调节	-2397
重点	-2398
至关	-2399
评论	-2400
怎么样	-2401
|\	-2402
电器	-2403
再生	-2404
花费	-2405
自动驾驶	-2406
▁36	-2407
ought	-2408
五个	-2409
机制	-2410
规模	-2411
▁dif	-2412
下面是	-2413
了许多	-2414
中提取出	-2415
▁information	-2416
初学	-2417
动力	-2418
的风险	-2419
常常	-2420
ten	-2421
使用的	-2422
你认为	-2423
农业	-2424
里有	-2425
nF	-2426
到达	-2427
居民	-2428
社会的	-2429
▁students	-2430
ci	-2431
ose	-2432
pi	-2433
生素	-2434
请问您	-2435
招聘	-2436
▁remaining	-2437
大学	-2438
▁这个	-2439
科技的	-2440
”、	-2441
能力和	-2442
负面影响	-2443
ep	-2444
old	-2445
单位	-2446
渠道	-2447
我觉得	-2448
的情况	-2449
实施	-2450
晚上	-2451
als	-2452
▁my	-2453
2}	-2454
统计	-2455
)。	-2456
我在	-2457
留下	-2458
我为您	-2459
▁like	-2460
它是	-2461
▁11	-2462
就会	-2463
4_	-2464
))\	-2465
ats	-2466
的设计	-2467
lex	-2468
gpt	-2469
▁我想	-2470
刚刚	-2471
参数	-2472
matrix	-2473
更容易	-2474
▁miles	-2475
理念	-2476
转化	-2477
愿意	-2478
ird	-2479
nSince	-2480
之处	-2481
完整	-2482
职场	-2483
生活的	-2484
45	-2485
▁作为	-2486
▁用	-2487
修改	-2488
▁result	-2489
特定	-2490
答案是	-2491
视频	-2492
适量的	-2493
心态	-2494
更为	-2495
案件	-2496
一组	-2497
语句	-2498
恒星	-2499
曾经	-2500
标志	-2501
病人	-2502
▁simplify	-2503
心情	-2504
节奏	-2505
自主	-2506
我们会	-2507
公共交通	-2508
非常感谢	-2509
して	-2510
不太	-2511
金额	-2512
ign	-2513
做好	-2514
表演	-2515
ell	-2516
个性化	-2517
传递	-2518
国际	-2519
▁对于	-2520
非常有	-2521
==	-2522
再次	-2523
类别	-2524
▁z	-2525
魔法	-2526
的过程	-2527
ator	-2528
▁Number	-2529
周期	-2530
对象	-2531
充满了	-2532
带来的	-2533
测量	-2534
ph	-2535
探险	-2536
ance	-2537
热门	-2538
其中的	-2539
期间	-2540
水分	-2541
在这	-2542
▁John	-2543
严格	-2544
太阳能	-2545
紧张	-2546
以下是一个	-2547
普及	-2548
家的	-2549
是否有	-2550
优惠	-2551
美味的	-2552
传统的	-2553
ます	-2554
监测	-2555
让你	-2556
”、“	-2557
使其	-2558
吸收	-2559
失去	-2560
婚姻	-2561
ages	-2562
受欢迎的	-2563
gg	-2564
科普	-2565
和治疗	-2566
是中国	-2567
▁quest	-2568
的历史	-2569
免疫	-2570
查看	-2571
▁小明	-2572
\")\	-2573
▁multi	-2574
整体	-2575
听起来很	-2576
外观	-2577
检测	-2578
▁}\	-2579
的颜色	-2580
年来	-2581
维持	-2582
为我	-2583
与其他	-2584
的目标	-2585
的过程中	-2586
本文	-2587
足球	-2588
遵守	-2589
词汇	-2590
金属	-2591
app	-2592
目的地	-2593
▁word	-2594
成绩	-2595
扩大	-2596
某个	-2597
isa	-2598
健康饮食	-2599
ild	-2600
▁1\	-2601
▁work	-2602
李四	-2603
▁$6	-2604
▁U	-2605
▁2\	-2606
迅速	-2607
ues	-2608
强大的	-2609
来实现	-2610
产生了	-2611
冥想	-2612
性质	-2613
岁的	-2614
选择适合	-2615
利益	-2616
▁sa	-2617
投入	-2618
实用	-2619
工艺	-2620
5\	-2621
时刻	-2622
健康和	-2623
▁square	-2624
oks	-2625
辅助	-2626
事业	-2627
电池	-2628
Tom	-2629
ets	-2630
ants	-2631
愉快	-2632
,“	-2633
性格	-2634
收益	-2635
28	-2636
更快	-2637
维生素	-2638
另一	-2639
这首	-2640
▁no	-2641
加速	-2642
提示	-2643
潜力	-2644
gr	-2645
前往	-2646
规范	-2647
和谐	-2648
除以	-2649
▁我们	-2650
协调	-2651
教学	-2652
进展	-2653
则是	-2654
及其	-2655
▁$10	-2656
AP	-2657
面粉	-2658
▁cal	-2659
▁them	-2660
17	-2661
和支持	-2662
身体的	-2663
▁请给我	-2664
人际关系	-2665
体育	-2666
刺激	-2667
哺乳	-2668
夏日	-2669
一些关于	-2670
▁take	-2671
文字	-2672
▁以下是一道	-2673
特定的	-2674
创建一个	-2675
眼睛	-2676
明白了	-2677
▁subtract	-2678
更换	-2679
alf	-2680
礼物	-2681
ens	-2682
▁制作	-2683
第二个	-2684
ays	-2685
小学数学题	-2686
女孩	-2687
风景	-2688
▁提供	-2689
▁以下是一道小学数学题	-2690
记忆	-2691
黑色	-2692
每次	-2693
而是	-2694
慢慢	-2695
▁some	-2696
▁every	-2697
等待	-2698
葡萄	-2699
知识和	-2700
我对	-2701
地点	-2702
顺序	-2703
▁would	-2704
用户的	-2705
介绍一下	-2706
医疗保健	-2707
▁follows	-2708
排列	-2709
明天	-2710
释放	-2711
鸡肉	-2712
概率	-2713
聪明	-2714
▁120	-2715
我们的生活	-2716
明显	-2717
洋葱	-2718
语音识别	-2719
跑步	-2720
nO	-2721
发展的	-2722
cri	-2723
▁生成一首	-2724
可以为	-2725
和建议	-2726
神秘的	-2727
▁other	-2728
/3	-2729
每一个	-2730
的原因	-2731
▁were	-2732
传播	-2733
放置	-2734
往往	-2735
时光	-2736
▁much	-2737
更好地了解	-2738
▁spent	-2739
长时间	-2740
▁1,	-2741
过于	-2742
DNA	-2743
和水	-2744
家长	-2745
报道	-2746
需求和	-2747
list	-2748
电话	-2749
植物的	-2750
▁rec	-2751
供应	-2752
扮演	-2753
行驶	-2754
可以用	-2755
▁pounds	-2756
有许多	-2757
▁3.	-2758
因为它	-2759
孩子们	-2760
部电影	-2761
▁$20	-2762
好了	-2763
▁2.	-2764
事物	-2765
我最近	-2766
/100	-2767
氧气	-2768
tat	-2769
化合	-2770
帮我想	-2771
?”	-2772
小王	-2773
涉及到	-2774
愉悦	-2775
▁和	-2776
交互	-2777
定制	-2778
确认	-2779
遇到了	-2780
约为	-2781
0,	-2782
小华	-2783
深远	-2784
input	-2785
的结果	-2786
-2	-2787
感和	-2788
提醒	-2789
一共有	-2790
你觉得	-2791
当地的	-2792
的能力	-2793
ov	-2794
品尝	-2795
ngth	-2796
▁arr	-2797
天的天气	-2798
易于	-2799
mer	-2800
可再生	-2801
技能和	-2802
取出	-2803
1000	-2804
▁but	-2805
▁means	-2806
体重	-2807
出色	-2808
无限	-2809
ire	-2810
不仅仅	-2811
大数据	-2812
提供的	-2813
锅中	-2814
能够帮助	-2815
成果	-2816
胡椒	-2817
真正的	-2818
▁who	-2819
沙滩	-2820
的特点	-2821
的食物	-2822
▁帮我	-2823
玩具	-2824
心灵	-2825
给予	-2826
办公	-2827
服装	-2828
菜单	-2829
透明	-2830
和分析	-2831
程序员	-2832
可以帮助我们	-2833
▁写	-2834
选择合适的	-2835
▁class	-2836
▁differe	-2837
博物	-2838
信仰	-2839
同意	-2840
擅长	-2841
times	-2842
▁是	-2843
柠檬	-2844
的诗歌	-2845
ated	-2846
让人们	-2847
▁----	-2848
集中	-2849
▁bet	-2850
自然灾害	-2851
可以帮助你	-2852
1:	-2853
有机	-2854
▁und	-2855
市场营销	-2856
设计一个	-2857
)、	-2858
猫咪	-2859
艾米	-2860
ck	-2861
原子	-2862
场合	-2863
干净	-2864
▁car	-2865
转换为	-2866
ough	-2867
克服	-2868
商务	-2869
▁计算	-2870
▁--------	-2871
加上	-2872
感情	-2873
老板	-2874
手术	-2875
花园	-2876
分析和	-2877
一道	-2878
irc	-2879
mon	-2880
XXX	-2881
支铅笔	-2882
厨房	-2883
▁Ch	-2884
初学者	-2885
^{	-2886
普通	-2887
用品	-2888
试试	-2889
\"\	-2890
36	-2891
一张	-2892
构建	-2893
清洗	-2894
▁给定	-2895
可以将	-2896
大地	-2897
。\"	-2898
会导致	-2899
的位置	-2900
构成	-2901
▁It	-2902
优质	-2903
化和	-2904
更有	-2905
对环境	-2906
的变化	-2907
▁half	-2908
▁water	-2909
遵循	-2910
电动	-2911
被称为	-2912
arah	-2913
人民	-2914
名为	-2915
来解决	-2916
▁isolate	-2917
ms	-2918
同样	-2919
▁5,	-2920
对人类	-2921
打造	-2922
理解和	-2923
▁4,	-2924
加热	-2925
精准	-2926
可以考虑	-2927
水和	-2928
牛肉	-2929
这款	-2930
年轻人	-2931
ames	-2932
人体	-2933
舒适的	-2934
Java	-2935
nDiv	-2936
定位	-2937
律师	-2938
专业的	-2939
在这里	-2940
press	-2941
ples	-2942
verage	-2943
恢复	-2944
▁90	-2945
我们可以使用	-2946
8,	-2947
同事	-2948
引导	-2949
志愿	-2950
时的	-2951
▁AI	-2952
35	-2953
始终	-2954
ize	-2955
▁range	-2956
下的	-2957
温馨	-2958
出一个	-2959
担心	-2960
食谱	-2961
科普文章	-2962
的话	-2963
或其他	-2964
oy	-2965
奖励	-2966
经营	-2967
ystem	-2968
nDividing	-2969
尺寸	-2970
良好	-2971
arr	-2972
ren	-2973
支持和	-2974
力学	-2975
勇气	-2976
来看	-2977
心理学	-2978
橄榄	-2979
一条	-2980
材质	-2981
肌肤	-2982
我们也	-2983
▁指	-2984
▁19	-2985
最新的	-2986
产业	-2987
最低	-2988
现金	-2989
较高	-2990
▁提取	-2991
基本的	-2992
pmatrix	-2993
节日	-2994
只能	-2995
▁after	-2996
力于	-2997
思路	-2998
了很多	-2999
冲突	-3000
近年来	-3001
▁about	-3002
取决	-3003
接触	-3004
永远	-3005
符号	-3006
编辑	-3007
覆盖	-3008
可能导致	-3009
文明	-3010
监管	-3011
的安全	-3012
▁over	-3013
全面	-3014
分到	-3015
助手	-3016
企业家	-3017
取决于	-3018
的研究	-3019
篮球	-3020
的一种	-3021
合理的	-3022
▁cons	-3023
ode	-3024
▁use	-3025
我们可以通过	-3026
二氧化	-3027
根据自己的	-3028
▁个	-3029
反映	-3030
损失	-3031
数列	-3032
vel	-3033
博物馆	-3034
并没有	-3035
这些问题	-3036
整理	-3037
职位	-3038
tance	-3039
▁bought	-3040
上述	-3041
发明	-3042
其他的	-3043
等因素	-3044
纽约	-3045
ven	-3046
我听说	-3047
当今	-3048
解答	-3049
cul	-3050
即使	-3051
犯罪	-3052
cho	-3053
我们的产品	-3054
人数	-3055
为您提供	-3056
上面的问题	-3057
下降	-3058
化妆	-3059
回答上面的问题	-3060
</	-3061
似乎	-3062
总体	-3063
有点	-3064
总共	-3065
依赖	-3066
水中	-3067
一系列	-3068
哺乳动物	-3069
义词	-3070
买了	-3071
较为	-3072
duct	-3073
一直在	-3074
是一项	-3075
的音乐	-3076
已经成为	-3077
ny	-3078
也很	-3079
所需的	-3080
nLucy	-3081
专家	-3082
大气层	-3083
xx	-3084
一本	-3085
的一部分	-3086
de	-3087
散步	-3088
美景	-3089
Bob	-3090
被广泛	-3091
▁play	-3092
早上	-3093
游客	-3094
那里	-3095
▁fri	-3096
▁data	-3097
开展	-3098
准确地	-3099
▁dog	-3100
旨在	-3101
离开	-3102
附近	-3103
我建议	-3104
致力于	-3105
▁twice	-3106
|--------	-3107
▁cre	-3108
查找	-3109
多样性	-3110
共享	-3111
就业	-3112
氏度	-3113
人工智能在	-3114
日常生活中	-3115
体现	-3116
小型	-3117
找出	-3118
热爱	-3119
可能的	-3120
word	-3121
环保意识	-3122
))	-3123
含义	-3124
意识到	-3125
▁when	-3126
au	-3127
cl	-3128
子和	-3129
的大	-3130
val	-3131
\":	-3132
▁does	-3133
障碍	-3134
品牌的	-3135
都可以	-3136
cm	-3137
场所	-3138
这次	-3139
如何在	-3140
▁hel	-3141
▁以下是	-3142
▁read	-3143
する	-3144
平面	-3145
化合物	-3146
经验和	-3147
▁sold	-3148
激励	-3149
家庭成员	-3150
意大利面	-3151
年代	-3152
注意力	-3153
ations	-3154
勇敢	-3155
只要	-3156
ower	-3157
姿势	-3158
穿着	-3159
应该是	-3160
挑战和	-3161
被认为	-3162
输出结果	-3163
7,	-3164
除此	-3165
为主	-3166
伤害	-3167
激发	-3168
300	-3169
的城市	-3170
他在	-3171
和安全	-3172
除此之外	-3173
▁takes	-3174
指标	-3175
富有	-3176
案例	-3177
2:	-3178
地面	-3179
一个问题	-3180
伦理	-3181
温室	-3182
适用于	-3183
干燥	-3184
最新	-3185
质量的	-3186
便捷	-3187
可行	-3188
同学	-3189
▁tri	-3190
▁解释	-3191
企业的	-3192
篇关于	-3193
这意味着	-3194
给您	-3195
here	-3196
name	-3197
语言模型	-3198
进行分类	-3199
son	-3200
^3	-3201
气息	-3202
ger	-3203
考虑到	-3204
否则	-3205
秋天的	-3206
andom	-3207
':	-3208
强的	-3209
芝士	-3210
▁ter	-3211
学生的	-3212
二氧化碳	-3213
尊敬	-3214
影像	-3215
男生	-3216
界面	-3217
叫做	-3218
▁(1	-3219
▁mar	-3220
神经网络	-3221
)。\	-3222
的感觉	-3223
▁equal	-3224
▁谢谢	-3225
但是我	-3226
人士	-3227
还能	-3228
大约	-3229
狗的	-3230
草莓	-3231
血压	-3232
和应用	-3233
组成部分	-3234
也在	-3235
区别	-3236
序列	-3237
▁inches	-3238
印象	-3239
竞争对手	-3240
以下几个方面	-3241
异常	-3242
节能	-3243
布局	-3244
李华	-3245
燃料	-3246
群体	-3247
▁price	-3248
信号	-3249
▁$(	-3250
ible	-3251
ical	-3252
天体	-3253
词语	-3254
▁把	-3255
夜晚	-3256
女生	-3257
豆腐	-3258
▁3\	-3259
有多少	-3260
这两个	-3261
对方的	-3262
▁box	-3263
之间的关系	-3264
宗教	-3265
屏幕	-3266
菜肴	-3267
你们的	-3268
注意事项	-3269
可再生能源	-3270
传达	-3271
水的	-3272
▁else	-3273
充足的	-3274
突然	-3275
饼干	-3276
cess	-3277
打印	-3278
系统的	-3279
他们在	-3280
并不是	-3281
团队成员	-3282
伙伴	-3283
极端	-3284
不确定	-3285
个人的	-3286
辣椒	-3287
能够在	-3288
先进	-3289
▁您好	-3290
热量	-3291
申请	-3292
和工作	-3293
count	-3294
期望	-3295
环保的文章	-3296
节点	-3297
ates	-3298
团队合作	-3299
次数	-3300
需要的	-3301
保护我们的	-3302
原则	-3303
广泛的	-3304
每个人的	-3305
一件	-3306
特性	-3307
员工的	-3308
和情感	-3309
ards	-3310
公众	-3311
大脑	-3312
密度	-3313
素质	-3314
▁>	-3315
警察	-3316
▁dec	-3317
一项	-3318
主角	-3319
哪种	-3320
球员	-3321
男孩	-3322
可能会导致	-3323
▁books	-3324
▁question	-3325
欧洲	-3326
一场	-3327
更高的	-3328
你会	-3329
理财	-3330
一位年轻的	-3331
运营	-3332
和管理	-3333
不良	-3334
并为	-3335
一年	-3336
的新	-3337
▁ball	-3338
度过	-3339
▁rece	-3340
人口	-3341
古典	-3342
巴黎	-3343
沙拉	-3344
高级	-3345
▁28	-3346
▁fact	-3347
寿命	-3348
duc	-3349
备用	-3350
▁500	-3351
》\	-3352
访问	-3353
来帮助	-3354
子里	-3355
象征	-3356
APP	-3357
▁des	-3358
▁old	-3359
▁year	-3360
营造	-3361
.\"	-3362
我们必须	-3363
仔细	-3364
会对	-3365
四个	-3366
火星	-3367
福利	-3368
▁our	-3369
▁area	-3370
验证	-3371
▁cu	-3372
ving	-3373
也将	-3374
来的	-3375
质量和	-3376
/5	-3377
协议	-3378
推出	-3379
矛盾	-3380
法国	-3381
文化的	-3382
ane	-3383
▁$8	-3384
投资者	-3385
措施来	-3386
温室气体	-3387
▁four	-3388
▁such	-3389
可以从	-3390
ific	-3391
我们公司	-3392
承担	-3393
变革	-3394
的行为	-3395
需要在	-3396
搅拌均匀	-3397
拓展	-3398
▁pur	-3399
妈妈	-3400
突出	-3401
难度	-3402
itive	-3403
多数	-3404
玻璃	-3405
▁sell	-3406
熟悉	-3407
纤维	-3408
了多少	-3409
bles	-3410
地的	-3411
ints	-3412
兔子	-3413
广泛的应用	-3414
被告	-3415
▁150	-3416
需要进行	-3417
体积	-3418
用途	-3419
▁used	-3420
讲解	-3421
阐述	-3422
ress	-3423
中的应用	-3424
古老	-3425
▁5\	-3426
橄榄油	-3427
体系	-3428
客气	-3429
怎样	-3430
早餐	-3431
enc	-3432
可以是	-3433
我已经	-3434
来计算	-3435
▁\\\\	-3436
6,	-3437
无论是	-3438
的关系	-3439
aking	-3440
▁cur	-3441
虚拟现实	-3442
看到了	-3443
本质	-3444
疫苗	-3445
▁em	-3446
数字化	-3447
ink	-3448
▁300	-3449
一杯	-3450
形态	-3451
(1	-3452
处于	-3453
ams	-3454
是人类	-3455
来提高	-3456
的生活方式	-3457
演员	-3458
身份	-3459
这句话	-3460
三种	-3461
nLisa	-3462
回忆	-3463
可以被	-3464
和行为	-3465
摄氏度	-3466
列举	-3467
替代	-3468
ener	-3469
口语	-3470
已知	-3471
是非常重要的	-3472
nSimplify	-3473
扩展	-3474
商店	-3475
男性	-3476
▁help	-3477
nHe	-3478
▁17	-3479
('	-3480
▁小	-3481
匹配	-3482
考试	-3483
耐心	-3484
配合	-3485
▁This	-3486
▁these	-3487
其实	-3488
接着	-3489
有时	-3490
专注于	-3491
身体和	-3492
▁ser	-3493
友谊	-3494
2021	-3495
ween	-3496
紧急	-3497
香蕉	-3498
我们在	-3499
▁its	-3500
忠诚	-3501
给了	-3502
路线	-3503
bove	-3504
rain	-3505
翻炒	-3506
建议吗	-3507
领域中	-3508
事故	-3509
天然	-3510
是最	-3511
照顾	-3512
”。\	-3513
▁pie	-3514
标题	-3515
ood	-3516
有时候	-3517
高效的	-3518
nSimplifying	-3519
さい	-3520
乐趣	-3521
失败	-3522
日益	-3523
流行的	-3524
▁$12	-3525
旋转	-3526
让他们	-3527
圆的	-3528
明亮	-3529
英寸	-3530
观的	-3531
▁above	-3532
▁pre	-3533
▁从文章	-3534
生活中的	-3535
相比	-3536
安全和	-3537
是因为	-3538
tain	-3539
▁¥	-3540
灯光	-3541
治疗方案	-3542
一共	-3543
倾听	-3544
度假	-3545
世界的	-3546
创新的	-3547
疾病的	-3548
▁buy	-3549
》。	-3550
产生的	-3551
获得了	-3552
这样可以	-3553
io	-3554
设定	-3555
tant	-3556
一切	-3557
的季节	-3558
优先	-3559
尽快	-3560
月球	-3561
▁ke	-3562
定律	-3563
和技术	-3564
最近的	-3565
深刻的	-3566
4)	-3567
货币	-3568
▁48	-3569
生态环境	-3570
以下几	-3571
时间的	-3572
▁cho	-3573
需要注意的是	-3574
▁numbers	-3575
频率	-3576
▁请问	-3577
也就是	-3578
卫星	-3579
普遍	-3580
▁一个	-3581
▁pay	-3582
dd	-3583
半径	-3584
尽力	-3585
试图	-3586
可能性	-3587
客户的	-3588
市场上	-3589
的速度	-3590
▁Pro	-3591
▁score	-3592
转化为	-3593
可能需要	-3594
可以提供	-3595
bf	-3596
la	-3597
沙发	-3598
魅力	-3599
不够	-3600
感染	-3601
那个	-3602
压力和	-3603
呈现出	-3604
尤其是	-3605
的情况下	-3606
▁average	-3607
做起	-3608
ased	-3609
%,	-3610
嫌疑	-3611
每周	-3612
400	-3613
izz	-3614
ock	-3615
▁su	-3616
并给出	-3617
通常会	-3618
▁che	-3619
还有其他	-3620
▁between	-3621
tt	-3622
于是	-3623
正面	-3624
萝卜	-3625
尊敬的	-3626
的长度	-3627
ente	-3628
如何制作	-3629
ular	-3630
fl	-3631
战争	-3632
显著	-3633
格式	-3634
疲劳	-3635
()\	-3636
ank	-3637
▁es	-3638
ments	-3639
▁这篇文章	-3640
中有	-3641
浓郁	-3642
ffe	-3643
和理解	-3644
ory	-3645
是非常	-3646
▁long	-3647
公正	-3648
花卉	-3649
范围内	-3650
最喜欢的	-3651
出发	-3652
好处	-3653
实时	-3654
英国	-3655
avid	-3656
▁flo	-3657
▁made	-3658
机遇	-3659
推荐一些	-3660
秋天	-3661
美妙	-3662
轨道	-3663
提到了	-3664
的作用	-3665
歌词	-3666
{2	-3667
推进	-3668
精力	-3669
...	-3670
使用了	-3671
我相信	-3672
竞争力	-3673
管理和	-3674
营销策略	-3675
▁$7	-3676
▁加入	-3677
▁1000	-3678
配料	-3679
我正在	-3680
hone	-3681
▁写一篇关于人工智能	-3682
资料	-3683
▁以下是一个	-3684
放弃	-3685
李明	-3686
遍历	-3687
实际上	-3688
更大的	-3689
微风	-3690
框架	-3691
的一些	-3692
制成	-3693
相加	-3694
都能	-3695
比如说	-3696
地上	-3697
线上	-3698
不少	-3699
柔软	-3700
烤盘	-3701
稳定性	-3702
ating	-3703
无人	-3704
。”\	-3705
ient	-3706
▁如果你	-3707
出生	-3708
杰克	-3709
询问	-3710
com	-3711
多元	-3712
等多种	-3713
▁pages	-3714
▁21	-3715
不需要	-3716
太空探索	-3717
字的	-3718
相等	-3719
过滤	-3720
鸟类	-3721
ner	-3722
mathbf	-3723
▁中	-3724
你想	-3725
展开	-3726
得分	-3727
仿佛	-3728
表现出	-3729
讲一个	-3730
nTotal	-3731
ex	-3732
做法	-3733
制度	-3734
大大	-3735
进行了	-3736
一点	-3737
以免	-3738
剩余	-3739
清新	-3740
运输	-3741
],	-3742
ise	-3743
ric	-3744
的同时	-3745
▁acc	-3746
修复	-3747
偏好	-3748
撰写	-3749
浇水	-3750
begin	-3751
成熟	-3752
给定	-3753
视为	-3754
▁确定	-3755
有任何	-3756
表达了	-3757
rent	-3758
减去	-3759
▁35	-3760
▁45	-3761
中国古代	-3762
选择一个	-3763
关于夏天的	-3764
{3	-3765
历程	-3766
聚会	-3767
个性化的	-3768
ume	-3769
和使用	-3770
家园	-3771
黑暗	-3772
的世界	-3773
cript	-3774
周末	-3775
引擎	-3776
und	-3777
他人的	-3778
通常是	-3779
兴奋	-3780
不再	-3781
融合	-3782
面团	-3783
ility	-3784
以上是	-3785
创造力	-3786
解释一下	-3787
维修	-3788
订单	-3789
▁mod	-3790
▁part	-3791
import	-3792
》,	-3793
协助	-3794
正方	-3795
流畅	-3796
宝藏	-3797
晚餐	-3798
相互作用	-3799
▁非常感谢	-3800
升级	-3801
找到了	-3802
生成一首	-3803
くだ	-3804
并将其	-3805
志愿者	-3806
是如何	-3807
均衡	-3808
引发	-3809
=\\	-3810
物联网	-3811
ください	-3812
LE	-3813
一片	-3814
巨大	-3815
剩下的	-3816
:(	-3817
▁好	-3818
游戏的	-3819
技术的发展	-3820
▁world	-3821
人工智能的发展	-3822
els	-3823
▁lar	-3824
▁Total	-3825
客服	-3826
标签	-3827
简约	-3828
野生	-3829
经典的	-3830
用户体验	-3831
盐和	-3832
精确	-3833
▁side	-3834
拥堵	-3835
有害	-3836
贷款	-3837
准确的	-3838
并进行	-3839
我们要	-3840
用户输入	-3841
人工智能技术的	-3842
固定	-3843
设计和	-3844
等方面的	-3845
nn	-3846
很难	-3847
数据和	-3848
艺术家	-3849
▁There	-3850
亲子	-3851
准确性	-3852
23	-3853
三角形	-3854
IT	-3855
向量	-3856
外的	-3857
属性	-3858
权益	-3859
来到	-3860
画面	-3861
相反	-3862
こと	-3863
奶油	-3864
平等	-3865
石头	-3866
患者的	-3867
的活动	-3868
这部电影	-3869
nJack	-3870
冷静	-3871
概括	-3872
适宜	-3873
pro	-3874
可以使	-3875
atch	-3876
9,	-3877
rs	-3878
会有	-3879
您在	-3880
可以得到	-3881
▁这是一个	-3882
▁从这篇文章	-3883
nimport	-3884
居住	-3885
玩耍	-3886
到你	-3887
的话题	-3888
心理健康	-3889
交往	-3890
激烈	-3891
为我们	-3892
文本内容	-3893
医院	-3894
感知	-3895
▁//	-3896
小明的	-3897
工作和	-3898
▁off	-3899
可以用于	-3900
▁oper	-3901
提供更好的	-3902
短语	-3903
环境和	-3904
计算机科学	-3905
▁Python	-3906
蘑菇	-3907
起源	-3908
▁op	-3909
云计算	-3910
帮助你	-3911
▁She	-3912
▁cook	-3913
和你	-3914
母亲	-3915
现代社会	-3916
AB	-3917
▁大	-3918
环节	-3919
▁length	-3920
监督	-3921
评分	-3922
▁im	-3923
准备好	-3924
未来发展	-3925
完美	-3926
▁32	-3927
特别是	-3928
一篇关于	-3929
环境问题	-3930
重力	-3931
陈述	-3932
出色的	-3933
▁did	-3934
一部	-3935
动机	-3936
并对	-3937
本身	-3938
共同努力	-3939
和小	-3940
提前	-3941
$\\	-3942
ana	-3943
介绍了	-3944
和目标	-3945
贵的	-3946
重大	-3947
提高了	-3948
加密	-3949
回报	-3950
地震	-3951
庆祝	-3952
散文	-3953
流动	-3954
逐步	-3955
都在	-3956
der	-3957
优缺点	-3958
我希望	-3959
等多个	-3960
区块链技术	-3961
制品	-3962
涵盖	-3963
平均值	-3964
沟通和	-3965
▁any	-3966
战略	-3967
病毒	-3968
div	-3969
深呼吸	-3970
人在	-3971
报表	-3972
较低	-3973
结构和	-3974
化学反应	-3975
nf	-3976
景色	-3977
红楼	-3978
self	-3979
▁char	-3980
▁calcul	-3981
监控	-3982
▁St	-3983
存在的	-3984
是一款	-3985
的任务	-3986
组成的	-3987
能不能	-3988
善于	-3989
带有	-3990
陪伴	-3991
str	-3992
创造一个	-3993
人性	-3994
安静	-3995
赢得	-3996
取代	-3997
很大	-3998
活力	-3999
的机会	-4000
量子力学	-4001
▁input	-4002
也要	-4003
场地	-4004
毕业	-4005
流量	-4006
应当	-4007
式的	-4008
都需要	-4009
有所帮助	-4010
层次	-4011
建造	-4012
描绘	-4013
▁建立	-4014
思考和	-4015
▁max	-4016
▁apples	-4017
减肥	-4018
基金	-4019
死亡	-4020
预热	-4021
{\\	-4022
和需求	-4023
是通过	-4024
ting	-4025
神奇	-4026
路上	-4027
和不	-4028
月的	-4029
英尺	-4030
▁incl	-4031
土地	-4032
个朋友	-4033
新产品	-4034
这些都是	-4035
▁points	-4036
▁:	-4037
入手	-4038
ouse	-4039
nMike	-4040
帮忙	-4041
景观	-4042
用水	-4043
设计师	-4044
▁weight	-4045
客厅	-4046
花朵	-4047
的功能	-4048
图像识别	-4049
姓名	-4050
清楚	-4051
遗传	-4052
技巧和	-4053
比赛中	-4054
行业的	-4055
讲述了	-4056
▁form	-4057
现场	-4058
达成	-4059
页面	-4060
ows	-4061
了解一下	-4062
▁back	-4063
%。	-4064
我还	-4065
步行	-4066
途径	-4067
)^2	-4068
主人公	-4069
▁pri	-4070
▁count	-4071
人心	-4072
或缺	-4073
样本	-4074
▁def	-4075
也能	-4076
小鸟	-4077
广阔	-4078
性别	-4079
rees	-4080
▁less	-4081
印度	-4082
可以帮助您	-4083
强大	-4084
最多	-4085
800	-4086
▁product	-4087
描写	-4088
也非常	-4089
参观	-4090
小张	-4091
▁$15	-4092
+1	-4093
和高	-4094
▁你能	-4095
红楼梦	-4096
数据进行	-4097
26	-4098
物流	-4099
筛选	-4100
财产	-4101
相同的	-4102
:\",	-4103
33	-4104
nN	-4105
教授	-4106
新鲜的	-4107
▁bag	-4108
富含	-4109
按钮	-4110
小朋友	-4111
的语言	-4112
不同类型的	-4113
nEmily	-4114
▁multiply	-4115
ix	-4116
地产	-4117
难题	-4118
主题是	-4119
没问题	-4120
计算出	-4121
▁红	-4122
上下	-4123
小狗	-4124
湿度	-4125
燃烧	-4126
认可	-4127
和健康	-4128
▁$0.	-4129
▁costs	-4130
下列	-4131
信用	-4132
等信息	-4133
▁10\	-4134
各自	-4135
学科	-4136
▁food	-4137
诊断和治疗	-4138
小块	-4139
您对	-4140
ils	-4141
大多数	-4142
▁为什么	-4143
▁cont	-4144
▁person	-4145
别人	-4146
清理	-4147
tent	-4148
)$	-4149
je	-4150
奶酪	-4151
色调	-4152
黄油	-4153
▁4\	-4154
▁text	-4155
一致	-4156
保养	-4157
iss	-4158
▁我认为	-4159
享用	-4160
圆形	-4161
还要	-4162
▁请从	-4163
的效果	-4164
什么样的	-4165
▁third	-4166
个体	-4167
关心	-4168
地位	-4169
米饭	-4170
美观	-4171
身边	-4172
可以尝试	-4173
▁name	-4174
unction	-4175
护理	-4176
柔和	-4177
的运动	-4178
风格和	-4179
▁express	-4180
受众	-4181
图案	-4182
经验丰富的	-4183
当代	-4184
ips	-4185
游戏中	-4186
nShe	-4187
提供一个	-4188
蜂蜜	-4189
▁70	-4190
▁最近	-4191
会影响	-4192
我来	-4193
教师	-4194
我喜欢	-4195
数据库	-4196
▁1/2	-4197
至关重要	-4198
听起来不错	-4199
强度	-4200
ful	-4201
▁通过	-4202
left	-4203
面临着	-4204
▁let	-4205
我们已经	-4206
这个表格	-4207
深远的影响	-4208
▁positive	-4209
4\	-4210
客人	-4211
的吗	-4212
装备	-4213
除法	-4214
sta	-4215
艺术品	-4216
人群	-4217
售后	-4218
文档	-4219
每人	-4220
稳定的	-4221
▁str	-4222
当时	-4223
代码实现	-4224
nAlex	-4225
主意	-4226
探究	-4227
ife	-4228
人们对	-4229
项目的	-4230
ures	-4231
▁end	-4232
演奏	-4233
是一家	-4234
资源的	-4235
▁age	-4236
广泛应用	-4237
有所不同	-4238
▁编写一个	-4239
▁receiv	-4240
但在	-4241
最小	-4242
▁6,	-4243
休闲	-4244
危害	-4245
周长	-4246
帮你	-4247
=\"	-4248
▁22	-4249
间的	-4250
顺利	-4251
指的是	-4252
乘以	-4253
突破	-4254
财富	-4255
600	-4256
▁如何	-4257
▁que	-4258
唯一	-4259
指令	-4260
ale	-4261
工作中	-4262
怎么办	-4263
不可或缺	-4264
>>	-4265
夫妻	-4266
更高	-4267
疫情	-4268
笔记	-4269
蜜蜂	-4270
cos	-4271
大自然的	-4272
手表	-4273
紧密	-4274
▁创作	-4275
文学作品	-4276
重要的作用	-4277
ict	-4278
然后将	-4279
▁should	-4280
-5	-4281
公平	-4282
好看	-4283
相当	-4284
anc	-4285
生成的	-4286
▁egg	-4287
entence	-4288
模块	-4289
火山	-4290
王星	-4291
酱油	-4292
里面	-4293
等技术	-4294
编写一个	-4295
一句	-4296
海鲜	-4297
这项	-4298
▁ele	-4299
ls	-4300
岗位	-4301
气球	-4302
辐射	-4303
飞机	-4304
一定要	-4305
alth	-4306
▁元	-4307
元素的	-4308
混合物	-4309
胡萝卜	-4310
提高自己的	-4311
挖掘	-4312
胜利	-4313
不必要的	-4314
nSarah	-4315
人和	-4316
十年	-4317
旋律	-4318
▁sm	-4319
深入的	-4320
采用了	-4321
现在请你	-4322
itial	-4323
旅程	-4324
观看	-4325
账户	-4326
远程	-4327
中国的	-4328
化妆品	-4329
▁home	-4330
家族	-4331
ier	-4332
根据以上	-4333
冰箱	-4334
网上	-4335
积累	-4336
以帮助	-4337
可以帮助医生	-4338
火车	-4339
风暴	-4340
:00	-4341
的具体	-4342
ustome	-4343
照明	-4344
负债	-4345
遗产	-4346
orn	-4347
之旅	-4348
手工	-4349
bin	-4350
以避免	-4351
和数据	-4352
给我们	-4353
需要根据	-4354
停车	-4355
厚的	-4356
废弃	-4357
显得	-4358
.00	-4359
特殊的	-4360
机器翻译	-4361
这是因为	-4362
EO	-4363
合法	-4364
山峰	-4365
机械	-4366
节省	-4367
预订	-4368
我知道	-4369
的步骤	-4370
chat	-4371
不仅可以	-4372
当然可以	-4373
被认为是	-4374
▁current	-4375
▁设计	-4376
6\	-4377
分数	-4378
身高	-4379
黑胡椒	-4380
快速发展	-4381
越来越多	-4382
他想	-4383
充电	-4384
听到	-4385
外部	-4386
取得了	-4387
材料和	-4388
的名字	-4389
nfor	-4390
▁bus	-4391
回答这个问题	-4392
ER	-4393
波动	-4394
(2)	-4395
忽视	-4396
人工智能将	-4397
学术	-4398
跟踪	-4399
orm	-4400
▁选择	-4401
小明手	-4402
强烈的	-4403
满意度	-4404
的动物	-4405
▁colle	-4406
▁以	-4407
动态	-4408
口号	-4409
是个	-4410
有了	-4411
邀请	-4412
olor	-4413
48	-4414
珍惜	-4415
在使用	-4416
▁将以下	-4417
平静	-4418
或是	-4419
病情	-4420
▁sk	-4421
也应该	-4422
▁fin	-4423
▁嗯	-4424
付出	-4425
每一	-4426
人生的	-4427
▁been	-4428
▁plan	-4429
++	-4430
CT	-4431
条款	-4432
短文	-4433
做一些	-4434
放松身心	-4435
正在寻找	-4436
饮食习惯	-4437
▁bott	-4438
▁while	-4439
树木	-4440
以提高	-4441
ities	-4442
ublic	-4443
从小	-4444
干扰	-4445
英雄	-4446
在这种	-4447
它们在	-4448
▁400	-4449
▁run	-4450
▁请帮我	-4451
▁comple	-4452
就像	-4453
河流	-4454
窗户	-4455
▁am	-4456
▁很好	-4457
出现的	-4458
分类为	-4459
和一个	-4460
来进行	-4461
目标和	-4462
谢谢你	-4463
▁reg	-4464
需要我们	-4465
▁您	-4466
多彩	-4467
消息	-4468
深的	-4469
地区的	-4470
未知变量	-4471
▁生成一份	-4472
关闭	-4473
心脏	-4474
月份	-4475
计算器	-4476
建立一个	-4477
▁blue	-4478
▁gall	-4479
▁learn	-4480
▁一	-4481
你有	-4482
发出	-4483
提到	-4484
法院	-4485
提供更	-4486
以下步骤	-4487
保持良好的	-4488
数值	-4489
香草	-4490
太好了	-4491
常用的	-4492
通过对	-4493
▁inv	-4494
越来越多的	-4495
wn	-4496
▁要	-4497
土豆	-4498
这也	-4499
选用	-4500
tes	-4501
的核心	-4502
天气预报	-4503
rue	-4504
喂养	-4505
甜点	-4506
简短	-4507
这家	-4508
关注和	-4509
的服务	-4510
▁don	-4511
▁only	-4512
万元	-4513
去除	-4514
多云	-4515
感激	-4516
支撑	-4517
有益	-4518
oes	-4519
个橙子	-4520
大自然	-4521
并确保	-4522
我们还	-4523
我们公司的	-4524
不适	-4525
替换	-4526
防晒	-4527
香气	-4528
alk	-4529
创新和	-4530
▁180	-4531
▁includ	-4532
)(	-4533
会在	-4534
剧情	-4535
空调	-4536
全新的	-4537
发送	-4538
接近	-4539
负担	-4540
eb	-4541
nb	-4542
回到	-4543
情感和	-4544
▁now	-4545
不错的选择	-4546
的值是多少	-4547
下午	-4548
淇淋	-4549
▁zu	-4550
rough	-4551
它在	-4552
煮熟	-4553
ian	-4554
oun	-4555
冰淇淋	-4556
最适合	-4557
特别的	-4558
▁请为我	-4559
兴趣爱好	-4560
计算机视觉	-4561
3\	-4562
好奇	-4563
方的	-4564
生动	-4565
ina	-4566
为主题	-4567
完成任务	-4568
型的	-4569
数是	-4570
直径	-4571
颜色的	-4572
日常生活	-4573
反射	-4574
就能	-4575
开头	-4576
完美的	-4577
工作效率	-4578
nEmma	-4579
dy	-4580
而在	-4581
运算符	-4582
▁Tom	-4583
ative	-4584
▁love	-4585
两人	-4586
北极	-4587
含量	-4588
强化	-4589
调料	-4590
1.5	-4591
这本书	-4592
▁act	-4593
-4	-4594
启发	-4595
启示	-4596
}\\	-4597
房地产	-4598
业绩	-4599
主动	-4600
代谢	-4601
战斗	-4602
播放	-4603
终于	-4604
way	-4605
我没有	-4606
的氛围	-4607
Alice	-4608
▁impor	-4609
32	-4610
养护	-4611
环境中	-4612
ided	-4613
olog	-4614
▁$50	-4615
小球	-4616
指出	-4617
▁sub	-4618
电子邮件	-4619
▁want	-4620
名叫	-4621
痛苦	-4622
配置	-4623
sin	-4624
▁$100	-4625
▁float	-4626
GB	-4627
包装	-4628
备受	-4629
我要	-4630
碗中	-4631
动物的	-4632
宇宙的	-4633
|----	-4634
上有	-4635
容器	-4636
强调了	-4637
是一部	-4638
电子商务	-4639
▁words	-4640
分解	-4641
每年	-4642
沙漠	-4643
你最近	-4644
和学习	-4645
有一天	-4646
海平面	-4647
我想知道	-4648
户外活动	-4649
蝴蝶	-4650
融入	-4651
这份	-4652
的距离	-4653
▁ver	-4654
po	-4655
从中	-4656
肯定	-4657
适用	-4658
ious	-4659
实际情况	-4660
对环境的	-4661
{5	-4662
です	-4663
交换	-4664
家电	-4665
观念	-4666
钢琴	-4667
▁7,	-4668
只需要	-4669
▁尊敬的	-4670
因为它们	-4671
以来	-4672
的主	-4673
稍等	-4674
多少钱	-4675
1\	-4676
星系	-4677
电商	-4678
▁27	-4679
port	-4680
▁marbles	-4681
nSubtract	-4682
ik	-4683
推断	-4684
插入	-4685
敏感	-4686
文艺	-4687
玫瑰	-4688
疑问	-4689
新技术	-4690
众多	-4691
升高	-4692
新兴	-4693
认识到	-4694
非常适合	-4695
:《	-4696
原始	-4697
节目	-4698
ics	-4699
值得一	-4700
嫌疑人	-4701
提出了	-4702
nLily	-4703
▁prov	-4704
一名年轻的	-4705
][	-4706
南极	-4707
大于	-4708
某种	-4709
创造出	-4710
黑洞的	-4711
▁mat	-4712
采取行动	-4713
67	-4714
打算	-4715
演化	-4716
通信	-4717
ork	-4718
番茄酱	-4719
ases	-4720
chool	-4721
代入	-4722
肉类	-4723
▁spe	-4724
▁distance	-4725
冷却	-4726
年份	-4727
恐龙	-4728
有限	-4729
爱和	-4730
进程	-4731
▁Re	-4732
信息和	-4733
做一个	-4734
蓝色的	-4735
造成了	-4736
uring	-4737
变得越来越	-4738
+2	-4739
争议	-4740
代替	-4741
山脉	-4742
心中	-4743
此时	-4744
炎热	-4745
谨慎	-4746
时间内	-4747
的小说	-4748
骑自行车	-4749
▁pizz	-4750
传说	-4751
和环境	-4752
完整的	-4753
矿物质	-4754
----------------	-4755
点击	-4756
父亲	-4757
解读	-4758
调研	-4759
将它们	-4760
当我们	-4761
问题需要	-4762
配方	-4763
工作的	-4764
风格的	-4765
ices	-4766
多年	-4767
生理	-4768
职责	-4769
▁Le	-4770
塑料袋	-4771
地图	-4772
超市	-4773
ius	-4774
▁给出	-4775
下一个	-4776
咖啡豆	-4777
ution	-4778
撒上	-4779
料酒	-4780
权利	-4781
肥料	-4782
过的	-4783
题材	-4784
严重的	-4785
主要是	-4786
▁非常好	-4787
其中包括	-4788
string	-4789
▁根据给定的	-4790
nSubtracting	-4791
洗衣	-4792
安全的	-4793
对社会	-4794
极大的	-4795
angu	-4796
ject	-4797
存在一些	-4798
积极参与	-4799
▁purch	-4800
它将	-4801
灰色	-4802
简历	-4803
进化	-4804
小明和	-4805
▁doll	-4806
教练	-4807
预计	-4808
饮品	-4809
con	-4810
▁tick	-4811
宁静	-4812
对未来	-4813
tation	-4814
之中	-4815
深处	-4816
智能手机	-4817
angle	-4818
接种	-4819
ove	-4820
许多人	-4821
给我一些	-4822
▁回答问题	-4823
▁inter	-4824
bs	-4825
乐器	-4826
开心	-4827
班级	-4828
追溯	-4829
▁介绍	-4830
rown	-4831
stit	-4832
▁$30	-4833
▁trans	-4834
利于	-4835
回家	-4836
理想	-4837
8\	-4838
恐惧	-4839
硬件	-4840
烤箱中	-4841
的概念	-4842
看电影	-4843
经验的	-4844
保持健康	-4845
初始	-4846
头脑	-4847
帮您	-4848
指定	-4849
早期	-4850
风光	-4851
ots	-4852
带来更多的	-4853
佛教	-4854
命运	-4855
地板	-4856
宝石	-4857
熊猫	-4858
餐饮	-4859
在家里	-4860
导致了	-4861
售后服务	-4862
很快	-4863
自转	-4864
风吹	-4865
\\[	-4866
air	-4867
发现了	-4868
或服务	-4869
▁帮我想	-4870
▁pieces	-4871
做到	-4872
少的	-4873
狮子	-4874
▁0\	-4875
▁8,	-4876
些什么	-4877
ries	-4878
成为一个	-4879
向上	-4880
▁ve	-4881
ws	-4882
万物	-4883
允许	-4884
反思	-4885
折扣	-4886
海边	-4887
▁定义	-4888
atur	-4889
表达自己的	-4890
毫升	-4891
求解	-4892
▁我在	-4893
为人类	-4894
▁请提取	-4895
多次	-4896
绘画	-4897
跟我	-4898
天文学	-4899
的健康	-4900
科技发展	-4901
ience	-4902
的重要组成部分	-4903
ung	-4904
▁建议	-4905
世界各	-4906
还有一些	-4907
......	-4908
删除	-4909
木星	-4910
班牙	-4911
nCh	-4912
有意义	-4913
西班牙	-4914
品牌形象	-4915
▁where	-4916
▁spends	-4917
专门	-4918
挫折	-4919
的高	-4920
tha	-4921
line	-4922
▁编写一份	-4923
▁incre	-4924
免费	-4925
卧室	-4926
合成	-4927
头发	-4928
意外	-4929
有氧	-4930
▁准备	-4931
▁最后	-4932
over	-4933
▁cups	-4934
在此	-4935
形容	-4936
精彩	-4937
繁殖	-4938
列表中	-4939
文本中	-4940
领域的应用	-4941
▁store	-4942
▁terms	-4943
揭示	-4944
教程	-4945
粒子	-4946
爱好者	-4947
▁You	-4948
故事情节	-4949
▁last	-4950
▁using	-4951
以下是我为您	-4952
,$	-4953
》(	-4954
与人	-4955
观测	-4956
ask	-4957
chn	-4958
受到了	-4959
to	-4960
储蓄	-4961
调用	-4962
150	-4963
log	-4964
oup	-4965
一次性	-4966
在过去	-4967
▁len	-4968
Phone	-4969
ample	-4970
卓越	-4971
塑造	-4972
所得	-4973
难忘	-4974
面上	-4975
ese	-4976
▁4.	-4977
建筑物	-4978
让孩子	-4979
▁red	-4980
每个人都应该	-4981
离子	-4982
(1)	-4983
▁推荐	-4984
全面的	-4985
的句子	-4986
erry	-4987
减少污染	-4988
机器学习算法	-4989
▁random	-4990
份额	-4991
注释	-4992
第四	-4993
2.5	-4994
ves	-4995
出现了	-4996
并通过	-4997
方式和	-4998
一个新的	-4999
科幻小说	-5000
也不	-5001
以此	-5002
养生	-5003
服务员	-5004
尽可能地	-5005
您的建议	-5006
▁friends	-5007
保留	-5008
力度	-5009
容量	-5010
汤匙	-5011
come	-5012
▁oun	-5013
▁see	-5014
itional	-5015
(2	-5016
栖息	-5017
漂亮	-5018
选购	-5019
和人类	-5020
形成了	-5021
的力量	-5022
型号	-5023
癌症	-5024
':\	-5025
▁$9	-5026
▁dig	-5027
科技的发展	-5028
谢谢你的建议	-5029
▁编	-5030
亲密	-5031
吃了	-5032
和我	-5033
房产	-5034
树叶	-5035
气氛	-5036
泄露	-5037
面条	-5038
ello	-5039
▁main	-5040
可以帮助人们	-5041
一旦	-5042
作家	-5043
恋爱	-5044
成立	-5045
的文本	-5046
▁ass	-5047
人力	-5048
害怕	-5049
率和	-5050
而不	-5051
▁能否	-5052
▁随着	-5053
很不错	-5054
的想法	-5055
▁ste	-5056
▁list	-5057
▁requ	-5058
定理	-5059
对比	-5060
承受	-5061
uts	-5062
XXXX	-5063
▁$40	-5064
▁initial	-5065
▁different	-5066
友好	-5067
护肤	-5068
碳水	-5069
读书	-5070
目的是	-5071
自然环境	-5072
other	-5073
伦敦	-5074
冬季	-5075
====	-5076
▁way	-5077
▁slic	-5078
消失	-5079
温和	-5080
版本	-5081
orus	-5082
ature	-5083
▁through	-5084
元钱	-5085
带着	-5086
年人	-5087
微笑	-5088
餐具	-5089
分别为	-5090
客户服务	-5091
撰写一篇	-5092
▁eggs	-5093
▁根据以下	-5094
number	-5095
全部	-5096
叶子	-5097
香味	-5098
nel	-5099
生物学	-5100
sh	-5101
消化	-5102
穿越	-5103
还剩	-5104
在医学	-5105
的代表	-5106
的领域	-5107
read	-5108
你能帮我	-5109
如果你喜欢	-5110
最重要的是	-5111
any	-5112
▁+=	-5113
大规模	-5114
成功地	-5115
不仅仅是	-5116
人工智能的应用	-5117
仪式	-5118
简要	-5119
▁<<	-5120
也可能	-5121
我有一个	-5122
▁right	-5123
信心	-5124
加工	-5125
整除	-5126
浏览	-5127
▁Be	-5128
一定会	-5129
和维护	-5130
促销	-5131
探测	-5132
英里	-5133
餐馆	-5134
计划和	-5135
三角形的	-5136
这有助于	-5137
你可以尝试	-5138
▁gives	-5139
去了	-5140
是我	-5141
这只	-5142
▁制定	-5143
▁打开	-5144
减少使用	-5145
高质量的	-5146
▁self	-5147
▁请告诉我	-5148
个月	-5149
可持续性	-5150
操作系统	-5151
▁elif	-5152
初创	-5153
名言	-5154
手册	-5155
电源	-5156
立即	-5157
记得	-5158
▁学习	-5159
兴趣和	-5160
特点和	-5161
88	-5162
商家	-5163
价值和	-5164
写一个	-5165
的详细	-5166
表达式	-5167
中国传统	-5168
▁wants	-5169
人工智能可以	-5170
以下是一篇关于	-5171
▁custome	-5172
前途	-5173
排名	-5174
空中	-5175
min	-5176
同义词	-5177
在选择	-5178
旅游景点	-5179
erson	-5180
▁before	-5181
120	-5182
▁北京	-5183
周围的	-5184
data	-5185
内存	-5186
慈善	-5187
款式	-5188
谷歌	-5189
并使用	-5190
演讲稿	-5191
新闻报道	-5192
有不同的	-5193
▁weeks	-5194
▁health	-5195
▁水	-5196
停止	-5197
草原	-5198
记住	-5199
这么	-5200
形成的	-5201
美元的	-5202
rigin	-5203
我们可以将	-5204
幽默	-5205
指示	-5206
法语	-5207
球队	-5208
进而	-5209
▁定期	-5210
市场的	-5211
让自己	-5212
▁ins	-5213
▁pack	-5214
人工智能在医疗	-5215
净化	-5216
响应	-5217
牛排	-5218
▁ag	-5219
▁适量	-5220
家庭的	-5221
我们对	-5222
非常好	-5223
储存	-5224
劳动	-5225
ita	-5226
▁6\	-5227
古老的	-5228
改变了	-5229
方程式	-5230
李老师	-5231
这使得	-5232
lass	-5233
▁anim	-5234
是一个非常	-5235
向前	-5236
这就是	-5237
▁med	-5238
nMary	-5239
27	-5240
按摩	-5241
老鼠	-5242
这道	-5243
城市交通	-5244
人工智能和	-5245
▁有	-5246
义务	-5247
传输	-5248
乙方	-5249
优雅	-5250
加大	-5251
化石	-5252
工资	-5253
春天	-5254
并根据	-5255
让用户	-5256
如果你想	-5257
在医疗领域的应用	-5258
育儿	-5259
$$\	-5260
rid	-5261
▁(2	-5262
▁An	-5263
各个领域	-5264
▁could	-5265
收获	-5266
给人	-5267
黄瓜	-5268
和创新	-5269
类似于	-5270
红色的	-5271
耐心和	-5272
葡萄酒	-5273
生态平衡	-5274
▁table	-5275
▁string	-5276
从事	-5277
做的	-5278
售价	-5279
手法	-5280
盈利	-5281
补充	-5282
▁75	-5283
其中最	-5284
办公室	-5285
和处理	-5286
查一下	-5287
enta	-5288
▁bill	-5289
激情	-5290
▁Th	-5291
免疫力	-5292
gers	-5293
▁rel	-5294
▁pair	-5295
▁poss	-5296
不得	-5297
忘记	-5298
和个人	-5299
▁del	-5300
2、	-5301
也许	-5302
分散	-5303
高品质	-5304
以下几点	-5305
/100)	-5306
碳水化合物	-5307
▁%	-5308
每种	-5309
的前	-5310
矩阵	-5311
诗吧	-5312
很重要	-5313
的形式	-5314
较高的	-5315
面临的	-5316
可以减少	-5317
▁sentence	-5318
最初	-5319
的游戏	-5320
请稍等	-5321
▁20\	-5322
▁Mar	-5323
不断进步	-5324
我很高兴	-5325
▁fish	-5326
▁math	-5327
▁该	-5328
拼写	-5329
ied	-5330
可以看	-5331
听音乐	-5332
▁Let	-5333
哪个城市	-5334
▁height	-5335
和平	-5336
小组	-5337
分别是	-5338
自然界	-5339
乐意	-5340
卡路	-5341
通风	-5342
▁($	-5343
做什么	-5344
和朋友	-5345
爱情的	-5346
电视剧	-5347
亚洲	-5348
优美	-5349
施肥	-5350
与他人	-5351
anguage	-5352
回归	-5353
好好	-5354
布置	-5355
房子	-5356
这篇	-5357
ele	-5358
iqu	-5359
创业者	-5360
对应的	-5361
物质的	-5362
的发生	-5363
的市场	-5364
碳排放	-5365
▁start	-5366
派对	-5367
策划	-5368
▁为了	-5369
展现了	-5370
研究和	-5371
▁book	-5372
▁slices	-5373
▁Z	-5374
倾向	-5375
几年	-5376
市民	-5377
担任	-5378
瓷砖	-5379
线索	-5380
鱼类	-5381
▁Al	-5382
和技巧	-5383
▁art	-5384
▁same	-5385
▁paint	-5386
少年	-5387
明治	-5388
热带	-5389
非洲	-5390
▁Ex	-5391
和经济	-5392
▁小明有	-5393
更具	-5394
种子	-5395
mod	-5396
pos	-5397
手工艺	-5398
职业发展	-5399
今天的天气	-5400
Script	-5401
▁烤	-5402
前进	-5403
men	-5404
▁cr	-5405
的温度	-5406
alle	-5407
可以用来	-5408
科技创新	-5409
1、	-5410
以其	-5411
标记	-5412
评测	-5413
the	-5414
如果有	-5415
行为和	-5416
这段文本	-5417
海平面上升	-5418
拍摄	-5419
消除	-5420
祝福	-5421
穿过	-5422
▁8\	-5423
▁ph	-5424
我们正在	-5425
环保问题	-5426
内涵	-5427
后果	-5428
喜爱	-5429
月亮	-5430
ual	-5431
并提高	-5432
的大小	-5433
这些技术	-5434
ah	-5435
但它	-5436
聊聊	-5437
gan	-5438
▁提高	-5439
自身的	-5440
我明白了	-5441
但也	-5442
ton	-5443
一部分	-5444
orted	-5445
明天的天气	-5446
▁嗨	-5447
物和	-5448
美容	-5449
▁gu	-5450
发动机	-5451
活动的	-5452
这也是	-5453
领导者	-5454
nAnd	-5455
让人感到	-5456
已经成为了	-5457
▁child	-5458
_{	-5459
传承	-5460
住宿	-5461
保存	-5462
家里	-5463
甲方	-5464
药品	-5465
野餐	-5466
▁未来	-5467
三明治	-5468
展示了	-5469
更快地	-5470
的不同	-5471
自己和	-5472
▁high	-5473
同时也可以	-5474
▁needed	-5475
举办	-5476
付款	-5477
元的	-5478
加剧	-5479
▁ty	-5480
探讨了	-5481
明确的	-5482
▁fam	-5483
科技公司	-5484
gs	-5485
利率	-5486
国内	-5487
开支	-5488
果汁	-5489
对话中	-5490
我一直	-5491
我非常	-5492
切成小块	-5493
olving	-5494
光合	-5495
llo	-5496
模型的	-5497
▁告诉我	-5498
希望这些	-5499
文章中的	-5500
-0	-5501
公寓	-5502
实习	-5503
对您	-5504
很棒	-5505
新生	-5506
陌生	-5507
平方米	-5508
建议您	-5509
这篇文章中	-5510
▁ounces	-5511
▁cookies	-5512
偶数	-5513
原来	-5514
让它	-5515
请求	-5516
较大	-5517
都非常	-5518
00.\	-5519
2000	-5520
▁case	-5521
▁gallons	-5522
DI	-5523
密切	-5524
并与	-5525
意志	-5526
损坏	-5527
烘焙	-5528
▁指导	-5529
人们可以	-5530
pp	-5531
乘坐	-5532
墙面	-5533
希腊	-5534
引人	-5535
面向	-5536
▁cap	-5537
▁him	-5538
另一方面	-5539
消费者的	-5540
▁circ	-5541
result	-5542
坚定	-5543
毛发	-5544
集合	-5545
怎么做	-5546
简单易	-5547
蔬菜和	-5548
设计的	-5549
▁must	-5550
▁school	-5551
选择适合自己的	-5552
公益	-5553
当你	-5554
.\\	-5555
hed	-5556
▁id	-5557
▁价格	-5558
方法是	-5559
请注意	-5560
对我们的	-5561
Hello	-5562
地理	-5563
姆斯	-5564
引入	-5565
挑选	-5566
景象	-5567
燕麦	-5568
罗马	-5569
▁6.	-5570
cted	-5571
们的	-5572
抑郁	-5573
▁总结	-5574
你有没有	-5575
修剪	-5576
几种	-5577
岁月	-5578
明了	-5579
涂抹	-5580
诗人	-5581
一个小	-5582
和市场	-5583
帮助您	-5584
您认为	-5585
数量的	-5586
主要包括	-5587
anges	-5588
人们的生活	-5589
ogle	-5590
}{2}	-5591
善良	-5592
如今	-5593
视野	-5594
信息的	-5595
公司在	-5596
地球上	-5597
金黄色	-5598
▁240	-5599
从而提高	-5600
我们可以从	-5601
29	-5602
nG	-5603
地址	-5604
要素	-5605
发生了	-5606
地了解	-5607
的元素	-5608
更多的人	-5609
ories	-5610
需要更多的	-5611
▁difference	-5612
上了	-5613
可爱	-5614
更是	-5615
渐渐	-5616
len	-5617
ote	-5618
想法和	-5619
问题和	-5620
采取措施	-5621
自动驾驶汽车	-5622
▁common	-5623
da	-5624
试着	-5625
有些人	-5626
有一定的	-5627
▁spend	-5628
▁calculate	-5629
可口	-5630
德国	-5631
引起的	-5632
尤其是在	-5633
搜索引擎	-5634
干旱	-5635
得到的	-5636
每小时	-5637
以及如何	-5638
nDavid	-5639
▁makes	-5640
狐狸	-5641
看待	-5642
角落	-5643
面膜	-5644
中使用	-5645
的状态	-5646
2022	-5647
交通工具	-5648
▁received	-5649
nR	-5650
春节	-5651
纸张	-5652
走了	-5653
还会	-5654
预期	-5655
我们有	-5656
帮助我们	-5657
网络安全	-5658
▁earned	-5659
中华	-5660
判决	-5661
启动	-5662
素食	-5663
红柿	-5664
鉴别	-5665
▁dr	-5666
▁针对	-5667
建立良好的	-5668
▁exper	-5669
▁function	-5670
临床	-5671
提交	-5672
清凉	-5673
生抽	-5674
相应	-5675
真是	-5676
轮胎	-5677
两个人	-5678
能够更好地	-5679
出版	-5680
忽略	-5681
明媚	-5682
没错	-5683
\"。	-5684
写一首	-5685
彼此的	-5686
设备的	-5687
都有着	-5688
一般来说	-5689
我们可以用	-5690
东京	-5691
太多	-5692
恐怖	-5693
无尽	-5694
海浪	-5695
豪华	-5696
革命	-5697
:1.	-5698
方法来	-5699
装饰品	-5700
ploy	-5701
▁给我一个	-5702
生物多样性	-5703
同一	-5704
损害	-5705
故障	-5706
液体	-5707
红酒	-5708
美洲	-5709
ica	-5710
健身房	-5711
轻松地	-5712
alse	-5713
gram	-5714
▁gave	-5715
▁paid	-5716
▁team	-5717
在这种情况下	-5718
px	-5719
发掘	-5720
口碑	-5721
商人	-5722
墙壁	-5723
(\\	-5724
政府和	-5725
idth	-5726
财务状况	-5727
inder	-5728
oogle	-5729
▁techn	-5730
!”	-5731
=2	-5732
不用	-5733
▁dri	-5734
▁创建一个	-5735
是一种非常	-5736
▁总	-5737
偏见	-5738
器材	-5739
器的	-5740
岩石	-5741
让您	-5742
请教	-5743
这座	-5744
CEO	-5745
ash	-5746
▁26	-5747
价值的	-5748
别人的	-5749
增加了	-5750
我无法	-5751
正方形	-5752
需要使用	-5753
iness	-5754
全球气候变化	-5755
▁factor	-5756
手环	-5757
玉米	-5758
评定	-5759
诉讼	-5760
鞋子	-5761
sum	-5762
▁De	-5763
▁输出	-5764
▁die	-5765
制定一个	-5766
野生动物	-5767
产权	-5768
克的	-5769
失业	-5770
以上的	-5771
小红有	-5772
已经在	-5773
被视为	-5774
▁found	-5775
▁green	-5776
(5	-5777
lo	-5778
对待	-5779
将在	-5780
超越	-5781
和资源	-5782
▁trave	-5783
3、	-5784
人才	-5785
回复	-5786
归类	-5787
昨天	-5788
高温	-5789
raw	-5790
}{3	-5791
的味道	-5792
讨论了	-5793
音乐的	-5794
date	-5795
商业模式	-5796
保湿	-5797
发表	-5798
情境	-5799
求出	-5800
硬币	-5801
而成	-5802
近期	-5803
led	-5804
人们在	-5805
多年的	-5806
颜色和	-5807
arch	-5808
空气污染	-5809
你能告诉我	-5810
▁conta	-5811
▁expression	-5812
养成	-5813
听众	-5814
梳理	-5815
猪肉	-5816
生涯	-5817
量和	-5818
▁游戏	-5819
可靠性	-5820
西红柿	-5821
▁1/4	-5822
▁exp	-5823
▁写一篇介绍	-5824
▁dollars	-5825
下去	-5826
加法	-5827
器和	-5828
担忧	-5829
牛顿	-5830
缓慢	-5831
转型	-5832
高速	-5833
add	-5834
▁利用	-5835
需要将	-5836
ather	-5837
▁origin	-5838
展览	-5839
疼痛	-5840
超级	-5841
过多	-5842
equ	-5843
tan	-5844
功能和	-5845
平均分给	-5846
还有很多	-5847
_2	-5848
gy	-5849
茶匙	-5850
融化	-5851
解题	-5852
eter	-5853
很重要的	-5854
▁next	-5855
功效	-5856
小猫	-5857
昆虫	-5858
温暖的	-5859
饮食和	-5860
iron	-5861
nAmy	-5862
▁2000	-5863
▁item	-5864
▁order	-5865
听起来很不错	-5866
作出	-5867
受伤	-5868
您能	-5869
星星	-5870
热水	-5871
细菌	-5872
可用于	-5873
▁kil	-5874
机器人的	-5875
Em	-5876
低碳	-5877
写的	-5878
复制	-5879
比特	-5880
潮流	-5881
的中	-5882
路径	-5883
跳跃	-5884
驱动	-5885
今天的	-5886
需要帮助	-5887
如果我们知道	-5888
▁从文章中提取	-5889
图形	-5890
导航	-5891
菜谱	-5892
ogr	-5893
▁不用	-5894
追溯到	-5895
都应该	-5896
我可以为您	-5897
St	-5898
sc	-5899
寒冷	-5900
欢乐	-5901
已成为	-5902
市中心	-5903
▁dou	-5904
▁values	-5905
▁important	-5906
作业	-5907
依据	-5908
是谁	-5909
血管	-5910
隐藏	-5911
青椒	-5912
在某些	-5913
很容易	-5914
的社会	-5915
▁如果您	-5916
有氧运动	-5917
▁good	-5918
至关重要的	-5919
QL	-5920
光照	-5921
小心	-5922
摄影	-5923
直线	-5924
远离	-5925
配备	-5926
10,	-5927
:30	-5928
的文化	-5929
做出贡献	-5930
医疗服务	-5931
▁line	-5932
gether	-5933
▁together	-5934
Ch	-5935
丽的	-5936
海拔	-5937
rice	-5938
vent	-5939
提供更多的	-5940
▁与	-5941
借助	-5942
大象	-5943
文献	-5944
神话	-5945
▁整理	-5946
太阳的	-5947
表示为	-5948
节约能源	-5949
31	-5950
=1	-5951
wh	-5952
几何	-5953
加快	-5954
围绕	-5955
奇怪	-5956
珠宝	-5957
誉为	-5958
这位	-5959
通知	-5960
黛玉	-5961
▁保持	-5962
之一是	-5963
加速度	-5964
的好处	-5965
ball	-5966
tern	-5967
▁Sie	-5968
▁mov	-5969
成为一名	-5970
▁integer	-5971
▁operator	-5972
_1	-5973
思念	-5974
ert	-5975
两人的	-5976
优点和	-5977
优美的	-5978
出现在	-5979
加强对	-5980
和时间	-5981
的摄入	-5982
nSam	-5983
▁12\	-5984
▁600	-5985
提供更加	-5986
▁comm	-5987
亚马	-5988
传感	-5989
午餐	-5990
线条	-5991
▁ac	-5992
的声音	-5993
▁system	-5994
▁possible	-5995
▁写一篇关于环保的文章	-5996
困境	-5997
我看	-5998
散射	-5999
清水	-6000
旅行的	-6001
第一次	-6002
造成的	-6003
冠军	-6004
想问	-6005
烤制	-6006
疗法	-6007
瞬间	-6008
等式	-6009
导致的	-6010
nums	-6011
深入了解	-6012
:\"))\	-6013
98	-6014
nK	-6015
友情	-6016
外星	-6017
效益	-6018
斯坦	-6019
注册	-6020
现状	-6021
}$.	-6022
反映了	-6023
大学生	-6024
的意思	-6025
▁$1.	-6026
个人信息	-6027
可以增加	-6028
经验丰富	-6029
问题的答案是	-6030
:1	-6031
其它	-6032
抽象	-6033
木材	-6034
洗净	-6035
进度	-6036
金星	-6037
-10	-6038
你想要	-6039
存在着	-6040
并提出	-6041
教育和	-6042
▁在一个	-6043
velop	-6044
▁following	-6045
不到	-6046
办法	-6047
图书	-6048
并用	-6049
暴力	-6050
漫步	-6051
走向	-6052
不断的	-6053
2020	-6054
mber	-6055
以下是我	-6056
帮助医生	-6057
malle	-6058
nChorus	-6059
一座	-6060
任意	-6061
坐标	-6062
才华	-6063
沉浸	-6064
绝对	-6065
落叶	-6066
最大值	-6067
相对论	-6068
acks	-6069
相遇	-6070
租赁	-6071
鲜花	-6072
▁9,	-6073
严格的	-6074
其他人	-6075
▁boxes	-6076
ml	-6077
ty	-6078
公元	-6079
即将	-6080
填写	-6081
宝玉	-6082
▁分析	-6083
亚马逊	-6084
影响力	-6085
很多人	-6086
很高的	-6087
的概率	-6088
的表现	-6089
笔记本	-6090
要保持	-6091
▁par	-6092
光合作用	-6093
请问您需要	-6094
前的	-6095
向您	-6096
归纳	-6097
橙色	-6098
鸟儿	-6099
(3)	-6100
先进的	-6101
卡路里	-6102
您觉得	-6103
洗衣机	-6104
▁1.5	-6105
可以实现	-6106
好像	-6107
摇滚	-6108
棕色	-6109
点的	-6110
精致	-6111
说话	-6112
边长	-6113
并且在	-6114
清晰的	-6115
税务	-6116
绩效	-6117
完成了	-6118
专业人士	-6119
你的建议	-6120
这些信息	-6121
antha	-6122
▁public	-6123
=3	-6124
した	-6125
极其	-6126
请您	-6127
▁ob	-6128
交流和	-6129
以保证	-6130
春天的	-6131
来确定	-6132
orld	-6133
rand	-6134
能源消耗	-6135
小明和小红	-6136
随着技术的	-6137
上面问题的答案是	-6138
乘法	-6139
共鸣	-6140
行的	-6141
零食	-6142
多少个	-6143
我现在	-6144
我们也需要	-6145
适合自己的	-6146
惩罚	-6147
枫叶	-6148
汉堡	-6149
要点	-6150
实现了	-6151
告诉我们	-6152
很高兴见	-6153
nCost	-6154
▁sand	-6155
递归	-6156
▁产品	-6157
总共有	-6158
电影的	-6159
被誉为	-6160
医学影像	-6161
最高温度	-6162
重要作用	-6163
▁spec	-6164
如果我们知道上面问题的答案是	-6165
:2	-6166
桌子	-6167
的首	-6168
睡觉	-6169
细腻	-6170
队伍	-6171
频繁	-6172
能够为	-6173
▁pol	-6174
▁sav	-6175
其中一个	-6176
电子产品	-6177
ology	-6178
▁\\\\\	-6179
可视	-6180
命令	-6181
是不	-6182
(1,	-6183
世界上	-6184
学习的	-6185
应用的	-6186
nSolving	-6187
下雨	-6188
整洁	-6189
每月	-6190
窗帘	-6191
你知道	-6192
▁cle	-6193
▁game	-6194
してください	-6195
em	-6196
分支	-6197
影片	-6198
鸭子	-6199
()`	-6200
▁pop	-6201
进行调整	-6202
plying	-6203
ability	-6204
OS	-6205
字体	-6206
尿病	-6207
底部	-6208
更改	-6209
沿着	-6210
衬衫	-6211
▁(3	-6212
▁夏天	-6213
上下文	-6214
以保持	-6215
我想要	-6216
投资人	-6217
糖尿病	-6218
需要对	-6219
需要我	-6220
▁0.5	-6221
▁你可以	-6222
加入一些	-6223
您可以在	-6224
▁hold	-6225
-8	-6226
你要	-6227
坚果	-6228
片刻	-6229
/2)	-6230
ape	-6231
ved	-6232
▁Me	-6233
▁本文	-6234
伟大的	-6235
故事的	-6236
的代码	-6237
还没有	-6238
可以追溯到	-6239
append	-6240
两倍	-6241
内在	-6242
哈利	-6243
纪念	-6244
血液	-6245
DIY	-6246
enn	-6247
▁er	-6248
最高的	-6249
erse	-6250
地球上的	-6251
▁walk	-6252
▁gener	-6253
渴望	-6254
边的	-6255
生产力	-6256
白色的	-6257
ctor	-6258
生产效率	-6259
让我们一起	-6260
▁System	-6261
4}	-6262
下一	-6263
信念	-6264
器官	-6265
演出	-6266
▁Jo	-6267
方法和	-6268
ping	-6269
nEach	-6270
nThis	-6271
▁house	-6272
▁多	-6273
导演	-6274
杯子	-6275
以满足	-6276
意义和	-6277
请随时	-6278
需要有	-6279
2019	-6280
▁try	-6281
自然风光	-6282
▁life	-6283
nAfter	-6284
减法	-6285
减缓	-6286
微信	-6287
批评	-6288
灯泡	-6289
灵魂	-6290
你应该	-6291
噪音	-6292
问答	-6293
ift	-6294
提到的	-6295
的歌曲	-6296
这些方法	-6297
▁balls	-6298
位数	-6299
光的	-6300
几乎	-6301
可乐	-6302
哈哈	-6303
小芳	-6304
温柔	-6305
秘密	-6306
yle	-6307
可以去	-6308
大部分	-6309
活动和	-6310
circ	-6311
pple	-6312
▁perc	-6313
一个简单的	-6314
千米	-6315
危机	-6316
号码	-6317
听取	-6318
平时	-6319
悠久	-6320
惊喜	-6321
期限	-6322
现有	-6323
紫色	-6324
纠纷	-6325
花了	-6326
葱姜	-6327
')\	-6328
▁hand	-6329
您可以尝试	-6330
65	-6331
出门	-6332
部件	-6333
rit	-6334
实用的	-6335
引起了	-6336
一些问题	-6337
人类智能	-6338
电动汽车	-6339
翻译成中文	-6340
光芒	-6341
出去	-6342
听听	-6343
线性	-6344
制造业	-6345
句子中	-6346
和蔬菜	-6347
的家庭	-6348
的帮助	-6349
种类的	-6350
imum	-6351
▁2021	-6352
▁real	-6353
(3	-6354
旅途	-6355
车型	-6356
部位	-6357
集成	-6358
▁li	-6359
内心的	-6360
和提高	-6361
运动和	-6362
在不同的	-6363
特别是在	-6364
▁pizza	-6365
开车	-6366
等级	-6367
行程	-6368
高中	-6369
▁23	-6370
一句话	-6371
将成为	-6372
然后再	-6373
还有什么	-6374
效应	-6375
灭绝	-6376
珊瑚	-6377
翅膀	-6378
和改进	-6379
描述了	-6380
有一只	-6381
让读者	-6382
▁cor	-6383
$.	-6384
DP	-6385
季度	-6386
实体	-6387
本地	-6388
迭代	-6389
bel	-6390
旅游的	-6391
▁ate	-6392
也是一个	-6393
城市规划	-6394
数据隐私	-6395
这个项目	-6396
adius	-6397
产品和服务	-6398
什么类型的	-6399
▁cards	-6400
城堡	-6401
税收	-6402
在进行	-6403
幸福感	-6404
影响了	-6405
现在请	-6406
高血压	-6407
我们还需要	-6408
np	-6409
它会	-6410
抱歉	-6411
火灾	-6412
私人	-6413
而异	-6414
靠近	-6415
高端	-6416
参与者	-6417
另一种	-6418
栖息地	-6419
过多的	-6420
▁我最近	-6421
很感兴趣	-6422
▁base	-6423
以便更好地	-6424
nLucas	-6425
▁language	-6426
▁additional	-6427
by	-6428
中间	-6429
主持	-6430
奇妙	-6431
她在	-6432
最为	-6433
治理	-6434
西瓜	-6435
要有	-6436
马克	-6437
可行的	-6438
的人生	-6439
的口感	-6440
rans	-6441
一个人的	-6442
<<	-6443
今年	-6444
局限	-6445
携带	-6446
收到	-6447
ody	-6448
▁假设	-6449
万美元	-6450
有利于	-6451
面积为	-6452
▁los	-6453
您有什么	-6454
生活质量	-6455
财务报表	-6456
这个过程	-6457
ploye	-6458
解决这个问题	-6459
).	-6460
ón	-6461
博客	-6462
星际	-6463
舞台	-6464
趣味	-6465
▁了解	-6466
一些人	-6467
以减少	-6468
吸引力	-6469
▁ent	-6470
应用场景	-6471
anana	-6472
之情	-6473
增添	-6474
悬疑	-6475
进制	-6476
团队的	-6477
平台上	-6478
▁20%	-6479
商业计划	-6480
谈判	-6481
相对较	-6482
可以看出	-6483
▁even	-6484
比亚	-6485
可靠的	-6486
展现出	-6487
并返回	-6488
的艺术	-6489
▁pat	-6490
如何使用	-6491
市场份额	-6492
希望能够	-6493
▁process	-6494
:3	-6495
波那	-6496
闰年	-6497
Luc	-6498
aph	-6499
性能和	-6500
有可能	-6501
的公司	-6502
的排放	-6503
达到了	-6504
餐厅的	-6505
▁$60	-6506
▁away	-6507
吸引更多的	-6508
▁produc	-6509
一层	-6510
占据	-6511
徒步	-6512
永恒	-6513
精度	-6514
连续	-6515
选手	-6516
风能	-6517
Web	-6518
文章的	-6519
难忘的	-6520
额外的	-6521
ever	-6522
更准确地	-6523
▁prof	-6524
解决问题的	-6525
▁brown	-6526
+3	-6527
,《	-6528
切碎	-6529
弯曲	-6530
支笔	-6531
表情	-6532
波那契	-6533
的材料	-6534
程度上	-6535
ause	-6536
book	-6537
▁est	-6538
▁tem	-6539
相关信息	-6540
的主要观点	-6541
千克	-6542
字典	-6543
寿司	-6544
湿润	-6545
烧烤	-6546
生机	-6547
积分	-6548
max	-6549
和研究	-6550
的未来	-6551
enny	-6552
斐波那契	-6553
这是一种	-6554
每个人都有	-6555
协商	-6556
开启	-6557
猫的	-6558
理性	-6559
鲜艳	-6560
影响到	-6561
生产和	-6562
duce	-6563
不断提高	-6564
了自己的	-6565
找到一个	-6566
更加注重	-6567
锻炼身体	-6568
加入适量的	-6569
新手	-6570
爵士	-6571
茶叶	-6572
解析	-6573
想象力	-6574
表面的	-6575
▁cup	-6576
一种新型	-6577
可以让你	-6578
没有任何	-6579
让我们的	-6580
▁dogs	-6581
可以更好地	-6582
▁white	-6583
84	-6584
In	-6585
乐观	-6586
公交	-6587
发音	-6588
坐在	-6589
小于	-6590
应急	-6591
我不	-6592
摩擦	-6593
煸炒	-6594
跳舞	-6595
送给	-6596
tic	-6597
▁vo	-6598
充分的	-6599
努力和	-6600
空气中	-6601
▁160	-6602
▁soc	-6603
你的公司	-6604
生成一篇	-6605
听起来很有	-6606
▁combin	-6607
▁smalle	-6608
之和	-6609
正式	-6610
灯具	-6611
立方	-6612
繁荣	-6613
见解	-6614
ann	-6615
▁函数	-6616
和优化	-6617
工具和	-6618
的存在	-6619
人类活动	-6620
可以利用	-6621
太棒	-6622
点和	-6623
站在	-6624
赔偿	-6625
ais	-6626
oph	-6627
ull	-6628
zen	-6629
为用户	-6630
如果是	-6631
减轻压力	-6632
医疗行业	-6633
帮助他们	-6634
这个故事	-6635
这种情况	-6636
避免过度	-6637
owers	-6638
▁speed	-6639
困惑	-6640
工厂	-6641
施工	-6642
磁场	-6643
还原	-6644
道理	-6645
▁注意	-6646
人性的	-6647
太棒了	-6648
的所有	-6649
能力的	-6650
rest	-6651
法律法规	-6652
▁pass	-6653
▁生成一段	-6654
和对	-6655
总统	-6656
民族	-6657
oth	-6658
并保持	-6659
绿色的	-6660
考虑过	-6661
重要性	-6662
vers	-6663
▁3.\	-6664
一些新的	-6665
感到非常	-6666
最低温度	-6667
▁earns	-6668
▁prime	-6669
中央	-6670
发酵	-6671
直角	-6672
rib	-6673
长度为	-6674
手工艺品	-6675
TM	-6676
宽度	-6677
歌手	-6678
闻名	-6679
▁Sm	-6680
包含了	-6681
输入的	-6682
以下问题	-6683
用户可以	-6684
营养成分	-6685
ln	-6686
但他	-6687
顾问	-6688
▁1)	-6689
▁5.	-6690
各种各	-6691
品牌和	-6692
▁vis	-6693
流行音乐	-6694
的天气预报	-6695
//	-6696
76	-6697
9\	-6698
数百	-6699
构造	-6700
气象	-6701
酸奶	-6702
不仅是	-6703
来完成	-6704
这里的	-6705
丰富多彩	-6706
根据您的	-6707
words	-6708
85	-6709
以后	-6710
冰块	-6711
女士	-6712
▁讲解	-6713
优质的	-6714
潜在的	-6715
ized	-6716
▁may	-6717
是否存在	-6718
空气质量	-6719
进行排序	-6720
生态系统的	-6721
entage	-6722
nAmount	-6723
-6	-6724
[0	-6725
▁Q	-6726
男子	-6727
这对	-6728
180	-6729
arm	-6730
cus	-6731
相似度	-6732
\":\	-6733
cept	-6734
ides	-6735
plit	-6736
列表中的	-6737
的重要因素	-6738
:5	-6739
乘客	-6740
刹车	-6741
失落	-6742
幅画	-6743
微波	-6744
朗玛	-6745
独自	-6746
珠穆	-6747
转移	-6748
?\"	-6749
▁72	-6750
代表着	-6751
才能够	-6752
珠穆朗玛	-6753
▁weigh	-6754
对其	-6755
彻底	-6756
有用	-6757
都很	-6758
面部	-6759
ula	-6760
▁0,	-6761
▁回答	-6762
发现自己	-6763
学习编程	-6764
智能化的	-6765
软件开发	-6766
▁feel	-6767
是世界上最	-6768
珠穆朗玛峰	-6769
▁tickets	-6770
推移	-6771
样式	-6772
相处	-6773
短暂	-6774
莉莉	-6775
谈谈	-6776
这场	-6777
aut	-6778
代码中	-6779
小说的	-6780
扮演着	-6781
明显的	-6782
arket	-6783
▁buys	-6784
自己喜欢的	-6785
▁night	-6786
▁discount	-6787
co	-6788
体型	-6789
打粉	-6790
航空	-6791
ery	-6792
无限的	-6793
时间表	-6794
添加到	-6795
一个关于	-6796
药物研发	-6797
viron	-6798
br	-6799
不起	-6800
困扰	-6801
uff	-6802
以达到	-6803
使我们	-6804
写字母	-6805
必不可	-6806
现在的	-6807
▁Car	-6808
了一系列	-6809
治疗方法	-6810
ctive	-6811
▁impro	-6812
公共交通工具	-6813
▁change	-6814
与你	-6815
求职	-6816
点子	-6817
爆炸	-6818
▁其他	-6819
历史上	-6820
灵活性	-6821
的方向	-6822
第三个	-6823
调味料	-6824
▁没问题	-6825
的需求和	-6826
科学家们	-6827
▁months	-6828
地铁	-6829
年度	-6830
lst	-6831
我同意	-6832
能源的	-6833
附近的	-6834
|---	-6835
头脑风暴	-6836
帮助人们	-6837
的质量和	-6838
▁most	-6839
但不	-6840
承诺	-6841
拯救	-6842
湖泊	-6843
谈论	-6844
进攻	-6845
快乐和	-6846
▁$25	-6847
市场需求	-6848
{4	-6849
大蒜	-6850
摄像	-6851
比萨	-6852
海水	-6853
都要	-6854
在家中	-6855
多样化	-6856
所有人	-6857
是星期	-6858
的单词	-6859
的学生	-6860
的植物	-6861
知名度	-6862
让你的	-6863
这一点	-6864
黄色的	-6865
▁deg	-6866
塑料污染	-6867
▁shir	-6868
知识和技能	-6869
▁以下是一段	-6870
有人	-6871
清爽	-6872
白天	-6873
羽毛	-6874
而又	-6875
胜地	-6876
行政	-6877
造型	-6878
ABC	-6879
有机会	-6880
病人的	-6881
资源和	-6882
那么他	-6883
首先要	-6884
ider	-6885
你可以在	-6886
制作方法	-6887
缓解压力	-6888
这种方法	-6889
▁just	-6890
▁initially	-6891
好友	-6892
椅子	-6893
洪水	-6894
清晨	-6895
它能够	-6896
将这些	-6897
极大地	-6898
也越来越	-6899
语音助手	-6900
▁Each	-6901
▁divided	-6902
▁本	-6903
など	-6904
依然	-6905
叙述	-6906
开关	-6907
问我	-6908
ads	-6909
供应商	-6910
信任和	-6911
可回收	-6912
类型和	-6913
运动员	-6914
我们使用	-6915
避免使用	-6916
我们的公司	-6917
根据以上这段	-6918
出租	-6919
简化	-6920
通讯	-6921
风味	-6922
但它们	-6923
变成了	-6924
希望能	-6925
▁Bob	-6926
表格信息	-6927
重要的是	-6928
=4	-6929
=5	-6930
五言	-6931
可可	-6932
折叠	-6933
诗句	-6934
餐桌	-6935
▁商品	-6936
你是否	-6937
注意到	-6938
自信和	-6939
青少年	-6940
ines	-6941
中的一个	-6942
最高气温	-6943
▁\"\"	-6944
▁point	-6945
▁animals	-6946
RO	-6947
下载	-6948
丽莎	-6949
必需	-6950
深深	-6951
潜水	-6952
营业	-6953
的定义	-6954
的特征	-6955
的糖果	-6956
ason	-6957
ning	-6958
身体状况	-6959
▁sells	-6960
对环境的影响	-6961
▁生成一个关于	-6962
▁请写一篇关于	-6963
▁integers	-6964
一半	-6965
一周	-6966
公转	-6967
利息	-6968
发电	-6969
大众	-6970
年级	-6971
为客户	-6972
性问题	-6973
更深入	-6974
经历了	-6975
团队协作	-6976
是太阳系	-6977
压力和焦虑	-6978
▁great	-6979
温室气体排放	-6980
ew	-6981
对你	-6982
日程	-6983
晴朗	-6984
海岸	-6985
问卷	-6986
饲养	-6987
黄金	-6988
▁2)	-6989
成一个	-6990
的人物	-6991
营养素	-6992
语言的	-6993
uter	-6994
主要内容	-6995
基于以上	-6996
感受到了	-6997
我们相信	-6998
这样才能	-6999
进行分析	-7000
未来的发展	-7001
▁small	-7002
▁oranges	-7003
%\	-7004
▁引	-7005
克斯	-7006
吉他	-7007
打破	-7008
火腿	-7009
饮用	-7010
uck	-7011
▁公司	-7012
但是在	-7013
归类为	-7014
充分利用	-7015
化石燃料	-7016
▁date	-7017
▁expl	-7018
▁took	-7019
▁large	-7020
34	-7021
客观	-7022
小镇	-7023
抽取	-7024
纳税	-7025
▁42	-7026
不错的	-7027
世界中	-7028
涵盖了	-7029
ield	-7030
tand	-7031
合作伙伴	-7032
安全问题	-7033
职业生涯	-7034
ients	-7035
▁cars	-7036
机器学习和	-7037
随着时间的	-7038
伴侣	-7039
少量	-7040
秋风	-7041
诚实	-7042
nOn	-7043
了一家	-7044
无尽的	-7045
的角度	-7046
算法的	-7047
▁eat	-7048
视觉效果	-7049
▁room	-7050
改变我们的	-7051
最受欢迎的	-7052
混合在一起	-7053
请问有什么	-7054
▁高	-7055
做了	-7056
发育	-7057
是将	-7058
概述	-7059
消极	-7060
追逐	-7061
ien	-7062
方式来	-7063
如何提高	-7064
职业规划	-7065
ocolate	-7066
▁以下是一个表格信息	-7067
也为	-7068
吃掉	-7069
战术	-7070
救援	-7071
涂上	-7072
或者是	-7073
的食品	-7074
设备和	-7075
ille	-7076
保护地球	-7077
总体来说	-7078
一些有趣的	-7079
▁James	-7080
96	-7081
值为	-7082
内置	-7083
来了	-7084
王明	-7085
让他	-7086
}$\	-7087
内部的	-7088
的技巧	-7089
亲子关系	-7090
首先需要	-7091
撰写一篇关于	-7092
▁original	-7093
倡导	-7094
反转	-7095
惊叹	-7096
模仿	-7097
在哪里	-7098
并解释	-7099
让我来	-7100
ling	-7101
▁从文章中提取出	-7102
公斤	-7103
军事	-7104
和无	-7105
心的	-7106
日子	-7107
气和	-7108
登录	-7109
警方	-7110
香料	-7111
和压力	-7112
它不仅	-7113
减少浪费	-7114
身心健康	-7115
▁trees	-7116
▁choice	-7117
てい	-7118
各位	-7119
把握	-7120
cts	-7121
▁55	-7122
▁Em	-7123
▁数据	-7124
在金融	-7125
说明书	-7126
描述一下	-7127
更加高效	-7128
的价格是	-7129
▁penc	-7130
▁model	-7131
两人的对话内容	-7132
ultiplying	-7133
与此	-7134
尾巴	-7135
性价	-7136
指数	-7137
歧视	-7138
糖和	-7139
鲸鱼	-7140
nif	-7141
发生的	-7142
的物品	-7143
请给我	-7144
nnum	-7145
work	-7146
▁den	-7147
▁key	-7148
▁prob	-7149
您可以考虑	-7150
我们还可以	-7151
:[	-7152
会被	-7153
如同	-7154
接收	-7155
时空	-7156
牛仔	-7157
红烧	-7158
-15	-7159
以获得	-7160
通常在	-7161
速度和	-7162
客户需求	-7163
我会考虑	-7164
了解自己的	-7165
一颗	-7166
不好	-7167
分割	-7168
有多	-7169
术语	-7170
空格	-7171
50\	-7172
▁av	-7173
共同的	-7174
原材料	-7175
时间来	-7176
最佳的	-7177
柠檬汁	-7178
▁gir	-7179
不知道该	-7180
家庭教育	-7181
这个句子	-7182
verse	-7183
在日常生活中	-7184
来解决这个问题	-7185
▁learning	-7186
▁以下是一段两人的对话内容	-7187
举行	-7188
到来	-7189
竞技	-7190
车的	-7191
运作	-7192
雨林	-7193
ium	-7194
oon	-7195
传感器	-7196
新能源	-7197
ches	-7198
▁10,	-7199
▁ang	-7200
作为一个	-7201
你也可以	-7202
如果您喜欢	-7203
iPhone	-7204
▁build	-7205
仅仅	-7206
减压	-7207
攻略	-7208
绽放	-7209
膳食	-7210
开始了	-7211
更多地	-7212
化学物质	-7213
有很大的	-7214
阳光明媚	-7215
▁star	-7216
▁triangle	-7217
切片	-7218
是哪	-7219
火锅	-7220
牙齿	-7221
的书	-7222
精细	-7223
级别	-7224
起到	-7225
追踪	-7226
(10	-7227
▁au	-7228
数据中	-7229
更喜欢	-7230
行业中	-7231
音乐会	-7232
▁不客气	-7233
可以促进	-7234
apple	-7235
▁test	-7236
远处	-7237
的知识	-7238
可以增强	-7239
社会责任	-7240
3:	-7241
AR	-7242
卡片	-7243
吃的	-7244
土星	-7245
或不	-7246
手臂	-7247
推销	-7248
耐用	-7249
腌制	-7250
膨胀	-7251
颗糖	-7252
erc	-7253
ern	-7254
主持人	-7255
体验和	-7256
慢慢地	-7257
的衣服	-7258
长期的	-7259
你的想法	-7260
可以进行	-7261
清洁能源	-7262
过程中的	-7263
非常广泛	-7264
头部	-7265
悲伤	-7266
ail	-7267
▁-1	-7268
▁34	-7269
感谢您	-7270
物体的	-7271
ones	-7272
▁top	-7273
产生影响	-7274
▁dist	-7275
你可以考虑	-7276
▁divis	-7277
▁friend	-7278
五种	-7279
伸展	-7280
口罩	-7281
啤酒	-7282
家中	-7283
演示	-7284
联合	-7285
关注的	-7286
城市化	-7287
有用的	-7288
根铅笔	-7289
▁0:\	-7290
▁15\	-7291
也带来了	-7292
代码解释	-7293
社交网络	-7294
▁给定一个	-7295
从未	-7296
官方	-7297
您想	-7298
李白	-7299
溶液	-7300
起了	-7301
违反	-7302
▁7\	-7303
一起去	-7304
优先级	-7305
尊重和	-7306
我应该	-7307
是否为	-7308
是基于	-7309
汽车的	-7310
观点和	-7311
▁And	-7312
准确性和	-7313
最著名的	-7314
设计方案	-7315
▁bags	-7316
▁ener	-7317
▁chocolate	-7318
'\	-7319
SS	-7320
多吃	-7321
得以	-7322
总数	-7323
我有	-7324
手指	-7325
登山	-7326
统一	-7327
).\	-7328
▁请你	-7329
价格为	-7330
清新的	-7331
的态度	-7332
的数字	-7333
▁mil	-7334
▁rate	-7335
全球范围内	-7336
斐波那契数列	-7337
numbers	-7338
nMultiplying	-7339
7\	-7340
nV	-7341
品味	-7342
天数	-7343
实惠	-7344
山区	-7345
拒绝	-7346
母乳	-7347
老虎	-7348
道具	-7349
实验室	-7350
浪漫的	-7351
而言之	-7352
▁bro	-7353
环保事业	-7354
▁给我一些	-7355
便宜	-7356
冰川	-7357
尼亚	-7358
照片	-7359
糖分	-7360
^\\	-7361
amb	-7362
背景和	-7363
lish	-7364
vert	-7365
文化遗产	-7366
▁True	-7367
重要的角色	-7368
被广泛应用于	-7369
一辆	-7370
出售	-7371
后来	-7372
想到	-7373
盒子	-7374
细致	-7375
iet	-7376
▁On	-7377
▁为我	-7378
是由于	-7379
来选择	-7380
比赛的	-7381
▁$<<	-7382
具体情况	-7383
在未来的	-7384
维生素和	-7385
▁well	-7386
产品或服务	-7387
不懈	-7388
创始	-7389
极为	-7390
每组	-7391
深受	-7392
用餐	-7393
贸易	-7394
这两	-7395
倾向于	-7396
可视化	-7397
适应性	-7398
人类社会	-7399
▁cans	-7400
▁business	-7401
以前	-7402
巴厘	-7403
敏捷	-7404
走过	-7405
▁**	-7406
享受到	-7407
单词的	-7408
和放松	-7409
所得税	-7410
空间的	-7411
音乐和	-7412
itle	-7413
▁Com	-7414
▁tra	-7415
科学研究	-7416
声誉	-7417
虚假	-7418
误解	-7419
逃脱	-7420
长城	-7421
lie	-7422
tar	-7423
买了一	-7424
你喜欢	-7425
是为了	-7426
泡打粉	-7427
系统和	-7428
营造出	-7429
需要用	-7430
aves	-7431
ires	-7432
一份关于	-7433
']	-7434
分离	-7435
名的	-7436
资深	-7437
-1)	-7438
数量为	-7439
的部分	-7440
都能够	-7441
0000	-7442
▁sup	-7443
时间和精力	-7444
我有一个问题	-7445
▁create	-7446
^4	-7447
”(	-7448
ため	-7449
华为	-7450
掌控	-7451
星空	-7452
是啊	-7453
碰撞	-7454
陷入	-7455
che	-7456
为基础	-7457
我们来	-7458
时期的	-7459
是一件	-7460
的笑话	-7461
iven	-7462
▁2.\	-7463
我们才能	-7464
数学问题	-7465
这些数据	-7466
它们之间的	-7467
对您有所帮助	-7468
▁environ	-7469
JavaScript	-7470
(-	-7471
(4	-7472
情人	-7473
花香	-7474
见面	-7475
边缘	-7476
里程	-7477
咖啡因	-7478
失去了	-7479
形式的	-7480
的阳光	-7481
第一步	-7482
网站上	-7483
提供帮助	-7484
89	-7485
kg	-7486
会让	-7487
原料	-7488
喜悦	-7489
复兴	-7490
多项	-7491
抓住	-7492
舒缓	-7493
par	-7494
ris	-7495
建筑的	-7496
性价比	-7497
▁sal	-7498
▁come	-7499
▁quar	-7500
随着时间的推移	-7501
go	-7502
上去	-7503
向我	-7504
实例	-7505
新人	-7506
模板	-7507
看来	-7508
赞扬	-7509
个小时	-7510
主要的	-7511
小明家	-7512
文化中	-7513
给人们	-7514
转换成	-7515
ared	-7516
▁Cre	-7517
▁loc	-7518
我将为您	-7519
自然保护	-7520
while	-7521
自己的梦想	-7522
random	-7523
ization	-7524
`,	-7525
四季	-7526
座位	-7527
必备	-7528
无数	-7529
无线	-7530
衣物	-7531
过敏	-7532
降雨	-7533
ael	-7534
new	-7535
pha	-7536
▁进行	-7537
也能够	-7538
南极洲	-7539
和他的	-7540
是指在	-7541
更高效	-7542
acci	-7543
room	-7544
极端天气	-7545
玩家需要	-7546
▁serv	-7547
▁ways	-7548
▁我想知道	-7549
我们也可以	-7550
▁never	-7551
ID	-7552
奋斗	-7553
智力	-7554
欺诈	-7555
注入	-7556
种族	-7557
防水	-7558
fic	-7559
por	-7560
卫生间	-7561
推荐的	-7562
生活在	-7563
ruct	-7564
▁sun	-7565
交通拥堵	-7566
塑料制品	-7567
寻求帮助	-7568
更多关于	-7569
▁设计一个	-7570
不变	-7571
你说	-7572
关爱	-7573
排水	-7574
浓度	-7575
淀粉	-7576
身上	-7577
酱汁	-7578
SQL	-7579
▁家庭	-7580
和测试	-7581
和自我	-7582
的场景	-7583
等功能	-7584
▁cat	-7585
▁col	-7586
▁ein	-7587
我会尽力	-7588
知识产权	-7589
这些因素	-7590
▁look	-7591
▁bring	-7592
我们需要采取	-7593
66	-7594
忙碌	-7595
快捷	-7596
编码	-7597
草地	-7598
违约	-7599
ush	-7600
▁指示	-7601
巴厘岛	-7602
是关于	-7603
ibon	-7604
nFor	-7605
▁sur	-7606
写的文章	-7607
很高兴见到你	-7608
▁during	-7609
ibonacci	-7610
▁children	-7611
,1	-7612
女儿	-7613
我能	-7614
村庄	-7615
999	-7616
副作用	-7617
反义词	-7618
在教育	-7619
时代的	-7620
条件下	-7621
的空间	-7622
的高度	-7623
▁mid	-7624
▁文章中	-7625
可持续的	-7626
onday	-7627
place	-7628
▁park	-7629
可以根据自己的	-7630
▁bottles	-7631
▁develop	-7632
$?	-7633
动画	-7634
果实	-7635
装置	-7636
较大的	-7637
道德和	-7638
音乐家	-7639
ives	-7640
▁got	-7641
我很乐意	-7642
综合考虑	-7643
▁$200	-7644
▁power	-7645
cu	-7646
埃及	-7647
真相	-7648
类的	-7649
11.	-7650
中选择	-7651
和舒适	-7652
图书馆	-7653
我们所	-7654
活力和	-7655
错误的	-7656
ness	-7657
race	-7658
tang	-7659
人力资源	-7660
具体来说	-7661
▁scored	-7662
反复	-7663
沮丧	-7664
游览	-7665
熟练	-7666
理由	-7667
花生	-7668
质地	-7669
采购	-7670
防御	-7671
面料	-7672
领先	-7673
/3)	-7674
low	-7675
▁Sh	-7676
信用卡	-7677
在不同	-7678
宇宙中	-7679
探索和	-7680
詹姆斯	-7681
贾宝玉	-7682
各个方面	-7683
哪些方面	-7684
如何处理	-7685
的发展和	-7686
解决方法	-7687
storm	-7688
theta	-7689
▁bird	-7690
▁作为一个	-7691
旅游目的地	-7692
▁still	-7693
他对	-7694
包容	-7695
双手	-7696
当事	-7697
持久	-7698
杂志	-7699
海底	-7700
猜测	-7701
缺陷	-7702
融资	-7703
面糊	-7704
-20	-7705
做出了	-7706
勇气和	-7707
在这些	-7708
aces	-7709
已经开始	-7710
有更多的	-7711
自然资源	-7712
▁five	-7713
▁contin	-7714
关于夏天的诗歌	-7715
人文	-7716
凉爽	-7717
绘制	-7718
贫困	-7719
露营	-7720
鸡胸	-7721
主题的	-7722
影响着	-7723
的面积	-7724
葱姜蒜	-7725
面试官	-7726
aper	-7727
▁log	-7728
健康状况	-7729
形成一个	-7730
▁bask	-7731
▁activ	-7732
▁fract	-7733
▁sandw	-7734
机器学习技术	-7735
▁company	-7736
唐代	-7737
奇数	-7738
感动	-7739
拿铁	-7740
玩法	-7741
▁由于	-7742
ります	-7743
好朋友	-7744
来减少	-7745
以下句子	-7746
▁meas	-7747
{1}{2}	-7748
的影响的文章	-7749
$$	-7750
中性	-7751
做得	-7752
几天	-7753
按时	-7754
武器	-7755
重的	-7756
ont	-7757
ser	-7758
心血管	-7759
感受和	-7760
的朋友	-7761
的目的	-7762
自信心	-7763
ross	-7764
政府应该	-7765
植物生长	-7766
经济发展	-7767
▁pract	-7768
▁employe	-7769
ug	-7770
压缩	-7771
履行	-7772
质数	-7773
防范	-7774
骑行	-7775
isf	-7776
med	-7777
企业和	-7778
放置在	-7779
浓郁的	-7780
的比例	-7781
类似的	-7782
****	-7783
▁For	-7784
▁写一首	-7785
在我们的	-7786
基础设施	-7787
它是一种	-7788
人工智能将会	-7789
▁energy	-7790
64	-7791
入门	-7792
可得	-7793
引领	-7794
感的	-7795
火焰	-7796
走进	-7797
非法	-7798
}$,	-7799
▁64	-7800
▁减少	-7801
不是很	-7802
快速地	-7803
新生儿	-7804
结果为	-7805
胡椒粉	-7806
让我想	-7807
test	-7808
的环境中	-7809
之路	-7810
全麦	-7811
后代	-7812
在我	-7813
每份	-7814
滋润	-7815
set	-7816
和教育	-7817
科学的	-7818
等各种	-7819
mail	-7820
的时间和	-7821
我们可以在	-7822
▁games	-7823
在这个过程中	-7824
准则	-7825
弹性	-7826
感恩	-7827
收藏	-7828
流派	-7829
短期	-7830
处理器	-7831
摄像头	-7832
珍贵的	-7833
ique	-7834
一段时间	-7835
的关键词	-7836
value	-7837
▁Cost	-7838
▁pres	-7839
下面是一些	-7840
各种各样的	-7841
rainstorm	-7842
关联	-7843
写出	-7844
尽情	-7845
投放	-7846
的钱	-7847
第五	-7848
▁et	-7849
▁一位	-7850
▁没有	-7851
▁现在	-7852
函数的	-7853
和影响	-7854
废弃物	-7855
怎样的	-7856
来自于	-7857
水平的	-7858
真的很	-7859
表格中	-7860
oons	-7861
sort	-7862
心理咨询	-7863
生活习惯	-7864
erstand	-7865
废物	-7866
木板	-7867
波特	-7868
清澈	-7869
画家	-7870
简介	-7871
随意	-7872
key	-7873
▁br	-7874
不应该	-7875
世界杯	-7876
伴随着	-7877
喜欢吃	-7878
这首诗	-7879
▁[1,	-7880
▁vol	-7881
几个苹果	-7882
环保措施	-7883
▁mean	-7884
▁uses	-7885
▁Monday	-7886
▁从这篇文章中提取	-7887
ai	-7888
与您	-7889
先将	-7890
光滑	-7891
大陆	-7892
奶泡	-7893
西兰	-7894
关键字	-7895
变得更	-7896
在我的	-7897
购买的	-7898
市场调研	-7899
药物治疗	-7900
还可以通过	-7901
['	-7902
依次	-7903
减排	-7904
小数	-7905
无穷	-7906
浸泡	-7907
灾难	-7908
远的	-7909
urs	-7910
出来的	-7911
听说你	-7912
数字的	-7913
这需要	-7914
code	-7915
tend	-7916
今天天气	-7917
文艺复兴	-7918
ights	-7919
广泛应用于	-7920
不可或缺的一部分	-7921
养分	-7922
可是	-7923
奇幻	-7924
宽敞	-7925
日落	-7926
缺少	-7927
黑客	-7928
___	-7929
一下吗	-7930
吸引了	-7931
年龄段	-7932
水资源	-7933
相结合	-7934
都有其	-7935
▁什么是	-7936
沟通技巧	-7937
巧克力蛋糕	-7938
社交媒体上	-7939
▁candy	-7940
▁------	-7941
nSamantha	-7942
▁狗	-7943
待遇	-7944
诸多	-7945
0.5	-7946
lls	-7947
净利润	-7948
和活动	-7949
我想问	-7950
的生长	-7951
head	-7952
▁30\	-7953
▁我需要	-7954
推理过程	-7955
欢迎来到	-7956
这个世界	-7957
▁remainder	-7958
rr	-7959
▁猫	-7960
交叉	-7961
债务	-7962
地毯	-7963
失眠	-7964
排骨	-7965
爸爸	-7966
视角	-7967
遭受	-7968
防护	-7969
▁环保	-7970
▁表示	-7971
同样的	-7972
本文将	-7973
能帮我	-7974
表达方式	-7975
▁effe	-7976
▁World	-7977
+5	-7978
},	-7979
实力	-7980
延长	-7981
拥抱	-7982
极地	-7983
水星	-7984
漏洞	-7985
点缀	-7986
路程	-7987
ump	-7988
事实上	-7989
您想要	-7990
的含义	-7991
usic	-7992
▁ind	-7993
发生变化	-7994
古典音乐	-7995
实际应用	-7996
是一个充满	-7997
聊天机器人	-7998
保持身体健康	-7999
一套	-8000
了吗	-8001
假期	-8002
前端	-8003
各项	-8004
机票	-8005
脚本	-8006
选取	-8007
GDP	-8008
”,“	-8009
建立起	-8010
微波炉	-8011
您是否	-8012
歌曲的	-8013
环境下	-8014
Jack	-8015
▁2:\	-8016
介绍一些	-8017
可以采用	-8018
需要多少	-8019
▁写一篇有关	-8020
信誉	-8021
可读	-8022
广场	-8023
梦境	-8024
泰国	-8025
洗澡	-8026
身材	-8027
这件	-8028
青春	-8029
▁kg	-8030
为公司	-8031
可以对	-8032
在购买	-8033
精准的	-8034
▁$2.	-8035
可能会对	-8036
节约用水	-8037
可用	-8038
微观	-8039
慢性	-8040
折射	-8041
汉字	-8042
烤肉	-8043
电磁	-8044
看着	-8045
好主意	-8046
行为的	-8047
assw	-8048
▁50\	-8049
也是一种	-8050
应用领域	-8051
enter	-8052
软件工程师	-8053
▁units	-8054
▁formula	-8055
▁probability	-8056
/6	-8057
▁}	-8058
企鹅	-8059
再来	-8060
存款	-8061
家用	-8062
应聘	-8063
感冒	-8064
投诉	-8065
提问	-8066
本次	-8067
极具	-8068
用电	-8069
舒服	-8070
迎接	-8071
把这些	-8072
推动了	-8073
更适合	-8074
海王星	-8075
▁800	-8076
▁sat	-8077
也就是说	-8078
作为一种	-8079
可能存在	-8080
通过使用	-8081
针对性的	-8082
▁They	-8083
▁这个问题	-8084
てください	-8085
更好地管理	-8086
▁quick	-8087
▁给我讲一个	-8088
)-	-8089
不停	-8090
变为	-8091
可供	-8092
架构	-8093
盆栽	-8094
透过	-8095
队的	-8096
了解到	-8097
促进了	-8098
分之一	-8099
和历史	-8100
和方法	-8101
宝宝的	-8102
想知道	-8103
更注重	-8104
不确定性	-8105
这种技术	-8106
▁$150	-8107
|:	-8108
橘子	-8109
薪资	-8110
蚂蚁	-8111
都被	-8112
12.	-8113
▁sw	-8114
则需要	-8115
医生的	-8116
在一家	-8117
阳光和	-8118
nCom	-8119
可以分为	-8120
因为他们	-8121
▁Jack	-8122
讲述了一个	-8123
▁group	-8124
▁making	-8125
上学	-8126
口腔	-8127
各类	-8128
大幅	-8129
打击	-8130
承认	-8131
疲惫	-8132
那我	-8133
采集	-8134
ELE	-8135
TML	-8136
抗氧化	-8137
现代化	-8138
目标是	-8139
社会中	-8140
语言和	-8141
预测和	-8142
ocks	-8143
ways	-8144
▁4.\	-8145
▁5.\	-8146
▁fru	-8147
▁sign	-8148
各种不同的	-8149
lt	-8150
ze	-8151
关怀	-8152
协同	-8153
常用	-8154
很高	-8155
聚类	-8156
设立	-8157
▁<=	-8158
是一年	-8159
现金流	-8160
真实的	-8161
赢得了	-8162
▁你认为	-8163
下面是一	-8164
市场趋势	-8165
我们希望	-8166
align	-8167
▁stay	-8168
北京的天气	-8169
Google	-8170
▁light	-8171
社交媒体平台	-8172
前来	-8173
喝水	-8174
家乡	-8175
小吃	-8176
let	-8177
▁加强	-8178
优惠券	-8179
会产生	-8180
公园里	-8181
制作的	-8182
和保护	-8183
和指导	-8184
在那里	-8185
的细节	-8186
纽约市	-8187
还能够	-8188
问题吗	-8189
鸡胸肉	-8190
item	-8191
很高兴能	-8192
最低气温	-8193
下面是一个	-8194
▁pencils	-8195
▁哦	-8196
住宅	-8197
厨师	-8198
水源	-8199
浓缩	-8200
矩形	-8201
一开始	-8202
也没有	-8203
游泳池	-8204
的精神	-8205
▁250	-8206
可能包括	-8207
环保行动	-8208
艺术作品	-8209
▁term	-8210
▁market	-8211
人工智能技术的发展	-8212
yc	-8213
一支	-8214
像是	-8215
关卡	-8216
变形	-8217
和有	-8218
瀑布	-8219
爆发	-8220
病历	-8221
还将	-8222
-12	-8223
▁检查	-8224
宠物的	-8225
并输出	-8226
玩游戏	-8227
规则和	-8228
inda	-8229
的基础上	-8230
uting	-8231
的科普文章	-8232
计算机程序	-8233
ichael	-8234
越来越多的人	-8235
▁family	-8236
▁degrees	-8237
でき	-8238
前行	-8239
南瓜	-8240
可信	-8241
寂静	-8242
明月	-8243
电路	-8244
透气	-8245
鲜明	-8246
▁品牌	-8247
因斯坦	-8248
张先生	-8249
森林里	-8250
5000	-8251
llig	-8252
然后使用	-8253
量子计算	-8254
也可以通过	-8255
String	-8256
▁provide	-8257
▁calories	-8258
▁questions	-8259
Cl	-8260
一個	-8261
一块	-8262
乔治	-8263
保暖	-8264
外套	-8265
尼克	-8266
山水	-8267
渗透	-8268
老人	-8269
花盆	-8270
衡量	-8271
金钱	-8272
了解了	-8273
任务的	-8274
供应链	-8275
在学习	-8276
▁1:\	-8277
医疗领域	-8278
是否符合	-8279
诊断疾病	-8280
imate	-8281
的一个重要	-8282
的应用程序	-8283
给出具体的	-8284
▁width	-8285
▁double	-8286
0\	-8287
听力	-8288
将是	-8289
带领	-8290
手动	-8291
租金	-8292
配送	-8293
限于	-8294
优势和	-8295
它们是	-8296
对我们	-8297
技术来	-8298
把它们	-8299
是当今	-8300
清洁剂	-8301
相对于	-8302
结束后	-8303
这包括	-8304
gest	-8305
ware	-8306
▁Smith	-8307
并给出详细的	-8308
▁combined	-8309
do	-8310
▁热	-8311
から	-8312
两只	-8313
和您	-8314
悬挂	-8315
拂面	-8316
料理	-8317
明智	-8318
根本	-8319
洛杉	-8320
熟透	-8321
生菜	-8322
索引	-8323
配件	-8324
ext	-8325
代码的	-8326
和未来	-8327
家庭中	-8328
态度和	-8329
是一只	-8330
服务器	-8331
的平均	-8332
ited	-8333
▁1/3	-8334
▁12,	-8335
▁eats	-8336
▁shop	-8337
inally	-8338
▁multiple	-8339
42	-8340
为例	-8341
回应	-8342
外线	-8343
夜间	-8344
失望	-8345
导师	-8346
活泼	-8347
调试	-8348
钓鱼	-8349
防守	-8350
ony	-8351
与人类	-8352
减少了	-8353
和调整	-8354
地进行	-8355
天王星	-8356
已经被	-8357
玛丽亚	-8358
的投资	-8359
▁明白了	-8360
潜在客户	-8361
目标受众	-8362
▁Find	-8363
▁being	-8364
▁kilogr	-8365
事务	-8366
加深	-8367
垂直	-8368
整合	-8369
烤鸭	-8370
观赏	-8371
过了	-8372
部和	-8373
为人们	-8374
几分钟	-8375
和探索	-8376
洛杉矶	-8377
如果没有	-8378
未来科技	-8379
进行一些	-8380
color	-8381
▁cand	-8382
如果您需要	-8383
随着科技的	-8384
加以	-8385
动漫	-8386
戏剧	-8387
或许	-8388
摆脱	-8389
极限	-8390
橡皮	-8391
活跃	-8392
演唱	-8393
照射	-8394
物业	-8395
画作	-8396
这时	-8397
零售	-8398
10\	-8399
▁因此	-8400
发生在	-8401
有其他	-8402
朋友们	-8403
精美的	-8404
艾米丽	-8405
设计中	-8406
plic	-8407
▁hum	-8408
不可避免	-8409
自由意志	-8410
辅助医生	-8411
大数据分析	-8412
您可以选择	-8413
assword	-8414
▁complete	-8415
▁understand	-8416
一生	-8417
主菜	-8418
主观	-8419
仙人	-8420
依靠	-8421
区分	-8422
排除	-8423
文件	-8424
治愈	-8425
潮湿	-8426
烦恼	-8427
界的	-8428
落在	-8429
违法	-8430
了一种	-8431
完成后	-8432
应该在	-8433
是一道	-8434
然后在	-8435
这可以	-8436
预处理	-8437
ffee	-8438
imal	-8439
治疗效果	-8440
通常用于	-8441
不同种类的	-8442
86	-8443
Re	-8444
头痛	-8445
板块	-8446
沐浴	-8447
热点	-8448
退休	-8449
▁54	-8450
▁地球	-8451
动植物	-8452
和一些	-8453
咖啡馆	-8454
并尝试	-8455
极高的	-8456
深刻地	-8457
▁rew	-8458
▁机器学习	-8459
一个年轻的	-8460
请稍等片刻	-8461
4、	-8462
BC	-8463
mm	-8464
py	-8465
一门	-8466
原告	-8467
帝国	-8468
早晨	-8469
机场	-8470
洗发	-8471
珍珠	-8472
白云	-8473
穿上	-8474
穿搭	-8475
耳朵	-8476
花瓣	-8477
语气	-8478
谜题	-8479
鲨鱼	-8480
ops	-8481
▁gl	-8482
▁爱情	-8483
形状和	-8484
政策和	-8485
来表达	-8486
林黛玉	-8487
的成本	-8488
舒适和	-8489
黑色的	-8490
ffic	-8491
▁One	-8492
▁few	-8493
如果需要	-8494
自然景观	-8495
让计算机	-8496
▁grow	-8497
▁制作一份	-8498
这将有助于	-8499
▁around	-8500
▁become	-8501
▁import	-8502
周边	-8503
图片	-8504
备份	-8505
密的	-8506
野外	-8507
eds	-8508
nes	-8509
▁7.	-8510
个性和	-8511
你能否	-8512
可爱的	-8513
的作品	-8514
根据个人	-8515
海洋生物	-8516
爱因斯坦	-8517
英语口语	-8518
通常需要	-8519
中等	-8520
将来	-8521
抽出	-8522
敌人	-8523
欢快	-8524
煮沸	-8525
稍微	-8526
证人	-8527
音响	-8528
领袖	-8529
iew	-8530
}{2	-8531
下面的	-8532
体现了	-8533
有两个	-8534
的学习	-8535
的趋势	-8536
▁sit	-8537
人际交往	-8538
开发一款	-8539
西班牙语	-8540
隐私保护	-8541
println	-8542
▁substit	-8543
▁currently	-8544
并给出详细的推理过程	-8545
▁回答问题并给出详细的推理过程	-8546
习俗	-8547
储物	-8548
分辨	-8549
合并	-8550
定时	-8551
审查	-8552
康复	-8553
扫描	-8554
摆放	-8555
春风	-8556
试验	-8557
课堂	-8558
麻辣	-8559
和营养	-8560
在当今	-8561
留下了	-8562
的不断	-8563
▁Add	-8564
▁Sam	-8565
▁谢谢你	-8566
尽量避免	-8567
感谢您的	-8568
ordin	-8569
▁milk	-8570
量子计算机	-8571
▁contains	-8572
72	-8573
唱歌	-8574
子女	-8575
库存	-8576
情景	-8577
指甲	-8578
无需	-8579
激动	-8580
甜蜜	-8581
砂糖	-8582
联盟	-8583
记者	-8584
质的	-8585
▁阐述	-8586
主题和	-8587
在中国	-8588
然后用	-8589
特色的	-8590
短故事	-8591
Lucy	-8592
与此同时	-8593
可以看到	-8594
如何正确	-8595
总而言之	-8596
▁resp	-8597
▁sequ	-8598
▁user	-8599
我们的团队	-8600
盐和黑胡椒	-8601
AC	-8602
会使	-8603
借款	-8604
化简	-8605
和更	-8606
开源	-8607
用了	-8608
行走	-8609
-\\	-8610
▁中国	-8611
多元化	-8612
应用到	-8613
愉快的	-8614
推荐吗	-8615
被用于	-8616
该函数	-8617
000\	-8618
▁own	-8619
一个好的	-8620
健康问题	-8621
目标客户	-8622
联系方式	-8623
▁gold	-8624
一共有多少	-8625
▁works	-8626
一下这篇文章	-8627
▁percentage	-8628
)=	-8629
,5	-8630
oa	-8631
一边	-8632
之作	-8633
分得	-8634
向下	-8635
总额	-8636
房价	-8637
校园	-8638
讲讲	-8639
3.\	-8640
ney	-8641
▁So	-8642
▁文章	-8643
去中心	-8644
宠物狗	-8645
想法吗	-8646
我推荐	-8647
的人际	-8648
的制作	-8649
的建筑	-8650
进行选择	-8651
label	-8652
split	-8653
▁创作一首	-8654
length	-8655
yn	-8656
农民	-8657
呼吁	-8658
咳嗽	-8659
数和	-8660
美感	-8661
表中	-8662
酒吧	-8663
麻烦	-8664
])\	-8665
不少于	-8666
创始人	-8667
和预测	-8668
学习新	-8669
忠诚度	-8670
我们就	-8671
比特币	-8672
的操作	-8673
的角色	-8674
等方法	-8675
小明现在	-8676
电商平台	-8677
ality	-8678
▁keep	-8679
中最重要的	-8680
美好的未来	-8681
▁think	-8682
▁today	-8683
非常感谢您的	-8684
▁program	-8685
▁rectang	-8686
▁computer	-8687
▁customers	-8688
初步	-8689
喜剧	-8690
游记	-8691
繁忙	-8692
语义	-8693
雕塑	-8694
ole	-8695
▁当你	-8696
以及对	-8697
包括了	-8698
在城市	-8699
情感的	-8700
沙滩上	-8701
的一半	-8702
请问你	-8703
icle	-8704
▁...	-8705
免疫系统	-8706
我建议你	-8707
现金流量	-8708
自我意识	-8709
让我们来	-8710
高的山峰	-8711
aving	-8712
ready	-8713
▁bars	-8714
所在的城市	-8715
提升自己的	-8716
|------	-8717
▁plants	-8718
三文	-8719
体内	-8720
地下	-8721
填充	-8722
女子	-8723
对应	-8724
海报	-8725
燃油	-8726
绿树	-8727
认同	-8728
阐明	-8729
tle	-8730
▁56	-8731
停车场	-8732
告诉你	-8733
建议你	-8734
房间的	-8735
第三方	-8736
行星的	-8737
资深的	-8738
▁job	-8739
ELECT	-8740
▁sure	-8741
BM	-8742
▁阿	-8743
扩张	-8744
把它	-8745
蓝莓	-8746
银河	-8747
长方	-8748
题意	-8749
鸡翅	-8750
ude	-8751
再给我	-8752
和控制	-8753
▁0.0	-8754
▁Eng	-8755
市场竞争	-8756
您还可以	-8757
现代科技	-8758
监督学习	-8759
在医疗保健	-8760
------	-8761
▁those	-8762
▁satisf	-8763
▁factors	-8764
▁student	-8765
li	-8766
上涨	-8767
它也	-8768
自制	-8769
配饰	-8770
飞船	-8771
20\	-8772
▁29	-8773
在许多	-8774
提取出	-8775
来增加	-8776
的东西	-8777
艺术的	-8778
阳光下	-8779
题目中	-8780
▁adv	-8781
▁给我想	-8782
参加一些	-8783
对自己的	-8784
总体而言	-8785
▁type	-8786
自己的情绪	-8787
▁already	-8788
46	-8789
▁–	-8790
一台	-8791
创立	-8792
到您	-8793
安慰	-8794
小刚	-8795
恶意	-8796
愿景	-8797
暗示	-8798
有望	-8799
标识	-8800
花儿	-8801
额外	-8802
鲜美	-8803
agg	-8804
pre	-8805
pri	-8806
▁Cl	-8807
▁关于	-8808
主题为	-8809
事做起	-8810
作者的	-8811
存在于	-8812
时需要	-8813
的平方	-8814
答案为	-8815
轻轻地	-8816
防晒霜	-8817
但同时也	-8818
可以有效	-8819
投资组合	-8820
进行比较	-8821
▁para	-8822
$2	-8823
37	-8824
不在	-8825
心率	-8826
愿望	-8827
暴露	-8828
泡沫	-8829
的狗	-8830
线下	-8831
认证	-8832
ges	-8833
三文鱼	-8834
了解决	-8835
和道德	-8836
来支持	-8837
的用户	-8838
的色彩	-8839
美食和	-8840
草地上	-8841
appy	-8842
▁Con	-8843
公司工作	-8844
建议选择	-8845
思维方式	-8846
▁cour	-8847
▁trip	-8848
越来越广泛	-8849
nTommy	-8850
▁member	-8851
维生素和矿物质	-8852
nU	-8853
▁盐	-8854
不想	-8855
春季	-8856
编号	-8857
者和	-8858
至今	-8859
说说	-8860
跨越	-8861
;2.	-8862
gor	-8863
▁As	-8864
一方面	-8865
为主要	-8866
以确定	-8867
和风险	-8868
咖啡机	-8869
是不是	-8870
服务和	-8871
的生命	-8872
的结构	-8873
anna	-8874
nNow	-8875
▁$80	-8876
可以分到	-8877
可以获得	-8878
多样化的	-8879
字母顺序	-8880
最后一个	-8881
社交活动	-8882
通过这些	-8883
▁gets	-8884
气候变化对	-8885
ground	-8886
▁items	-8887
▁least	-8888
af	-8889
しい	-8890
彼得	-8891
拍照	-8892
敬礼	-8893
还在	-8894
闪烁	-8895
青年	-8896
}{5	-8897
▁cm	-8898
▁一种	-8899
▁避免	-8900
与客户	-8901
从而使	-8902
和家人	-8903
将继续	-8904
感到很	-8905
的因素	-8906
背后的	-8907
();\	-8908
▁请根据	-8909
就业机会	-8910
您的需求	-8911
我们能够	-8912
有足够的	-8913
\\[\\	-8914
可持续发展的	-8915
虚拟现实技术	-8916
▁radius	-8917
az	-8918
不受	-8919
从此	-8920
发射	-8921
常规	-8922
曲线	-8923
更大	-8924
洗涤	-8925
盎司	-8926
礼品	-8927
表述	-8928
语文	-8929
金黄	-8930
ことが	-8931
中获得	-8932
例子中	-8933
友好的	-8934
品质和	-8935
实用性	-8936
方便地	-8937
等活动	-8938
自由和	-8939
请确保	-8940
这里有	-8941
▁opt	-8942
▁ref	-8943
使用环保	-8944
如果您想	-8945
我听说你	-8946
每个单词	-8947
!\")\	-8948
lease	-8949
▁stre	-8950
之间的距离	-8951
▁color	-8952
随着人工智能技术的	-8953
BA	-8954
▁.	-8955
切割	-8956
大海	-8957
孕妇	-8958
深海	-8959
议题	-8960
\">	-8961
maz	-8962
以适应	-8963
力量和	-8964
口味的	-8965
好奇心	-8966
放松和	-8967
而闻名	-8968
出现次数	-8969
发展趋势	-8970
绿色能源	-8971
▁10.\	-8972
▁vide	-8973
可以有效地	-8974
您可以使用	-8975
我可以帮你	-8976
indows	-8977
自然语言处理技术	-8978
38	-8979
不安	-8980
夕阳	-8981
岛屿	-8982
我所	-8983
深情	-8984
秋季	-8985
蓝天	-8986
饮酒	-8987
!\"	-8988
ids	-8989
▁目前	-8990
▁请用	-8991
功能的	-8992
收入和	-8993
是地球	-8994
}{\\	-8995
▁10%	-8996
▁row	-8997
情感分析	-8998
推理逻辑	-8999
文本中的	-9000
混合均匀	-9001
能告诉我	-9002
需要定期	-9003
▁tree	-9004
翻译成法语	-9005
44	-9006
为止	-9007
使命	-9008
美学	-9009
花椒	-9010
草药	-9011
酒精	-9012
门票	-9013
▁um	-9014
卓越的	-9015
我感觉	-9016
每个月	-9017
污染和	-9018
澳大利	-9019
的普及	-9020
项目中	-9021
▁Sta	-9022
从而实现	-9023
使用方法	-9024
hello	-9025
inner	-9026
thing	-9027
▁Bill	-9028
我们需要将	-9029
环境保护的	-9030
▁worth	-9031
▁fraction	-9032
55	-9033
:$	-9034
余数	-9035
兄弟	-9036
十个	-9037
单元	-9038
小花	-9039
总和	-9040
授权	-9041
是对	-9042
晋升	-9043
气味	-9044
泰坦	-9045
真诚	-9046
线路	-9047
街道	-9048
风雨	-9049
▁9\	-9050
▁Ar	-9051
以便在	-9052
分到的	-9053
在我们	-9054
污染物	-9055
这个人	-9056
风险和	-9057
():\	-9058
▁men	-9059
▁sim	-9060
分给他的	-9061
到了一个	-9062
加入适量	-9063
应该如何	-9064
表现出色	-9065
需要了解	-9066
▁Java	-9067
▁selling	-9068
劣势	-9069
夏威	-9070
小火	-9071
患有	-9072
成了	-9073
杯中	-9074
照耀	-9075
爬行	-9076
猴子	-9077
草坪	-9078
购房	-9079
酵母	-9080
oud	-9081
仙人掌	-9082
夏威夷	-9083
实践中	-9084
护肤品	-9085
无人机	-9086
是一门	-9087
材料的	-9088
热情和	-9089
该如何	-9090
问题或	-9091
ital	-9092
令人惊叹	-9093
时间管理	-9094
澳大利亚	-9095
ender	-9096
从而更好地	-9097
优点和缺点	-9098
-7	-9099
乐队	-9100
何时	-9101
儿子	-9102
其在	-9103
剪刀	-9104
天赋	-9105
标点	-9106
水上	-9107
花开	-9108
虚构	-9109
轻便	-9110
轻盈	-9111
亲爱的	-9112
例如在	-9113
发展和	-9114
很有趣	-9115
现有的	-9116
的例子	-9117
的挑战	-9118
责任和	-9119
▁2.5	-9120
一篇文章	-9121
睡眠质量	-9122
:\")\	-9123
有趣的故事	-9124
▁design	-9125
▁social	-9126
不久	-9127
守护	-9128
开拓	-9129
彩色	-9130
百年	-9131
蒜末	-9132
随之	-9133
LED	-9134
公元前	-9135
初始化	-9136
最大化	-9137
的人群	-9138
ming	-9139
▁为一个	-9140
▁我喜欢	-9141
我们现在	-9142
|---|---	-9143
给出具体的推理逻辑	-9144
IN	-9145
▁杯	-9146
受益	-9147
好玩	-9148
学家	-9149
座椅	-9150
每日	-9151
盗窃	-9152
算出	-9153
饱和	-9154
▁fr	-9155
▁上海	-9156
了一场	-9157
保护和	-9158
大小的	-9159
大熊猫	-9160
如果他	-9161
开发者	-9162
引人入	-9163
特征和	-9164
积极地	-9165
舒适度	-9166
▁ess	-9167
▁tre	-9168
建立联系	-9169
▁lead	-9170
▁给出一个	-9171
生命的意义	-9172
▁technology	-9173
/8	-9174
一封	-9175
不如	-9176
乘积	-9177
命名	-9178
斯特	-9179
柔韧	-9180
模具	-9181
正义	-9182
流浪	-9183
电力	-9184
白糖	-9185
益处	-9186
继承	-9187
至于	-9188
谜语	-9189
赞美	-9190
阿甘	-9191
/12	-9192
\".	-9193
▁阅读	-9194
与孩子	-9195
以实现	-9196
会不会	-9197
创作的	-9198
将更加	-9199
更多人	-9200
细节和	-9201
elly	-9202
▁eas	-9203
它们可以	-9204
引人入胜	-9205
▁prom	-9206
植物的生长	-9207
蔬菜和水果	-9208
uesday	-9209
▁level	-9210
我们可以看到	-9211
▁improve	-9212
▁从这篇文章中提取出	-9213
=0	-9214
但这	-9215
像素	-9216
各国	-9217
后续	-9218
对我	-9219
层面	-9220
平底	-9221
洗手	-9222
消毒	-9223
火箭	-9224
用法	-9225
而非	-9226
蒸汽	-9227
走路	-9228
+\\	-9229
2)\	-9230
二进制	-9231
和思考	-9232
固定的	-9233
处理和	-9234
完善的	-9235
您也可以	-9236
▁fill	-9237
▁rest	-9238
▁trad	-9239
每个小朋友	-9240
ctions	-9241
codealpaca	-9242
);	-9243
{7	-9244
外出	-9245
损伤	-9246
斯的	-9247
演变	-9248
芒果	-9249
赋予	-9250
亿美元	-9251
关系的	-9252
其主要	-9253
来表示	-9254
的苹果	-9255
算法和	-9256
聊什么	-9257
选择的	-9258
无人驾驶	-9259
智能手表	-9260
空气净化	-9261
▁true	-9262
▁请从文章	-9263
你可以通过	-9264
acebook	-9265
▁include	-9266
▁seconds	-9267
冲击	-9268
吞噬	-9269
时要	-9270
法官	-9271
西方	-9272
部的	-9273
20%	-9274
ión	-9275
并采取	-9276
是美国	-9277
特点是	-9278
环保和	-9279
简短的	-9280
规划和	-9281
atio	-9282
rack	-9283
▁Des	-9284
更有效地	-9285
有很多种	-9286
研究表明	-9287
▁谢谢你的	-9288
ything	-9289
▁fourth	-9290
▁regular	-9291
,2	-9292
作物	-9293
充实	-9294
冬天	-9295
大战	-9296
引用	-9297
搞笑	-9298
浴室	-9299
饰品	-9300
▁La	-9301
▁分类	-9302
上面的	-9303
几十年	-9304
情人节	-9305
比其他	-9306
让学生	-9307
▁[]\	-9308
▁sle	-9309
▁tax	-9310
以上就是	-9311
ridge	-9312
ually	-9313
不断学习和	-9314
应用的文章	-9315
▁always	-9316
人工智能在医学	-9317
个数	-9318
分组	-9319
区的	-9320
坚韧	-9321
弥漫	-9322
怀疑	-9323
摩尔	-9324
法庭	-9325
波长	-9326
清除	-9327
温水	-9328
管道	-9329
结局	-9330
跳绳	-9331
香肠	-9332
高达	-9333
▁增加	-9334
不要让	-9335
中找到	-9336
惊人的	-9337
手机的	-9338
购物车	-9339
更多信息	-9340
降低成本	-9341
ubstit	-9342
▁heart	-9343
nPerson	-9344
一位经验丰富的	-9345
产生了深远的影响	-9346
中式	-9347
分泌	-9348
地质	-9349
审美	-9350
慢跑	-9351
捕捉	-9352
树枝	-9353
流水	-9354
豆瓣	-9355
这部	-9356
选出	-9357
飞舞	-9358
骨骼	-9359
▁31	-9360
▁Un	-9361
▁说明	-9362
不超过	-9363
他们会	-9364
和质量	-9365
的体验	-9366
以及其他	-9367
你还可以	-9368
始终保持	-9369
徒步旅行	-9370
爱情故事	-9371
需要通过	-9372
ister	-9373
▁Sure	-9374
这可以通过	-9375
achine	-9376
▁field	-9377
▁Tuesday	-9378
下了	-9379
开朗	-9380
明星	-9381
不稳定	-9382
的价值	-9383
等都是	-9384
篇小说	-9385
需要多	-9386
Alex	-9387
传统文化	-9388
初创公司	-9389
的主题和	-9390
oaast	-9391
▁编写一篇	-9392
技能和知识	-9393
atural	-9394
▁going	-9395
MP	-9396
ym	-9397
よう	-9398
不管	-9399
个球	-9400
中年	-9401
之美	-9402
彩虹	-9403
改革	-9404
毅力	-9405
率为	-9406
离婚	-9407
素养	-9408
绿化	-9409
讲个	-9410
(4)	-9411
;3.	-9412
^2+	-9413
ope	-9414
▁ge	-9415
▁找到	-9416
▁技术	-9417
▁确保	-9418
以增加	-9419
我理解	-9420
的有效	-9421
规律的	-9422
高质量	-9423
▁ide	-9424
▁tas	-9425
中的重要	-9426
因此需要	-9427
尝试新的	-9428
充足的睡眠	-9429
在医疗行业	-9430
方面的应用	-9431
笔记本电脑	-9432
nJerry	-9433
主张	-9434
公开	-9435
单一	-9436
和糖	-9437
将被	-9438
床垫	-9439
故宫	-9440
数目	-9441
易懂	-9442
炒饭	-9443
焦点	-9444
病例	-9445
的和	-9446
相邻	-9447
稳健	-9448
结尾	-9449
警惕	-9450
▁52	-9451
不喜欢	-9452
并及时	-9453
我发现	-9454
标准差	-9455
科动物	-9456
5.00	-9457
做些什么	-9458
可以随时	-9459
坚持不懈	-9460
inter	-9461
nelif	-9462
学生的学习	-9463
有助于提高	-9464
现代社会中	-9465
▁pairs	-9466
听起来很有趣	-9467
交付	-9468
分裂	-9469
加油	-9470
原本	-9471
只需	-9472
可见	-9473
吸烟	-9474
天地	-9475
手中	-9476
敏锐	-9477
煮至	-9478
眼镜	-9479
轻易	-9480
配上	-9481
,\"	-9482
▁38	-9483
▁当前	-9484
哲学家	-9485
所以他	-9486
象征着	-9487
umer	-9488
我们知道	-9489
热门话题	-9490
翻炒均匀	-9491
.\\]\	-9492
▁sing	-9493
可以告诉我	-9494
环保的科普文章	-9495
▁flowers	-9496
▁experience	-9497
▁с	-9498
冲浪	-9499
电流	-9500
百分	-9501
艰难	-9502
诸如	-9503
酱料	-9504
▁&=	-9505
▁8.	-9506
制造商	-9507
各自的	-9508
在开始	-9509
都具有	-9510
arry	-9511
▁far	-9512
代表性的	-9513
可以采取	-9514
通过分析	-9515
▁give	-9516
▁After	-9517
▁organ	-9518
▁choose	-9519
▁shirts	-9520
▁perform	-9521
▁interest	-9522
不见	-9523
变色	-9524
司法	-9525
和人	-9526
四川	-9527
缩短	-9528
缺失	-9529
菲尔	-9530
论坛	-9531
oin	-9532
▁65	-9533
▁判断	-9534
▁这些	-9535
和交流	-9536
已经有	-9537
进行的	-9538
选择了	-9539
▁能不能	-9540
使用一些	-9541
关键信息	-9542
一个字符串	-9543
了解他们的	-9544
有什么看法	-9545
▁stand	-9546
▁circle	-9547
lligence	-9548
详细回答上面的问题	-9549
▁他	-9550
不当	-9551
你所	-9552
全国	-9553
去年	-9554
地形	-9555
外表	-9556
奔跑	-9557
店铺	-9558
意图	-9559
欲望	-9560
真理	-9561
计数	-9562
高管	-9563
龙头	-9564
+1)	-9565
发挥着	-9566
智慧和	-9567
的美好	-9568
的重量	-9569
香草精	-9570
ense	-9571
▁rem	-9572
▁tow	-9573
▁una	-9574
不断变化	-9575
其中一些	-9576
▁note	-9577
以下是几个	-9578
关于秋天的	-9579
好看的电影	-9580
客户的需求	-9581
▁clean	-9582
▁train	-9583
▁consider	-9584
为此	-9585
修理	-9586
倾斜	-9587
养殖	-9588
单独	-9589
古迹	-9590
宣布	-9591
带上	-9592
心肺	-9593
所示	-9594
擦拭	-9595
无比	-9596
汉语	-9597
清风	-9598
金色	-9599
马尔	-9600
{2}	-9601
▁(5	-9602
▁这首	-9603
代表了	-9604
分类器	-9605
字左右	-9606
来获取	-9607
购买了	-9608
这对于	-9609
unch	-9610
▁360	-9611
交通事故	-9612
他们一起	-9613
创造力和	-9614
圆的面积	-9615
基础知识	-9616
心理医生	-9617
浓缩咖啡	-9618
ision	-9619
▁soda	-9620
▁生成一篇	-9621
才能更好地	-9622
tential	-9623
▁customer	-9624
ubstituting	-9625
和国	-9626
多余	-9627
大卫	-9628
捐赠	-9629
有何	-9630
松鼠	-9631
肥胖	-9632
虫害	-9633
那你	-9634
下一步	-9635
再利用	-9636
或者在	-9637
来描述	-9638
的一切	-9639
这样做	-9640
这首歌	-9641
icks	-9642
▁我们的	-9643
你能不能	-9644
保持冷静	-9645
智能交通	-9646
泰坦尼克	-9647
电子设备	-9648
表面温度	-9649
▁best	-9650
▁lost	-9651
choice	-9652
▁paper	-9653
▁basket	-9654
▁meters	-9655
▁largest	-9656
与我	-9657
体温	-9658
叶片	-9659
各行	-9660
图表	-9661
成年	-9662
拍打	-9663
礼仪	-9664
种种	-9665
航班	-9666
草木	-9667
说法	-9668
走在	-9669
过来	-9670
采访	-9671
音频	-9672
:10	-9673
▁科技	-9674
人数为	-9675
优点是	-9676
分布式	-9677
微生物	-9678
思路和	-9679
的效率	-9680
取得成功	-9681
提高效率	-9682
更深入的	-9683
购物清单	-9684
需要具备	-9685
▁open	-9686
▁root	-9687
泰坦尼克号	-9688
环保的重要性	-9689
▁Create	-9690
========	-9691
▁another	-9692
▁example	-9693
,3	-9694
of	-9695
上班	-9696
利的	-9697
向你	-9698
外貌	-9699
奥斯	-9700
字数	-9701
耳机	-9702
街头	-9703
衣裙	-9704
较小	-9705
到一个	-9706
喜好和	-9707
并制定	-9708
您喜欢	-9709
新员工	-9710
最小值	-9711
的地区	-9712
的要求	-9713
规定的	-9714
我不知道	-9715
挑战性的	-9716
标点符号	-9717
稳定性和	-9718
表达能力	-9719
▁1200	-9720
▁foot	-9721
必不可少的	-9722
utions	-9723
▁bills	-9724
》:	-9725
があ	-9726
习性	-9727
洞察	-9728
狩猎	-9729
的最	-9730
舞者	-9731
贝尔	-9732
陆地	-9733
首次	-9734
sec	-9735
会发生	-9736
位置和	-9737
制成的	-9738
和艺术	-9739
指定的	-9740
是否是	-9741
浓厚的	-9742
的意义	-9743
的段落	-9744
的经典	-9745
的自然	-9746
运动鞋	-9747
ales	-9748
也很重要	-9749
营养物质	-9750
方面的问题	-9751
爱情的诗歌	-9752
▁appro	-9753
▁chick	-9754
)*	-9755
1。	-9756
几点	-9757
各业	-9758
寺庙	-9759
并非	-9760
思绪	-9761
时装	-9762
猫和	-9763
自尊	-9764
落地	-9765
这就	-9766
-1]	-9767
acy	-9768
ses	-9769
▁33	-9770
▁安装	-9771
制作出	-9772
可可粉	-9773
开发和	-9774
的增加	-9775
红烧肉	-9776
语法和	-9777
roid	-9778
一种新的	-9779
你能给我	-9780
即可享用	-9781
各行各业	-9782
户外运动	-9783
是否能够	-9784
ednes	-9785
equiv	-9786
▁描述一个	-9787
uccess	-9788
提高工作效率	-9789
模拟人类智能	-9790
▁weighs	-9791
ednesday	-9792
▁including	-9793
rainstorming	-9794
▁米	-9795
され	-9796
偏差	-9797
天文	-9798
它还	-9799
封闭	-9800
年前	-9801
树林	-9802
棋子	-9803
炎炎	-9804
组装	-9805
续写	-9806
获胜	-9807
资本	-9808
鸡精	-9809
-1}	-9810
ook	-9811
▁创建	-9812
但我们	-9813
口味和	-9814
口感和	-9815
小兔子	-9816
市场和	-9817
情况和	-9818
早上好	-9819
柔软的	-9820
老年人	-9821
角色的	-9822
适合的	-9823
sing	-9824
如果一个	-9825
得出结论	-9826
我最近在	-9827
数字货币	-9828
是否需要	-9829
▁size	-9830
▁prote	-9831
▁center	-9832
▁commun	-9833
▁volume	-9834
保护我们的地球	-9835
▁potential	-9836
(6	-9837
一幅	-9838
三体	-9839
主语	-9840
体检	-9841
修正	-9842
入睡	-9843
意愿	-9844
拉伸	-9845
是有	-9846
此致	-9847
比喻	-9848
突发	-9849
结交	-9850
网页	-9851
那样	-9852
钻石	-9853
闪耀	-9854
RNA	-9855
▁发布	-9856
▁按照	-9857
▁美国	-9858
一些小	-9859
不得不	-9860
在水中	-9861
未知的	-9862
沉浸在	-9863
温暖和	-9864
的成功	-9865
的美食	-9866
系统中	-9867
选择和	-9868
▁ext	-9869
平均分配	-9870
nJane	-9871
▁fore	-9872
客户满意度	-9873
我们可以考虑	-9874
受害	-9875
口红	-9876
好听	-9877
技術	-9878
物资	-9879
繁琐	-9880
荣幸	-9881
迷路	-9882
▁85	-9883
建议和	-9884
很好地	-9885
感谢你	-9886
柔和的	-9887
这是我	-9888
ists	-9889
iver	-9890
产品质量	-9891
代码如下	-9892
出行方式	-9893
医学图像	-9894
建筑设计	-9895
谢谢您的	-9896
▁$120	-9897
▁morn	-9898
你可以选择	-9899
需要大量的	-9900
ources	-9901
▁reduce	-9902
你有什么建议吗	-9903
▁smallest	-9904
人工智能在医疗领域的应用	-9905
.2	-9906
中医	-9907
二次	-9908
代数	-9909
名词	-9910
因果	-9911
帽子	-9912
所未	-9913
救赎	-9914
散发	-9915
日的	-9916
是以	-9917
毛巾	-9918
烘烤	-9919
球的	-9920
直至	-9921
精心	-9922
色素	-9923
can	-9924
joy	-9925
tep	-9926
▁今天	-9927
上进行	-9928
会出现	-9929
体验到	-9930
减少对	-9931
漂亮的	-9932
的计算	-9933
程度的	-9934
连衣裙	-9935
▁beaut	-9936
▁dozen	-9937
▁人工智能技术	-9938
人工智能的文章	-9939
▁可	-9940
公民	-9941
商场	-9942
源于	-9943
男女	-9944
语境	-9945
铁塔	-9946
▁瑜伽	-9947
决策树	-9948
和尊重	-9949
在处理	-9950
探险家	-9951
的人才	-9952
能量的	-9953
识别和	-9954
释放出	-9955
nAdd	-9956
▁40\	-9957
▁saw	-9958
定期检查	-9959
实验结果	-9960
疾病诊断	-9961
这些活动	-9962
这是一部	-9963
▁hist	-9964
▁pick	-9965
▁turn	-9966
请输入第二个	-9967
▁Wednesday	-9968
之下	-9969
他是	-9970
住房	-9971
团结	-9972
对称	-9973
并以	-9974
民事	-9975
美术	-9976
背后	-9977
一样的	-9978
享受着	-9979
北京市	-9980
期待着	-9981
李先生	-9982
来获得	-9983
的描述	-9984
的生物	-9985
观众的	-9986
读者的	-9987
avor	-9988
心理治疗	-9989
接下来的	-9990
提高医疗	-9991
每一个人	-9992
▁wood	-9993
世界各地的	-9994
您可以通过	-9995
效率和质量	-9996
▁angle	-9997
请输入第一个	-9998
▁employees	-9999
▁substitute	-10000
((	-10001
严谨	-10002
切实	-10003
复习	-10004
步伐	-10005
照亮	-10006
短缺	-10007
绿茶	-10008
配菜	-10009
颗粒	-10010
14.	-10011
App	-10012
▁96	-10013
供参考	-10014
可能对	-10015
在职场	-10016
大小和	-10017
实现的	-10018
是人们	-10019
电视机	-10020
的名称	-10021
这些都	-10022
销售员	-10023
音乐节	-10024
land	-10025
分钟左右	-10026
安全性和	-10027
table	-10028
▁song	-10029
两位	-10030
室外	-10031
构思	-10032
油脂	-10033
这会	-10034
[1,	-10035
▁但是	-10036
▁夏日	-10037
▁鸡蛋	-10038
控制和	-10039
让观众	-10040
less	-10041
▁whe	-10042
世界各地	-10043
几个糖果	-10044
夏季旅游	-10045
尝试一下	-10046
沟通能力	-10047
疫苗接种	-10048
还有许多	-10049
▁100\	-10050
▁hard	-10051
ference	-10052
▁without	-10053
乐曲	-10054
侵犯	-10055
葱花	-10056
薄荷	-10057
青蛙	-10058
为一个	-10059
心中的	-10060
活力的	-10061
的出现	-10062
目前的	-10063
这不仅	-10064
▁aut	-10065
块巧克力	-10066
推荐一本	-10067
cribe	-10068
nelse	-10069
▁$500	-10070
▁save	-10071
小明还剩下	-10072
他们在聊什么	-10073
▁English	-10074
▁earnings	-10075
sp	-10076
ye	-10077
{6	-10078
▁否	-10079
▁新	-10080
上映	-10081
个小	-10082
其余	-10083
别墅	-10084
前提	-10085
去看	-10086
粉丝	-10087
蛋黄	-10088
诈骗	-10089
适中	-10090
▁Fr	-10091
依赖于	-10092
公司和	-10093
准确率	-10094
听说过	-10095
并不能	-10096
并按照	-10097
心脏病	-10098
思想和	-10099
牛仔裤	-10100
的身体	-10101
需要从	-10102
char	-10103
▁60\	-10104
两个数字	-10105
可以自动	-10106
根据题目	-10107
能够通过	-10108
负面情绪	-10109
这些措施	-10110
进行计算	-10111
▁When	-10112
▁nums	-10113
▁描述一种	-10114
▁apple	-10115
▁liters	-10116
▁proper	-10117
上午	-10118
他还	-10119
俱乐	-10120
免受	-10121
全力	-10122
回文	-10123
园林	-10124
彗星	-10125
检验	-10126
混凝	-10127
满了	-10128
眼神	-10129
纹理	-10130
赛事	-10131
跟着	-10132
错过	-10133
den	-10134
▁da	-10135
也比较	-10136
存储在	-10137
的形成	-10138
要求的	-10139
还应该	-10140
的特点和	-10141
空气中的	-10142
这个函数	-10143
这听起来	-10144
进一步的	-10145
alpha	-10146
divid	-10147
nfrom	-10148
▁整理一份	-10149
等多个方面	-10150
▁individ	-10151
作息	-10152
器械	-10153
大概	-10154
广东	-10155
恰当	-10156
日出	-10157
海豚	-10158
祝您	-10159
糖醋	-10160
豆类	-10161
转向	-10162
过量	-10163
部署	-10164
阻力	-10165
预警	-10166
ola	-10167
便利和	-10168
关键点	-10169
和生活	-10170
地使用	-10171
将所有	-10172
水污染	-10173
▁50%	-10174
▁6.\	-10175
在游戏中	-10176
是否正确	-10177
面向对象	-10178
score	-10179
为客户提供	-10180
bining	-10181
▁digit	-10182
▁invest	-10183
▁taking	-10184
▁morning	-10185
0)	-10186
?(	-10187
两边	-10188
中所	-10189
也对	-10190
人间	-10191
初中	-10192
川菜	-10193
意式	-10194
盛开	-10195
禁止	-10196
繁华	-10197
货物	-10198
门口	-10199
/10	-10200
{10	-10201
▁Wh	-10202
当事人	-10203
洗发水	-10204
混凝土	-10205
焦虑和	-10206
的种类	-10207
知名的	-10208
2))\	-10209
hour	-10210
▁air	-10211
无论是在	-10212
添加一些	-10213
相对较低	-10214
还有一个	-10215
utton	-10216
▁void	-10217
可以让我们	-10218
gative	-10219
search	-10220
海洋生态系统	-10221
▁给我提供一些	-10222
68	-10223
78	-10224
AT	-10225
Ex	-10226
GP	-10227
保密	-10228
容纳	-10229
感悟	-10230
法式	-10231
犹豫	-10232
盖茨	-10233
礼貌	-10234
聚集	-10235
跟随	-10236
预定	-10237
++)	-10238
iam	-10239
▁Ro	-10240
▁人类	-10241
使人们	-10242
创造性	-10243
壮观的	-10244
旅行者	-10245
激烈的	-10246
的风格	-10247
根据不同的	-10248
▁flour	-10249
▁sales	-10250
▁steps	-10251
▁编写一篇关于	-10252
nSubstituting	-10253
39	-10254
候选	-10255
学和	-10256
家务	-10257
批示	-10258
新颖	-10259
桥梁	-10260
棵树	-10261
永不	-10262
的长	-10263
血糖	-10264
鸡丁	-10265
▁3)	-10266
最喜欢	-10267
▁ist	-10268
交通方式	-10269
创业公司	-10270
同时也是	-10271
塑料垃圾	-10272
节能减排	-10273
▁able	-10274
▁free	-10275
▁increase	-10276
IP	-10277
[]	-10278
▁克	-10279
一对	-10280
主管	-10281
争取	-10282
受访	-10283
拖延	-10284
接口	-10285
正是	-10286
紧凑	-10287
纠正	-10288
苏打	-10289
骑车	-10290
-01	-10291
And	-10292
var	-10293
▁1:	-10294
▁Mr	-10295
▁sl	-10296
▁这段	-10297
出租车	-10298
咖啡店	-10299
感觉到	-10300
你的问题	-10301
可以带来	-10302
在市场上	-10303
市场上的	-10304
我是一名	-10305
方法可以	-10306
瑜伽练习	-10307
这种方式	-10308
也非常重要	-10309
拥有丰富的	-10310
nPeter	-10311
▁black	-10312
▁ratio	-10313
▁bottle	-10314
▁coffee	-10315
79	-10316
下次	-10317
复合	-10318
无聊	-10319
相机	-10320
纷纷	-10321
绳子	-10322
You	-10323
ben	-10324
ols	-10325
▁用户	-10326
从小到	-10327
以防止	-10328
去哪里	-10329
意义的	-10330
数据来	-10331
纤维素	-10332
请续写	-10333
}=\\	-10334
个人隐私	-10335
促销活动	-10336
工作压力	-10337
的人来说	-10338
长时间的	-10339
需要不断	-10340
arden	-10341
▁writ	-10342
▁again	-10343
ificial	-10344
▁Amount	-10345
▁blocks	-10346
请续写他们的对话内容	-10347
他把	-10348
增值	-10349
平板	-10350
教堂	-10351
深层	-10352
的三	-10353
碎片	-10354
辅导	-10355
随后	-10356
▁安全	-10357
为他们	-10358
和家庭	-10359
它具有	-10360
幸福的	-10361
我的心	-10362
是全球	-10363
更健康	-10364
的水分	-10365
要确保	-10366
male	-10367
▁put	-10368
两个朋友	-10369
主要观点	-10370
是什么呢	-10371
正方形的	-10372
aches	-10373
▁Inte	-10374
▁Mark	-10375
▁cats	-10376
▁cent	-10377
▁conc	-10378
在这个季节	-10379
▁tables	-10380
▁convert	-10381
▁balloons	-10382
▁products	-10383
人工智能在医疗领域	-10384
两者	-10385
动词	-10386
子中	-10387
实木	-10388
懂得	-10389
斯拉	-10390
民间	-10391
沉迷	-10392
爬山	-10393
立场	-10394
莎士	-10395
辩论	-10396
音效	-10397
199	-10398
7.5	-10399
jec	-10400
▁2:	-10401
▁材料	-10402
历史和	-10403
可行性	-10404
在现代	-10405
学校的	-10406
宝贵的	-10407
并说明	-10408
是否会	-10409
温度和	-10410
珊瑚礁	-10411
的饮食	-10412
粒子的	-10413
能分到	-10414
豆瓣酱	-10415
透明度	-10416
重大的	-10417
Lily	-10418
body	-10419
▁bar	-10420
▁在这个	-10421
分享一些	-10422
我们不能	-10423
等方式来	-10424
莎士比亚	-10425
▁full	-10426
▁pays	-10427
商业计划书	-10428
政府和企业	-10429
水果和蔬菜	-10430
▁chair	-10431
▁reach	-10432
在这个例子中	-10433
49	-10434
▁爱	-10435
スト	-10436
产物	-10437
仪器	-10438
你呢	-10439
加仑	-10440
厉害	-10441
哑铃	-10442
增进	-10443
感官	-10444
战胜	-10445
放到	-10446
最具	-10447
溶解	-10448
猎物	-10449
童话	-10450
等多	-10451
精华	-10452
约束	-10453
肿瘤	-10454
花草	-10455
防火	-10456
马上	-10457
高于	-10458
hip	-10459
▁ju	-10460
▁pu	-10461
▁我的	-10462
公交车	-10463
在一些	-10464
学会了	-10465
意思是	-10466
清晰地	-10467
的气息	-10468
的物质	-10469
紫外线	-10470
维护和	-10471
起源于	-10472
bert	-10473
ired	-10474
rect	-10475
▁eng	-10476
如果你的	-10477
ophie	-10478
我可以为你	-10479
提供的信息	-10480
的人际关系	-10481
▁cents	-10482
▁better	-10483
▁leaves	-10484
▁partic	-10485
▁\"\"\"\	-10486
56	-10487
▁,	-10488
决心	-10489
坚强	-10490
峡谷	-10491
文物	-10492
植被	-10493
珍贵	-10494
磨损	-10495
精美	-10496
线段	-10497
西亚	-10498
起床	-10499
面前	-10500
马拉	-10501
1/4	-10502
▁控制	-10503
。\\	-10504
不可能	-10505
了解和	-10506
人民币	-10507
创意和	-10508
天空中	-10509
帮助吗	-10510
很喜欢	-10511
我看到	-10512
推断出	-10513
的最佳	-10514
你的帮助	-10515
创作一首	-10516
短时间内	-10517
社会问题	-10518
科幻电影	-10519
asing	-10520
▁disc	-10521
▁作为一名	-10522
成功的关键	-10523
▁Alice	-10524
▁place	-10525
▁cheese	-10526
:4	-10527
CO	-10528
债券	-10529
农村	-10530
如有	-10531
学的	-10532
客房	-10533
密集	-10534
气质	-10535
轨迹	-10536
退出	-10537
遭遇	-10538
降解	-10539
静静	-10540
00,	-10541
ROM	-10542
してい	-10543
共和国	-10544
均匀地	-10545
它通过	-10546
建筑师	-10547
思维和	-10548
旅途中	-10549
有力的	-10550
模式和	-10551
的区域	-10552
的指南	-10553
▁0;\	-10554
▁140	-10555
但我认为	-10556
开发人员	-10557
所带来的	-10558
蛋白质和	-10559
非常喜欢	-10560
aring	-10561
nMark	-10562
一些简单的	-10563
需要考虑到	-10564
gorith	-10565
ounter	-10566
▁focus	-10567
▁study	-10568
nFinally	-10569
▁greater	-10570
▁п	-10571
三星	-10572
两次	-10573
乡村	-10574
人与	-10575
农历	-10576
凝聚	-10577
审核	-10578
涌现	-10579
漫画	-10580
特质	-10581
聆听	-10582
起点	-10583
重写	-10584
雨水	-10585
飞翔	-10586
龙虾	-10587
une	-10588
use	-10589
します	-10590
共同点	-10591
只有在	-10592
太多的	-10593
成长和	-10594
生活和	-10595
的表面	-10596
程序的	-10597
▁不用谢	-10598
不断增加	-10599
植物需要	-10600
流行歌曲	-10601
资产负债	-10602
非常出色	-10603
积极的心态	-10604
人工智能系统	-10605
在这篇文章中	-10606
买家	-10607
交响	-10608
作曲	-10609
升起	-10610
在水	-10611
奥秘	-10612
瘦肉	-10613
粉色	-10614
说的	-10615
账号	-10616
起着	-10617
鸡尾	-10618
gar	-10619
▁Pl	-10620
▁Sp	-10621
中进行	-10622
在他的	-10623
的分析	-10624
的处理	-10625
fect	-10626
健身计划	-10627
历史上最	-10628
大气污染	-10629
的可能性	-10630
艺术形式	-10631
isten	-10632
▁here	-10633
▁show	-10634
机遇和挑战	-10635
uation	-10636
{\	-10637
中药	-10638
亮度	-10639
前面	-10640
在该	-10641
奶粉	-10642
巴西	-10643
抑制	-10644
放心	-10645
海滨	-10646
电荷	-10647
签订	-10648
而出	-10649
要想	-10650
适度	-10651
钢笔	-10652
高峰	-10653
250	-10654
önn	-10655
▁(4	-10656
与我们	-10657
会更加	-10658
前所未	-10659
和销售	-10660
基础上	-10661
小说中	-10662
当前的	-10663
时尚的	-10664
服务的	-10665
每分钟	-10666
的年轻	-10667
能量和	-10668
食物和	-10669
ilar	-10670
▁有一个	-10671
初学者的	-10672
支付方式	-10673
新产品的	-10674
▁20.\	-10675
▁land	-10676
▁tall	-10677
你可以使用	-10678
获得更多的	-10679
▁allow	-10680
▁final	-10681
▁tasks	-10682
人工智能领域	-10683
我想了解一下	-10684
人工智能还可以	-10685
▁equations	-10686
包裹	-10687
复古	-10688
教训	-10689
施加	-10690
最早	-10691
混乱	-10692
灿烂	-10693
球和	-10694
xxx	-10695
▁列出	-10696
他们对	-10697
句子的	-10698
可以先	-10699
可重复	-10700
的原理	-10701
通常由	-10702
需求的	-10703
Mike	-10704
chie	-10705
▁dep	-10706
列举一些	-10707
太阳系中	-10708
更加便捷	-10709
能够满足	-10710
需要支付	-10711
▁rain	-10712
atures	-10713
▁coins	-10714
▁plant	-10715
▁maximum	-10716
+4	-10717
亮点	-10718
和盐	-10719
宇航	-10720
意境	-10721
抵抗	-10722
放进	-10723
日历	-10724
星座	-10725
水量	-10726
短信	-10727
辩护	-10728
飞速	-10729
%。\	-10730
2-3	-10731
:|:	-10732
▁-3	-10733
▁km	-10734
剩余的	-10735
去探索	-10736
垃圾桶	-10737
的行星	-10738
集中在	-10739
▁$16	-10740
传统节日	-10741
制作步骤	-10742
文本分类	-10743
每个元素	-10744
股票价格	-10745
金融机构	-10746
需要一些	-10747
非常好的	-10748
arent	-10749
历史和文化	-10750
成为了一个	-10751
▁check	-10752
▁packs	-10753
VR	-10754
一同	-10755
一群	-10756
主流	-10757
他要	-10758
友善	-10759
字塔	-10760
捞出	-10761
智商	-10762
最有	-10763
木质	-10764
约定	-10765
绕着	-10766
肖申	-10767
股东	-10768
跟进	-10769
邻居	-10770
震撼	-10771
mar	-10772
▁智能	-10773
▁翻译	-10774
▁鉴别	-10775
个水果	-10776
体现在	-10777
典型的	-10778
是一首	-10779
最近在	-10780
这个词	-10781
金字塔	-10782
非常高	-10783
一下你的	-10784
减少垃圾	-10785
我建议您	-10786
的目标和	-10787
相似之处	-10788
能够提高	-10789
这项技术	-10790
定义了一个	-10791
的主要原因	-10792
▁girls	-10793
▁impac	-10794
减少对环境的	-10795
▁collected	-10796
▁kilograms	-10797
占比	-10798
定价	-10799
实的	-10800
快递	-10801
感人	-10802
拌匀	-10803
树立	-10804
流通	-10805
生姜	-10806
除数	-10807
▁Ad	-10808
基因组	-10809
来判断	-10810
的科学	-10811
训练和	-10812
鸡尾酒	-10813
anta	-10814
▁big	-10815
了多少钱	-10816
健康生活	-10817
描述一个	-10818
iches	-10819
▁meet	-10820
你最喜欢的	-10821
我可以给你	-10822
banana	-10823
nVerse	-10824
▁players	-10825
SU	-10826
ey	-10827
中介	-10828
人为	-10829
人脸	-10830
全身	-10831
共识	-10832
剧本	-10833
司机	-10834
子等	-10835
对抗	-10836
植树	-10837
氢气	-10838
流失	-10839
流淌	-10840
蝉鸣	-10841
越大	-10842
迈克	-10843
还款	-10844
邮箱	-10845
(2,	-10846
**\	-10847
nIt	-10848
拥有的	-10849
的人们	-10850
神奇的	-10851
迷人的	-10852
领导力	-10853
pmod	-10854
▁近年来	-10855
▁这句话	-10856
以更好地	-10857
受到影响	-10858
同时也要	-10859
根据你的	-10860
的年轻人	-10861
简洁明了	-10862
David	-10863
atest	-10864
index	-10865
order	-10866
ransl	-10867
我们需要在	-10868
提供足够的	-10869
空气净化器	-10870
ribute	-10871
▁party	-10872
我们可以采取	-10873
▁yellow	-10874
一遍	-10875
两条	-10876
传奇	-10877
刻画	-10878
崩溃	-10879
差距	-10880
恶劣	-10881
片和	-10882
系数	-10883
纸巾	-10884
缴纳	-10885
肉质	-10886
自在	-10887
般的	-10888
让她	-10889
销量	-10890
hel	-10891
vol	-10892
▁--	-10893
▁输入	-10894
不舒服	-10895
人类对	-10896
再加上	-10897
加入到	-10898
可以说	-10899
和风格	-10900
因此在	-10901
开放式	-10902
想了解	-10903
每天的	-10904
活动中	-10905
经历和	-10906
自己在	-10907
被用来	-10908
ined	-10909
中最大的	-10910
为我们的	-10911
以下公式	-10912
历史文化	-10913
尝试一些	-10914
更准确的	-10915
这家餐厅	-10916
önnen	-10917
▁Mary	-10918
还有一个问题	-10919
▁environment	-10920
II	-10921
NN	-10922
余弦	-10923
倍数	-10924
华盛	-10925
在你	-10926
并向	-10927
日记	-10928
深厚	-10929
立体	-10930
脆弱	-10931
蒸发	-10932
言语	-10933
误差	-10934
走到	-10935
过分	-10936
▁测试	-10937
▁解读	-10938
和信息	-10939
方方面	-10940
烤盘上	-10941
的决策	-10942
过去的	-10943
陌生人	-10944
驾驶员	-10945
icro	-10946
rist	-10947
ward	-10948
内心深处	-10949
只有这样	-10950
lower	-10951
▁That	-10952
▁whole	-10953
我们需要考虑	-10954
berries	-10955
nAdding	-10956
▁personal	-10957
nCombining	-10958
▁activities	-10959
因其	-10960
子上	-10961
左侧	-10962
攀登	-10963
每只	-10964
阿里	-10965
集体	-10966
音箱	-10967
▁Se	-10968
▁培养	-10969
▁循环	-10970
世纪初	-10971
为社会	-10972
的主旨	-10973
真的吗	-10974
研究的	-10975
而这些	-10976
ency	-10977
▁110	-10978
▁我想要	-10979
可以包括	-10980
如何应对	-10981
家用电器	-10982
寻求专业	-10983
的方式来	-10984
范围内的	-10985
▁3000	-10986
的主要内容	-10987
▁tomat	-10988
是至关重要的	-10989
aturday	-10990
世界上最高的山峰	-10991
itionally	-10992
Le	-10993
佩戴	-10994
去过	-10995
打败	-10996
拓宽	-10997
推导	-10998
油漆	-10999
男人	-11000
超出	-11001
13.	-11002
ism	-11003
▁鼓励	-11004
个人和	-11005
人们会	-11006
俱乐部	-11007
双方的	-11008
和功能	-11009
如果不	-11010
开发的	-11011
有几个	-11012
深厚的	-11013
ares	-11014
▁$18	-11015
专业知识	-11016
全麦面包	-11017
提供一份	-11018
游戏规则	-11019
非常有趣	-11020
餐厅老板	-11021
▁Alex	-11022
▁very	-11023
▁went	-11024
alance	-11025
▁phone	-11026
▁sister	-11027
=6	-11028
aj	-11029
yl	-11030
▁能	-11031
。(	-11032
场上	-11033
改写	-11034
无疑	-11035
洞穴	-11036
爱心	-11037
牙刷	-11038
越高	-11039
车身	-11040
里斯	-11041
cal	-11042
nTh	-11043
与家人	-11044
中加入	-11045
企业在	-11046
参与到	-11047
是一份	-11048
的产生	-11049
alax	-11050
tion	-11051
▁dre	-11052
他们需要	-11053
垃圾邮件	-11054
文本进行	-11055
的影响是	-11056
▁bene	-11057
可能会影响	-11058
因素的影响	-11059
输出结果为	-11060
▁music	-11061
人工智能已经	-11062
▁temper	-11063
使用可再生能源	-11064
▁и	-11065
公主	-11066
印刷	-11067
圣诞	-11068
字段	-11069
小熊	-11070
手套	-11071
才是	-11072
标注	-11073
秩序	-11074
诚信	-11075
-30	-11076
aps	-11077
cel	-11078
▁现代	-11079
历史的	-11080
变量的	-11081
快乐的	-11082
我不能	-11083
推出的	-11084
更快速	-11085
的支持	-11086
这三个	-11087
高科技	-11088
user	-11089
▁Out	-11090
。\"\	-11091
令人兴奋	-11092
关于如何	-11093
如何影响	-11094
生命中的	-11095
研究人员	-11096
通常包括	-11097
acher	-11098
aggie	-11099
ivers	-11100
▁可以使用	-11101
含有丰富的	-11102
▁birds	-11103
▁movie	-11104
▁Saturday	-11105
то	-11106
云南	-11107
会儿	-11108
尿布	-11109
方位	-11110
旁边	-11111
最优	-11112
着重	-11113
诗词	-11114
这组	-11115
▁0;	-11116
▁销售	-11117
决定了	-11118
华盛顿	-11119
古希腊	-11120
我感到	-11121
有多种	-11122
神经元	-11123
网站的	-11124
高度的	-11125
▁Can	-11126
伦理问题	-11127
帮助孩子	-11128
我一直在	-11129
▁anal	-11130
翻译成英文	-11131
集中注意力	-11132
▁Apple	-11133
▁natural	-11134
▁success	-11135
-9	-11136
与其	-11137
二手	-11138
仰卧	-11139
便于	-11140
制动	-11141
勤奋	-11142
各地	-11143
审判	-11144
工人	-11145
是从	-11146
每位	-11147
相伴	-11148
相连	-11149
砍伐	-11150
米的	-11151
iod	-11152
不能被	-11153
人物的	-11154
案件的	-11155
深深地	-11156
的增长	-11157
还包括	-11158
魔法师	-11159
代表作品	-11160
农业生产	-11161
帮助用户	-11162
智能化和	-11163
科技进步	-11164
竞争优势	-11165
管理系统	-11166
行动起来	-11167
让我感到	-11168
进行评估	-11169
alaxy	-11170
aster	-11171
iting	-11172
以下是一篇	-11173
我可以帮您	-11174
▁enjoy	-11175
▁complex	-11176
光谱	-11177
写下	-11178
吃饭	-11179
唐诗	-11180
小雨	-11181
巴巴	-11182
性强	-11183
曲目	-11184
由此	-11185
续航	-11186
菠菜	-11187
落实	-11188
长久	-11189
项链	-11190
bre	-11191
▁Bl	-11192
▁婴儿	-11193
与朋友	-11194
充满着	-11195
其次是	-11196
和反馈	-11197
和智能	-11198
和运动	-11199
复杂性	-11200
将这个	-11201
幸福和	-11202
很强的	-11203
有一种	-11204
的两个	-11205
的两倍	-11206
的答案	-11207
随机数	-11208
1200	-11209
arth	-11210
一系列的	-11211
回收利用	-11212
在工作中	-11213
学习计划	-11214
撰写一份	-11215
需要一个	-11216
需要保持	-11217
,000\	-11218
▁stop	-11219
员工的工作	-11220
工作和生活	-11221
▁state	-11222
CP	-11223
▁等	-11224
五花	-11225
商标	-11226
处罚	-11227
奖项	-11228
清明	-11229
翻转	-11230
老年	-11231
薄片	-11232
账单	-11233
这本	-11234
迷茫	-11235
=10	-11236
▁ca	-11237
▁个人	-11238
▁健康	-11239
▁完成	-11240
和颜色	-11241
在设计	-11242
小男孩	-11243
生产线	-11244
西兰花	-11245
较好的	-11246
问题是	-11247
▁fun	-11248
可以满足	-11249
方方面面	-11250
books	-11251
一个有趣的	-11252
减少碳排放	-11253
巨大的影响	-11254
是一年中最	-11255
▁short	-11256
▁space	-11257
请问你能帮我	-11258
▁撰写一篇关于	-11259
▁working	-11260
2。	-11261
估计	-11262
俯卧	-11263
分词	-11264
器等	-11265
大厦	-11266
得很	-11267
愤怒	-11268
曝光	-11269
规格	-11270
边界	-11271
配以	-11272
陶瓷	-11273
ron	-11274
▁练习	-11275
个鸡蛋	-11276
了这个	-11277
和解决	-11278
外星人	-11279
或使用	-11280
的美丽	-11281
确定的	-11282
红色和	-11283
这幅画	-11284
道路上	-11285
Lisa	-11286
omin	-11287
▁请回答	-11288
不可忽视	-11289
他的作品	-11290
如何进行	-11291
更加美好	-11292
有害物质	-11293
鼓励人们	-11294
acity	-11295
imeter	-11296
请问您有什么	-11297
ational	-11298
▁attend	-11299
▁challe	-11300
▁生成一个有关	-11301
▁sandwiches	-11302
▁в	-11303
古城	-11304
天堂	-11305
强壮	-11306
抒情	-11307
指针	-11308
撞击	-11309
收纳	-11310
服饰	-11311
片段	-11312
穿戴	-11313
股市	-11314
背包	-11315
飓风	-11316
ene	-11317
与同事	-11318
再加入	-11319
分子的	-11320
受访者	-11321
和实践	-11322
和意义	-11323
来控制	-11324
的现象	-11325
认识你	-11326
连接到	-11327
避免在	-11328
障碍物	-11329
预热至	-11330
thod	-11331
}{4}	-11332
▁gas	-11333
▁liv	-11334
但不限于	-11335
克的救赎	-11336
对于那些	-11337
将有助于	-11338
排序后的	-11339
苹果公司	-11340
计算结果	-11341
需要采取	-11342
ional	-11343
title	-11344
▁1500	-11345
人民共和国	-11346
的发展趋势	-11347
都有自己的	-11348
▁sorted	-11349
▁Therefore	-11350
不容	-11351
储备	-11352
击败	-11353
动量	-11354
反对	-11355
发达	-11356
哈希	-11357
宫殿	-11358
寂寞	-11359
寓意	-11360
批判	-11361
時間	-11362
生意	-11363
生的	-11364
终点	-11365
起伏	-11366
1-2	-11367
▁9.	-11368
▁np	-11369
▁牛奶	-11370
事物的	-11371
像人类	-11372
南美洲	-11373
组织和	-11374
=\",	-11375
aken	-11376
▁fre	-11377
不同之处	-11378
为了解决	-11379
在过去的	-11380
所以小明	-11381
未来城市	-11382
编写代码	-11383
销售策略	-11384
uture	-11385
▁mess	-11386
太阳能电池	-11387
如果你想要	-11388
▁$1000	-11389
▁ident	-11390
▁round	-11391
▁seeds	-11392
▁shoes	-11393
▁stick	-11394
▁matrix	-11395
4:	-11396
Fi	-11397
▁?	-11398
▁≈	-11399
▁白	-11400
乐园	-11401
亲情	-11402
侦探	-11403
几次	-11404
凸显	-11405
名人	-11406
喂食	-11407
新娘	-11408
离不	-11409
等地	-11410
能在	-11411
^2}	-11412
flo	-11413
}{6	-11414
▁ha	-11415
▁请对	-11416
你已经	-11417
出一些	-11418
反馈和	-11419
可以与	-11420
和应对	-11421
小故事	-11422
抑郁症	-11423
挑战性	-11424
的一项	-11425
的区别	-11426
表达出	-11427
试试看	-11428
还具有	-11429
这表明	-11430
HTML	-11431
ateg	-11432
back	-11433
ills	-11434
▁Gre	-11435
▁cut	-11436
▁ord	-11437
也有一些	-11438
在线教育	-11439
探索新的	-11440
睡眠时间	-11441
该怎么办	-11442
选择一些	-11443
需要掌握	-11444
Emily	-11445
▁$300	-11446
▁care	-11447
▁eine	-11448
▁soft	-11449
保持健康的	-11450
▁array	-11451
肖申克的救赎	-11452
▁consume	-11453
▁receive	-11454
ww	-11455
两侧	-11456
交谈	-11457
分隔	-11458
干预	-11459
振动	-11460
有序	-11461
比分	-11462
翩翩	-11463
若干	-11464
邪恶	-11465
队员	-11466
?”\	-11467
amp	-11468
ere	-11469
▁->	-11470
▁Do	-11471
▁Ih	-11472
但是它	-11473
则可以	-11474
后加入	-11475
和特点	-11476
回到了	-11477
局限性	-11478
我曾经	-11479
来保护	-11480
水平和	-11481
海滩上	-11482
特斯拉	-11483
玫瑰花	-11484
等措施	-11485
给自己	-11486
美妙的	-11487
nter	-11488
▁14\	-11489
▁3/4	-11490
▁cub	-11491
大大提高	-11492
大量数据	-11493
开发一个	-11494
根据这个	-11495
能够提供	-11496
语法错误	-11497
_____	-11498
jects	-11499
▁撰写一篇	-11500
以下是关于	-11501
技术的应用	-11502
▁iPhone	-11503
▁worked	-11504
温室气体的排放	-11505
保温	-11506
古风	-11507
和大	-11508
尤为	-11509
指控	-11510
摇曳	-11511
是要	-11512
杏仁	-11513
深色	-11514
电线	-11515
硫酸	-11516
绝句	-11517
薯片	-11518
赞赏	-11519
配色	-11520
酥脆	-11521
钞票	-11522
键盘	-11523
问候	-11524
防治	-11525
-2)	-11526
5.\	-11527
:20	-11528
ero	-11529
▁39	-11530
▁因为	-11531
▁寻找	-11532
他开始	-11533
基础的	-11534
并列出	-11535
引力场	-11536
控制器	-11537
的看法	-11538
遇到的	-11539
需要先	-11540
3000	-11541
▁tar	-11542
▁我觉得	-11543
多样性和	-11544
应该注意	-11545
打造一个	-11546
更广泛的	-11547
短篇小说	-11548
认真考虑	-11549
销售经理	-11550
食品安全	-11551
自然环境的	-11552
urther	-11553
▁Sarah	-11554
▁favor	-11555
产生负面影响	-11556
如果您有任何	-11557
未来发展趋势	-11558
Windows	-11559
减少使用一次性	-11560
.”	-11561
::	-11562
嗅觉	-11563
平稳	-11564
底蕴	-11565
投票	-11566
捕食	-11567
搭建	-11568
方块	-11569
权威	-11570
甜味	-11571
用心	-11572
约会	-11573
细心	-11574
羊肉	-11575
著作	-11576
这片	-11577
都将	-11578
酸碱	-11579
鼠标	-11580
1.2	-11581
▁ra	-11582
▁分钟	-11583
加起来	-11584
女性的	-11585
搅拌器	-11586
是我的	-11587
的分类	-11588
算法来	-11589
调味品	-11590
问题时	-11591
1500	-11592
inks	-11593
▁15,	-11594
▁bab	-11595
▁der	-11596
▁写一个	-11597
代码示例	-11598
历史悠久	-11599
可以降低	-11600
我们无法	-11601
改进建议	-11602
▁boys	-11603
▁legs	-11604
发现了一个	-11605
带来了许多	-11606
是很重要的	-11607
看起来更加	-11608
非常感兴趣	-11609
button	-11610
▁False	-11611
▁compet	-11612
▁können	-11613
▁purchase	-11614
ek	-11615
{9	-11616
られ	-11617
后面	-11618
咖喱	-11619
女神	-11620
已有	-11621
常识	-11622
很久	-11623
指引	-11624
有力	-11625
格兰	-11626
炸鸡	-11627
石油	-11628
而来	-11629
肢体	-11630
韵律	-11631
黄昏	-11632
(20	-11633
10%	-11634
uit	-11635
▁Es	-11636
不同于	-11637
了一次	-11638
人性化	-11639
如果我	-11640
心灵的	-11641
是哪里	-11642
机会和	-11643
正常的	-11644
正整数	-11645
狗狗的	-11646
那里的	-11647
True	-11648
▁16\	-11649
▁Jan	-11650
▁ens	-11651
▁hig	-11652
使计算机	-11653
因素之一	-11654
工作经验	-11655
物理学家	-11656
dfrac	-11657
带来的影响	-11658
有没有什么	-11659
关于爱情的诗歌	-11660
▁brother	-11661
▁Additionally	-11662
人机	-11663
四种	-11664
多芬	-11665
奇特	-11666
姿态	-11667
树上	-11668
样品	-11669
液态	-11670
省份	-11671
肥皂	-11672
读取	-11673
这条	-11674
那就	-11675
阿尔	-11676
阿拉	-11677
降临	-11678
骨头	-11679
▁学会	-11680
▁对话	-11681
为员工	-11682
了一只	-11683
价格和	-11684
分布在	-11685
勇敢的	-11686
和我的	-11687
城市中	-11688
增长率	-11689
是一次	-11690
生成器	-11691
病虫害	-11692
的中心	-11693
的品牌	-11694
的商品	-11695
的形状	-11696
的气候	-11697
的科技	-11698
聪明的	-11699
超过了	-11700
▁25\	-11701
和价值观	-11702
如果您的	-11703
它是一个	-11704
数据结构	-11705
是正确的	-11706
热带雨林	-11707
▁pens	-11708
▁stam	-11709
和社交媒体	-11710
生活和工作	-11711
的解决方案	-11712
nwhile	-11713
▁Since	-11714
每个人的责任	-11715
保护我们的环境	-11716
团体	-11717
外形	-11718
大楼	-11719
夫妇	-11720
失误	-11721
好评	-11722
百度	-11723
的海	-11724
签署	-11725
聚合	-11726
航天	-11727
bot	-11728
ler	-11729
vin	-11730
▁['	-11731
▁支持	-11732
为患者	-11733
了他的	-11734
和法律	-11735
建议在	-11736
盖茨比	-11737
第二天	-11738
等材料	-11739
贝多芬	-11740
运动的	-11741
针对性	-11742
next	-11743
ored	-11744
ucks	-11745
▁bed	-11746
▁por	-11747
不同的人	-11748
不良影响	-11749
中的所有	-11750
他们可以	-11751
强化学习	-11752
步骤如下	-11753
菲尔铁塔	-11754
array	-11755
usion	-11756
▁5000	-11757
▁cult	-11758
▁docu	-11759
是中国古代	-11760
解决的问题	-11761
▁adult	-11762
健康饮食的文章	-11763
总结他们在聊什么	-11764
5、	-11765
ни	-11766
专利	-11767
光明	-11768
名单	-11769
大力	-11770
实行	-11771
很少	-11772
恶化	-11773
拼图	-11774
曲子	-11775
次方	-11776
正则	-11777
落下	-11778
钥匙	-11779
青山	-11780
风情	-11781
高档	-11782
鼓舞	-11783
4.\	-11784
▁不要	-11785
▁研究	-11786
▁阐明	-11787
中添加	-11788
和责任	-11789
喜欢在	-11790
团队中	-11791
并分析	-11792
建立了	-11793
形容词	-11794
更具有	-11795
最多的	-11796
独立的	-11797
等特点	-11798
糖果数	-11799
过滤器	-11800
cher	-11801
之间存在	-11802
对话总结	-11803
数字营销	-11804
oring	-11805
▁cupc	-11806
分享自己的	-11807
前所未有的	-11808
的关键信息	-11809
等多个领域	-11810
人工智能发展	-11811
ulation	-11812
▁garden	-11813
▁ticket	-11814
▁However	-11815
▁contain	-11816
基于以上这段文本	-11817
ordinates	-11818
人工智能技术的应用	-11819
▁purchased	-11820
oo	-11821
td	-11822
入侵	-11823
制备	-11824
前沿	-11825
千年	-11826
占有	-11827
复仇	-11828
多人	-11829
店员	-11830
当他	-11831
漫长	-11832
疯狂	-11833
相乘	-11834
精湛	-11835
给他	-11836
质感	-11837
鱼肉	-11838
ado	-11839
切碎的	-11840
和娱乐	-11841
在公司	-11842
您应该	-11843
所在的	-11844
是怎么	-11845
物质和	-11846
相似的	-11847
美国的	-11848
从而导致	-11849
地理位置	-11850
基因编辑	-11851
排序算法	-11852
数据类型	-11853
目标市场	-11854
详细介绍	-11855
▁Gener	-11856
▁dress	-11857
包括但不限于	-11858
如何制作一道	-11859
技术的不断发展	-11860
对话总结主要内容	-11861
根据以上这段对话总结主要内容	-11862
▁做	-11863
▁或	-11864
▁无	-11865
宽松	-11866
小偷	-11867
建模	-11868
成的	-11869
招牌	-11870
既有	-11871
瓶子	-11872
着手	-11873
纠缠	-11874
罗斯	-11875
肠道	-11876
脚步	-11877
50,	-11878
mel	-11879
mes	-11880
▁37	-11881
▁El	-11882
▁从前	-11883
▁植物	-11884
▁需要	-11885
但由于	-11886
俯卧撑	-11887
华丽的	-11888
和音乐	-11889
家具和	-11890
并开始	-11891
是现代	-11892
漫长的	-11893
的列表	-11894
能够让	-11895
金色的	-11896
html	-11897
irth	-11898
sole	-11899
▁128	-11900
▁won	-11901
一些挑战	-11902
力量训练	-11903
只有通过	-11904
可以改善	-11905
可以更加	-11906
年轻人的	-11907
身体素质	-11908
这个领域	-11909
nSara	-11910
▁chips	-11911
▁video	-11912
▁enough	-11913
▁rewrite	-11914
我有一个问题想问	-11915
▁requires	-11916
pm	-11917
体会	-11918
加班	-11919
原价	-11920
嘉宾	-11921
在本	-11922
地域	-11923
声明	-11924
审视	-11925
年内	-11926
广大	-11927
废气	-11928
按下	-11929
晴天	-11930
棉花	-11931
清淡	-11932
烧开	-11933
独具	-11934
用手	-11935
目光	-11936
象棋	-11937
运转	-11938
问你	-11939
ibr	-11940
▁确认	-11941
▁运动	-11942
主要由	-11943
以获取	-11944
合作和	-11945
多岁的	-11946
它们会	-11947
文明的	-11948
步骤和	-11949
的旅游	-11950
部门的	-11951
配备了	-11952
iful	-11953
▁24\	-11954
▁sus	-11955
也会影响	-11956
值得我们	-11957
地球表面	-11958
您的问题	-11959
训练模型	-11960
距离太阳	-11961
销售人员	-11962
10000	-11963
aught	-11964
price	-11965
▁feed	-11966
▁sound	-11967
▁player	-11968
▁solution	-11969
▁写一篇关于人工智能的	-11970
NL	-11971
发型	-11972
可选	-11973
四大	-11974
墨西	-11975
幼儿	-11976
想过	-11977
水流	-11978
瓶颈	-11979
篮子	-11980
诞生	-11981
遗迹	-11982
都不	-11983
香菜	-11984
(0,	-11985
dig	-11986
▁At	-11987
你是我	-11988
分辨率	-11989
史上的	-11990
和推广	-11991
圆形的	-11992
墨西哥	-11993
将一个	-11994
是一座	-11995
来吸引	-11996
的措施	-11997
食品和	-11998
食物链	-11999
aten	-12000
atic	-12001
size	-12002
taur	-12003
▁Cal	-12004
▁typ	-12005
市场推广	-12006
您的公司	-12007
我们一起	-12008
我会尝试	-12009
或者其他	-12010
缓解焦虑	-12011
▁phys	-12012
我们可能会	-12013
format	-12014
▁having	-12015
▁specific	-12016
($	-12017
IM	-12018
▁→	-12019
下落	-12020
冲泡	-12021
宫保	-12022
最少	-12023
滥用	-12024
爱你	-12025
竹子	-12026
糖浆	-12027
蜡烛	-12028
阻止	-12029
man	-12030
▁4)	-12031
▁评定	-12032
也不会	-12033
听到了	-12034
围绕着	-12035
家具的	-12036
家庭和	-12037
平衡和	-12038
收到了	-12039
整数的	-12040
明亮的	-12041
等元素	-12042
表达对	-12043
alls	-12044
nXXX	-12045
▁six	-12046
亲密关系	-12047
周围环境	-12048
宇宙中的	-12049
定期进行	-12050
我的建议	-12051
所需材料	-12052
文章内容	-12053
服务质量	-12054
的建议吗	-12055
mazon	-12056
▁50.\	-12057
▁描述一下	-12058
▁生成一句	-12059
发挥自己的	-12060
自己独特的	-12061
▁goals	-12062
得到广泛应用	-12063
我们可以一起	-12064
▁生成一首诗歌	-12065
▁algorith	-12066
,`	-12067
An	-12068
▁向	-12069
▁长	-12070
后再	-12071
好吧	-12072
妥协	-12073
床上	-12074
是很	-12075
更能	-12076
朵花	-12077
池塘	-12078
深邃	-12079
環境	-12080
的呢	-12081
老抽	-12082
艾伦	-12083
说服	-12084
迷宫	-12085
追寻	-12086
韩国	-12087
▁然后	-12088
五花肉	-12089
人类和	-12090
和设计	-12091
喜爱的	-12092
实际的	-12093
应该有	-12094
测试和	-12095
物种的	-12096
的各种	-12097
适合在	-12098
elta	-12099
ural	-12100
▁lim	-12101
▁mag	-12102
但我可以	-12103
作为一名	-12104
圆的半径	-12105
家庭装修	-12106
平方厘米	-12107
用户需求	-12108
相信自己	-12109
Apple	-12110
▁deep	-12111
▁taken	-12112
谢谢您的建议	-12113
=8	-12114
▁!	-12115
▁去	-12116
借鉴	-12117
刑事	-12118
干涉	-12119
所处	-12120
放上	-12121
生气	-12122
荣誉	-12123
陷阱	-12124
鸡腿	-12125
鼻子	-12126
ada	-12127
分钟的	-12128
和经验	-12129
商品的	-12130
日子里	-12131
最终的	-12132
来到了	-12133
清洁和	-12134
生命中	-12135
的工具	-12136
翻译为	-12137
负责人	-12138
专业人员	-12139
两个句子	-12140
保持联系	-12141
历史上的	-12142
广告宣传	-12143
有意义的	-12144
生日礼物	-12145
逐渐增加	-12146
ether	-12147
▁rows	-12148
社交媒体和	-12149
▁doing	-12150
成功的企业家	-12151
我们需要更多的	-12152
▁sequence	-12153
$。	-12154
5)	-12155
▁天	-12156
▁次	-12157
一双	-12158
不利	-12159
与之	-12160
务必	-12161
和弦	-12162
圣母	-12163
夜空	-12164
对了	-12165
小白	-12166
巧妙	-12167
带给	-12168
当我	-12169
意面	-12170
服用	-12171
期的	-12172
纳米	-12173
结婚	-12174
花坛	-12175
{3}	-12176
▁46	-12177
▁ow	-12178
也开始	-12179
和价格	-12180
在整个	-12181
培训和	-12182
的人数	-12183
的年龄	-12184
社会和	-12185
组织的	-12186
花园里	-12187
表现了	-12188
适度的	-12189
chen	-12190
pand	-12191
以上对话	-12192
如何解决	-12193
ambda	-12194
▁2020	-12195
▁创造一个	-12196
数字化转型	-12197
▁achie	-12198
▁simpl	-12199
▁profit	-12200
中华人民共和国	-12201
:'	-12202
UI	-12203
停留	-12204
则会	-12205
升水	-12206
太平	-12207
展望	-12208
感性	-12209
橙汁	-12210
绿叶	-12211
耐力	-12212
肤质	-12213
走出	-12214
隐患	-12215
静止	-12216
静谧	-12217
12,	-12218
CSS	-12219
▁开始	-12220
和交通	-12221
宇航员	-12222
必须要	-12223
成年人	-12224
注意的	-12225
的优势	-12226
的金额	-12227
科学和	-12228
训练集	-12229
▁New	-12230
不断提升	-12231
做出决策	-12232
做的事情	-12233
取代人类	-12234
建议使用	-12235
心理状态	-12236
的准确性	-12237
示例代码	-12238
编写一份	-12239
至金黄色	-12240
需要花费	-12241
▁Comp	-12242
▁cond	-12243
▁prev	-12244
复杂的问题	-12245
▁bread	-12246
▁conne	-12247
▁expens	-12248
▁things	-12249
▁monthly	-12250
7)	-12251
Sh	-12252
▁月	-12253
▁根	-12254
不易	-12255
你将	-12256
供您	-12257
凯特	-12258
右侧	-12259
在了	-12260
家装	-12261
成语	-12262
或过	-12263
无声	-12264
水晶	-12265
活動	-12266
灰尘	-12267
热衷	-12268
的心	-12269
眼前	-12270
竞赛	-12271
素材	-12272
自豪	-12273
茄子	-12274
螺旋	-12275
谷物	-12276
辆车	-12277
送到	-12278
陶醉	-12279
15.	-12280
ken	-12281
▁取出	-12282
▁日本	-12283
一直是	-12284
也无法	-12285
公式为	-12286
在你的	-12287
当时的	-12288
我今天	-12289
新朋友	-12290
是哪个	-12291
最多能	-12292
的人口	-12293
的理解	-12294
让您的	-12295
非常棒	-12296
ntil	-12297
▁fro	-12298
▁太好了	-12299
也可以在	-12300
吸引更多	-12301
这个想法	-12302
高品质的	-12303
inese	-12304
▁Name	-12305
▁toys	-12306
出现的次数	-12307
明确自己的	-12308
有效的方法	-12309
都有不同的	-12310
essica	-12311
▁users	-12312
ogether	-12313
▁account	-12314
人工智能和机器学习	-12315
▁background	-12316
YY	-12317
不等	-12318
之地	-12319
低于	-12320
厚度	-12321
固体	-12322
外卖	-12323
夸奖	-12324
她们	-12325
存放	-12326
得多	-12327
手里	-12328
括号	-12329
拼接	-12330
某一	-12331
梦中	-12332
模糊	-12333
游玩	-12334
点数	-12335
的确	-12336
背部	-12337
芳香	-12338
诊疗	-12339
较少	-12340
鳄鱼	-12341
▁我会	-12342
▁概括	-12343
互动和	-12344
会受到	-12345
你怎么	-12346
创造了	-12347
和决策	-12348
和焦虑	-12349
小时的	-12350
成本和	-12351
每一次	-12352
的经历	-12353
让员工	-12354
证明了	-12355
▁bec	-12356
▁swe	-12357
▁太棒了	-12358
你喜欢的	-12359
医疗诊断	-12360
建筑风格	-12361
我会推荐	-12362
才能真正	-12363
用自己的	-12364
为用户提供	-12365
带来了很多	-12366
▁Write	-12367
▁cream	-12368
▁cubic	-12369
▁watch	-12370
发挥重要作用	-12371
智能家居系统	-12372
▁temperature	-12373
77	-12374
▁王	-12375
不佳	-12376
以使	-12377
你看	-12378
外壳	-12379
奉献	-12380
套餐	-12381
学院	-12382
宝贵	-12383
弱点	-12384
打折	-12385
拿着	-12386
故乡	-12387
景区	-12388
淘宝	-12389
缤纷	-12390
衣柜	-12391
谓语	-12392
贝壳	-12393
路由	-12394
限度	-12395
零件	-12396
://	-12397
not	-12398
ram	-12399
▁5)	-12400
▁梳理	-12401
世界里	-12402
在工作	-12403
并减少	-12404
或多个	-12405
正面的	-12406
的优点	-12407
的智能	-12408
的相关	-12409
看到的	-12410
这可能	-12411
颗行星	-12412
area	-12413
▁Jul	-12414
不要过度	-12415
使用寿命	-12416
增强现实	-12417
放松心情	-12418
通常使用	-12419
▁Here	-12420
▁vege	-12421
▁我在北京	-12422
▁effic	-12423
是一个很好的	-12424
▁static	-12425
环境保护的文章	-12426
▁building	-12427
▁cupcakes	-12428
▁something	-12429
RE	-12430
また	-12431
中来	-12432
为其	-12433
光速	-12434
失踪	-12435
妻子	-12436
文案	-12437
日葵	-12438
田野	-12439
罪犯	-12440
警官	-12441
轻柔	-12442
,\\	-12443
99\	-12444
▁00	-12445
▁Co	-12446
▁优化	-12447
了一下	-12448
人与人	-12449
关键的	-12450
决定的	-12451
感觉很	-12452
找一个	-12453
掌握了	-12454
推出了	-12455
有关的	-12456
生命和	-12457
的传统	-12458
等内容	-12459
管理员	-12460
那请问	-12461
valu	-12462
▁1.\	-12463
▁las	-12464
▁个苹果	-12465
▁给一段	-12466
公司名称	-12467
可以得出	-12468
大写字母	-12469
宫保鸡丁	-12470
并且可以	-12471
的情感和	-12472
结合起来	-12473
自然现象	-12474
这个名字	-12475
illed	-12476
ntext	-12477
point	-12478
▁Frid	-12479
文化和历史	-12480
积极的影响	-12481
选择适合的	-12482
,000.\	-12483
对话内容回答	-12484
是一种常见的	-12485
根据以上这段对话内容回答	-12486
[1	-12487
ua	-12488
》-	-12489
不知	-12490
光泽	-12491
入住	-12492
喉咙	-12493
提倡	-12494
正传	-12495
的那	-12496
组件	-12497
脱颖	-12498
芭蕾	-12499
迷失	-12500
青菜	-12501
音符	-12502
1/2	-12503
▁摘要	-12504
として	-12505
和你的	-12506
小学生	-12507
应聘者	-12508
数量是	-12509
方程组	-12510
是一本	-12511
正在为	-12512
烤盘中	-12513
的报告	-12514
第一位	-12515
设置为	-12516
车辆的	-12517
银河系	-12518
ifth	-12519
mand	-12520
view	-12521
▁8.\	-12522
▁Luc	-12523
▁gro	-12524
加强环保	-12525
情感分类	-12526
能够快速	-12527
许多领域	-12528
通常具有	-12529
▁jour	-12530
があります	-12531
在金融领域	-12532
在某些情况下	-12533
▁orange	-12534
AM	-12535
].	-12536
nX	-12537
也被	-12538
凭借	-12539
叶斯	-12540
各大	-12541
嘴巴	-12542
外界	-12543
奶茶	-12544
强制	-12545
昨晚	-12546
样子	-12547
滑雪	-12548
让其	-12549
退货	-12550
都市	-12551
阻碍	-12552
高压	-12553
魔术	-12554
];\	-12555
▁wa	-12556
▁你的	-12557
同一个	-12558
婴儿的	-12559
对公司	-12560
的计划	-12561
经济的	-12562
西游记	-12563
那请你	-12564
销售量	-12565
食物的	-12566
plot	-12567
▁dev	-12568
▁我同意	-12569
仔细阅读	-12570
以下几种	-12571
你可以先	-12572
学习如何	-12573
提供更多	-12574
政府可以	-12575
的时间内	-12576
讨论一下	-12577
需要改进	-12578
\");\	-12579
▁dire	-12580
可以让人们	-12581
并输出结果	-12582
美好的回忆	-12583
在全球范围内	-12584
城市交通拥堵	-12585
▁buying	-12586
▁	-12587
,	-12588
e	-12589
n	-12590
的	-12591
t	-12592
"	-12593
。	-12594
\	-12595
a	-12596
o	-12597
i	-12598
s	-12599
:	-12600
l	-12601
r	-12602
一	-12603
m	-12604
和	-12605
h	-12606
.	-12607
是	-12608
u	-12609
我	-12610
以	-12611
、	-12612
d	-12613
c	-12614
0	-12615
个	-12616
在	-12617
可	-12618
1	-12619
b	-12620
f	-12621
有	-12622
人	-12623
2	-12624
们	-12625
能	-12626
x	-12627
3	-12628
5	-12629
p	-12630
要	-12631
用	-12632
这	-12633
了	-12634
中	-12635
为	-12636
-	-12637
g	-12638
_	-12639
生	-12640
不	-12641
y	-12642
{	-12643
}	-12644
w	-12645
你	-12646
来	-12647
如	-12648
T	-12649
好	-12650
成	-12651
方	-12652
对	-12653
时	-12654
等	-12655
到	-12656
行	-12657
?	-12658
需	-12659
于	-12660
=	-12661
4	-12662
学	-12663
下	-12664
些	-12665
$	-12666
数	-12667
地	-12668
会	-12669
自	-12670
小	-12671
|	-12672
S	-12673
更	-12674
)	-12675
他	-12676
v	-12677
多	-12678
I	-12679
作	-12680
分	-12681
物	-12682
(	-12683
出	-12684
上	-12685
/	-12686
工	-12687
提	-12688
文	-12689
面	-12690
发	-12691
大	-12692
题	-12693
过	-12694
动	-12695
保	-12696
理	-12697
现	-12698
应	-12699
力	-12700
关	-12701
同	-12702
并	-12703
果	-12704
加	-12705
问	-12706
化	-12707
种	-12708
品	-12709
进	-12710
最	-12711
性	-12712
体	-12713
将	-12714
子	-12715
高	-12716
N	-12717
法	-12718
您	-12719
A	-12720
通	-12721
解	-12722
k	-12723
也	-12724
定	-12725
量	-12726
其	-12727
常	-12728
6	-12729
使	-12730
技	-12731
度	-12732
家	-12733
感	-12734
它	-12735
重	-12736
8	-12737
<	-12738
明	-12739
>	-12740
或	-12741
得	-12742
情	-12743
之	-12744
据	-12745
间	-12746
计	-12747
意	-12748
合	-12749
然	-12750
色	-12751
天	-12752
机	-12753
类	-12754
业	-12755
因	-12756
程	-12757
表	-12758
环	-12759
公	-12760
智	-12761
新	-12762
经	-12763
么	-12764
而	-12765
实	-12766
建	-12767
入	-12768
术	-12769
+	-12770
式	-12771
很	-12772
9	-12773
M	-12774
者	-12775
后	-12776
此	-12777
产	-12778
水	-12779
制	-12780
活	-12781
点	-12782
心	-12783
给	-12784
想	-12785
展	-12786
请	-12787
信	-12788
所	-12789
`	-12790
气	-12791
本	-12792
还	-12793
当	-12794
美	-12795
确	-12796
相	-12797
7	-12798
与	-12799
着	-12800
助	-12801
系	-12802
主	-12803
让	-12804
影	-12805
但	-12806
开	-12807
比	-12808
习	-12809
年	-12810
具	-12811
帮	-12812
每	-12813
持	-12814
适	-12815
#	-12816
己	-12817
电	-12818
内	-12819
代	-12820
都	-12821
语	-12822
选	-12823
设	-12824
变	-12825
供	-12826
特	-12827
算	-12828
质	-12829
该	-12830
从	-12831
务	-12832
全	-12833
包	-12834
球	-12835
非	-12836
目	-12837
长	-12838
食	-12839
少	-12840
事	-12841
外	-12842
起	-12843
市	-12844
名	-12845
场	-12846
求	-12847
写	-12848
例	-12849
注	-12850
境	-12851
交	-12852
里	-12853
道	-12854
'	-12855
说	-12856
位	-12857
章	-12858
司	-12859
”	-12860
“	-12861
那	-12862
息	-12863
创	-12864
器	-12865
正	-12866
平	-12867
户	-12868
及	-12869
身	-12870
何	-12871
前	-12872
够	-12873
什	-12874
受	-12875
医	-12876
手	-12877
C	-12878
结	-12879
B	-12880
效	-12881
格	-12882
看	-12883
总	-12884
话	-12885
元	-12886
科	-12887
风	-12888
知	-12889
游	-12890
择	-12891
字	-12892
取	-12893
利	-12894
议	-12895
社	-12896
健	-12897
;	-12898
放	-12899
响	-12900
期	-12901
决	-12902
容	-12903
安	-12904
根	-12905
部	-12906
型	-12907
领	-12908
步	-12909
日	-12910
括	-12911
P	-12912
资	-12913
节	-12914
考	-12915
统	-12916
料	-12917
形	-12918
任	-12919
篇	-12920
推	-12921
乐	-12922
去	-12923
被	-12924
强	-12925
样	-12926
处	-12927
流	-12928
员	-12929
*	-12930
域	-12931
护	-12932
单	-12933
价	-12934
验	-12935
次	-12936
两	-12937
吗	-12938
段	-12939
断	-12940
未	-12941
回	-12942
深	-12943
减	-12944
基	-12945
无	-12946
件	-12947
调	-12948
音	-12949
就	-12950
首	-12951
认	-12952
疗	-12953
试	-12954
识	-12955
标	-12956
服	-12957
q	-12958
先	-12959
素	-12960
星	-12961
导	-12962
客	-12963
做	-12964
国	-12965
车	-12966
观	-12967
源	-12968
空	-12969
运	-12970
值	-12971
备	-12972
只	-12973
三	-12974
指	-12975
J	-12976
L	-12977
支	-12978
别	-12979
优	-12980
各	-12981
案	-12982
康	-12983
述	-12984
向	-12985
造	-12986
传	-12987
花	-12988
光	-12989
欢	-12990
言	-12991
带	-12992
增	-12993
爱	-12994
海	-12995
完	-12996
整	-12997
角	-12998
清	-12999
景	-13000
找	-13001
存	-13002
喜	-13003
金	-13004
细	-13005
由	-13006
态	-13007
思	-13008
教	-13009
D	-13010
序	-13011
谢	-13012
组	-13013
达	-13014
列	-13015
示	-13016
共	-13017
项	-13018
功	-13019
温	-13020
!	-13021
红	-13022
准	-13023
已	-13024
改	-13025
管	-13026
没	-13027
太	-13028
率	-13029
广	-13030
商	-13031
区	-13032
论	-13033
答	-13034
E	-13035
况	-13036
接	-13037
则	-13038
告	-13039
虑	-13040
z	-13041
轻	-13042
预	-13043
网	-13044
快	-13045
规	-13046
W	-13047
听	-13048
模	-13049
味	-13050
较	-13051
界	-13052
历	-13053
越	-13054
极	-13055
口	-13056
词	-13057
材	-13058
线	-13059
份	-13060
第	-13061
测	-13062
引	-13063
速	-13064
划	-13065
近	-13066
且	-13067
热	-13068
收	-13069
几	-13070
立	-13071
世	-13072
原	-13073
排	-13074
配	-13075
句	-13076
城	-13077
始	-13078
反	-13079
旅	-13080
析	-13081
义	-13082
简	-13083
否	-13084
销	-13085
X	-13086
菜	-13087
随	-13088
积	-13089
满	-13090
直	-13091
足	-13092
K	-13093
糖	-13094
戏	-13095
象	-13096
装	-13097
觉	-13098
费	-13099
查	-13100
趣	-13101
致	-13102
视	-13103
《	-13104
》	-13105
险	-13106
研	-13107
病	-13108
友	-13109
H	-13110
阳	-13111
编	-13112
月	-13113
她	-13114
营	-13115
G	-13116
输	-13117
状	-13118
互	-13119
探	-13120
队	-13121
复	-13122
望	-13123
续	-13124
战	-13125
参	-13126
许	-13127
真	-13128
白	-13129
养	-13130
克	-13131
购	-13132
精	-13133
哪	-13134
采	-13135
练	-13136
餐	-13137
歌	-13138
码	-13139
神	-13140
免	-13141
狗	-13142
故	-13143
打	-13144
孩	-13145
维	-13146
便	-13147
[	-13148
究	-13149
条	-13150
]	-13151
富	-13152
约	-13153
置	-13154
策	-13155
充	-13156
买	-13157
投	-13158
描	-13159
师	-13160
构	-13161
再	-13162
兴	-13163
房	-13164
Q	-13165
施	-13166
低	-13167
易	-13168
米	-13169
植	-13170
至	-13171
张	-13172
路	-13173
育	-13174
独	-13175
证	-13176
见	-13177
庭	-13178
饮	-13179
控	-13180
必	-13181
难	-13182
款	-13183
消	-13184
团	-13185
英	-13186
联	-13187
享	-13188
候	-13189
诗	-13190
吸	-13191
读	-13192
呢	-13193
转	-13194
^	-13195
获	-13196
书	-13197
势	-13198
头	-13199
尽	-13200
命	-13201
老	-13202
才	-13203
符	-13204
F	-13205
肉	-13206
即	-13207
R	-13208
售	-13209
演	-13210
周	-13211
蛋	-13212
索	-13213
除	-13214
牌	-13215
%	-13216
评	-13217
升	-13218
艺	-13219
报	-13220
治	-13221
仅	-13222
片	-13223
O	-13224
错	-13225
记	-13226
企	-13227
尝	-13228
油	-13229
介	-13230
专	-13231
丽	-13232
巧	-13233
集	-13234
二	-13235
门	-13236
含	-13237
朋	-13238
诉	-13239
像	-13240
避	-13241
山	-13242
希	-13243
夏	-13244
史	-13245
照	-13246
压	-13247
把	-13248
职	-13249
离	-13250
际	-13251
律	-13252
染	-13253
布	-13254
图	-13255
女	-13256
寻	-13257
黑	-13258
均	-13259
围	-13260
释	-13261
失	-13262
键	-13263
防	-13264
丰	-13265
训	-13266
善	-13267
玩	-13268
块	-13269
李	-13270
密	-13271
今	-13272
挑	-13273
绍	-13274
修	-13275
另	-13276
香	-13277
火	-13278
烤	-13279
讲	-13280
j	-13281
季	-13282
松	-13283
拥	-13284
西	-13285
古	-13286
干	-13287
切	-13288
良	-13289
污	-13290
猫	-13291
宝	-13292
四	-13293
荐	-13294
终	-13295
益	-13296
台	-13297
念	-13298
称	-13299
落	-13300
按	-13301
斯	-13302
号	-13303
政	-13304
远	-13305
颜	-13306
降	-13307
短	-13308
儿	-13309
详	-13310
负	-13311
边	-13312
鸡	-13313
翻	-13314
母	-13315
略	-13316
泛	-13317
骤	-13318
华	-13319
害	-13320
争	-13321
绿	-13322
室	-13323
画	-13324
声	-13325
吃	-13326
酒	-13327
居	-13328
责	-13329
检	-13330
草	-13331
曲	-13332
激	-13333
换	-13334
融	-13335
黄	-13336
吧	-13337
赛	-13338
级	-13339
限	-13340
缺	-13341
鱼	-13342
某	-13343
措	-13344
讨	-13345
奶	-13346
牛	-13347
粉	-13348
财	-13349
层	-13350
函	-13351
走	-13352
五	-13353
众	-13354
树	-13355
民	-13356
筑	-13357
园	-13358
沟	-13359
洁	-13360
钟	-13361
软	-13362
往	-13363
微	-13364
灵	-13365
怎	-13366
笔	-13367
苹	-13368
拉	-13369
刻	-13370
概	-13371
店	-13372
咖	-13373
追	-13374
药	-13375
协	-13376
舒	-13377
络	-13378
励	-13379
普	-13380
南	-13381
额	-13382
显	-13383
似	-13384
衡	-13385
杂	-13386
士	-13387
啡	-13388
王	-13389
汽	-13390
奇	-13391
德	-13392
飞	-13393
鲜	-13394
板	-13395
叶	-13396
石	-13397
马	-13398
努	-13399
尔	-13400
舞	-13401
操	-13402
超	-13403
疾	-13404
待	-13405
林	-13406
范	-13407
遇	-13408
福	-13409
土	-13410
译	-13411
静	-13412
患	-13413
·	-13414
济	-13415
十	-13416
厅	-13417
初	-13418
彩	-13419
征	-13420
渐	-13421
亲	-13422
暖	-13423
卡	-13424
典	-13425
站	-13426
万	-13427
须	-13428
洋	-13429
背	-13430
逐	-13431
竞	-13432
晚	-13433
权	-13434
严	-13435
稳	-13436
垃	-13437
圾	-13438
著	-13439
木	-13440
属	-13441
浪	-13442
假	-13443
诊	-13444
礼	-13445
沙	-13446
散	-13447
住	-13448
异	-13449
男	-13450
付	-13451
趋	-13452
氧	-13453
皮	-13454
误	-13455
录	-13456
洗	-13457
波	-13458
差	-13459
杯	-13460
促	-13461
困	-13462
询	-13463
北	-13464
础	-13465
慢	-13466
阅	-13467
坚	-13468
を	-13469
突	-13470
亚	-13471
蓝	-13472
衣	-13473
摄	-13474
剩	-13475
判	-13476
颗	-13477
穿	-13478
监	-13479
V	-13480
培	-13481
搭	-13482
脑	-13483
紧	-13484
雨	-13485
聊	-13486
秋	-13487
岁	-13488
の	-13489
迎	-13490
夜	-13491
缓	-13492
射	-13493
眼	-13494
令	-13495
东	-13496
呼	-13497
双	-13498
连	-13499
尊	-13500
早	-13501
鸟	-13502
云	-13503
冰	-13504
拟	-13505
—	-13506
破	-13507
核	-13508
击	-13509
媒	-13510
掌	-13511
临	-13512
豆	-13513
梦	-13514
止	-13515
钱	-13516
愿	-13517
睡	-13518
潜	-13519
饰	-13520
灯	-13521
混	-13522
洞	-13523
驶	-13524
宠	-13525
针	-13526
熟	-13527
群	-13528
又	-13529
留	-13530
织	-13531
亮	-13532
储	-13533
箱	-13534
担	-13535
春	-13536
婚	-13537
盐	-13538
肤	-13539
笑	-13540
U	-13541
鼓	-13542
志	-13543
继	-13544
剧	-13545
移	-13546
票	-13547
京	-13548
绪	-13549
距	-13550
府	-13551
底	-13552
巨	-13553
私	-13554
青	-13555
宇	-13556
蔬	-13557
巴	-13558
添	-13559
印	-13560
Y	-13561
握	-13562
漫	-13563
塑	-13564
链	-13565
秘	-13566
酱	-13567
估	-13568
惯	-13569
献	-13570
座	-13571
循	-13572
卫	-13573
顾	-13574
冷	-13575
幸	-13576
隐	-13577
余	-13578
察	-13579
综	-13580
刚	-13581
串	-13582
半	-13583
送	-13584
举	-13585
茶	-13586
乘	-13587
端	-13588
糕	-13589
尚	-13590
纸	-13591
酸	-13592
跟	-13593
承	-13594
障	-13595
圆	-13596
炒	-13597
伽	-13598
执	-13599
课	-13600
依	-13601
宙	-13602
倒	-13603
办	-13604
症	-13605
透	-13606
般	-13607
瑜	-13608
椒	-13609
伤	-13610
碳	-13611
野	-13612
汤	-13613
驾	-13614
闻	-13615
频	-13616
途	-13617
す	-13618
い	-13619
虚	-13620
右	-13621
毛	-13622
洲	-13623
煮	-13624
盖	-13625
归	-13626
疑	-13627
眠	-13628
警	-13629
虽	-13630
し	-13631
左	-13632
血	-13633
焦	-13634
伴	-13635
匀	-13636
跑	-13637
校	-13638
净	-13639
锅	-13640
谈	-13641
股	-13642
折	-13643
叫	-13644
佳	-13645
损	-13646
班	-13647
润	-13648
繁	-13649
农	-13650
炼	-13651
径	-13652
纪	-13653
泡	-13654
肥	-13655
涉	-13656
馆	-13657
坏	-13658
疫	-13659
却	-13660
肌	-13661
休	-13662
靠	-13663
税	-13664
啊	-13665
耐	-13666
跳	-13667
纳	-13668
辑	-13669
威	-13670
危	-13671
湿	-13672
宣	-13673
柔	-13674
滩	-13675
浓	-13676
院	-13677
聚	-13678
盘	-13679
液	-13680
葱	-13681
库	-13682
贵	-13683
守	-13684
局	-13685
烈	-13686
秀	-13687
父	-13688
龙	-13689
拌	-13690
货	-13691
坐	-13692
辆	-13693
铁	-13694
锻	-13695
汁	-13696
贡	-13697
停	-13698
°	-13699
扩	-13700
尼	-13701
顺	-13702
千	-13703
胜	-13704
て	-13705
奖	-13706
罗	-13707
橙	-13708
伦	-13709
&	-13710
玛	-13711
灾	-13712
铅	-13713
勇	-13714
烧	-13715
挥	-13716
袋	-13717
仍	-13718
燃	-13719
床	-13720
攻	-13721
る	-13722
银	-13723
冲	-13724
甜	-13725
沉	-13726
固	-13727
河	-13728
久	-13729
藏	-13730
启	-13731
幻	-13732
姆	-13733
偏	-13734
森	-13735
迷	-13736
呈	-13737
龄	-13738
赏	-13739
百	-13740
践	-13741
阿	-13742
绝	-13743
搜	-13744
氛	-13745
末	-13746
奏	-13747
露	-13748
架	-13749
哈	-13750
饭	-13751
萨	-13752
な	-13753
抽	-13754
饼	-13755
替	-13756
绩	-13757
遵	-13758
墙	-13759
愉	-13760
官	-13761
に	-13762
返	-13763
宽	-13764
递	-13765
夫	-13766
订	-13767
馈	-13768
搅	-13769
乳	-13770
惊	-13771
暴	-13772
泳	-13773
恒	-13774
阶	-13775
脂	-13776
博	-13777
播	-13778
尺	-13779
币	-13780
×	-13781
棒	-13782
束	-13783
永	-13784
剂	-13785
彼	-13786
冒	-13787
脚	-13788
孤	-13789
航	-13790
峰	-13791
耗	-13792
祝	-13793
丝	-13794
魔	-13795
忆	-13796
审	-13797
辣	-13798
硬	-13799
池	-13800
凉	-13801
遗	-13802
珍	-13803
遍	-13804
痛	-13805
蜜	-13806
诚	-13807
邮	-13808
楼	-13809
屋	-13810
急	-13811
族	-13812
犯	-13813
で	-13814
晰	-13815
曾	-13816
寸	-13817
瓶	-13818
牙	-13819
招	-13820
哲	-13821
拿	-13822
轮	-13823
谱	-13824
废	-13825
革	-13826
摘	-13827
胡	-13828
滑	-13829
ー	-13830
童	-13831
旋	-13832
窗	-13833
缩	-13834
劳	-13835
零	-13836
掉	-13837
暗	-13838
兰	-13839
倾	-13840
蒜	-13841
甲	-13842
宜	-13843
胞	-13844
ま	-13845
尤	-13846
忙	-13847
省	-13848
咨	-13849
映	-13850
甚	-13851
占	-13852
と	-13853
救	-13854
恐	-13855
岛	-13856
套	-13857
佛	-13858
艾	-13859
壤	-13860
汇	-13861
敬	-13862
朵	-13863
罪	-13864
た	-13865
妈	-13866
触	-13867
签	-13868
绘	-13869
借	-13870
敏	-13871
摩	-13872
虫	-13873
娱	-13874
欣	-13875
÷	-13876
抗	-13877
租	-13878
倍	-13879
午	-13880
茄	-13881
厘	-13882
醒	-13883
忘	-13884
玉	-13885
登	-13886
妙	-13887
杰	-13888
厚	-13889
卖	-13890
鞋	-13891
弃	-13892
毒	-13893
喝	-13894
惠	-13895
捷	-13896
麦	-13897
撰	-13898
桌	-13899
珠	-13900
雪	-13901
婴	-13902
聘	-13903
乎	-13904
版	-13905
篮	-13906
殊	-13907
番	-13908
访	-13909
予	-13910
赞	-13911
厨	-13912
熊	-13913
幅	-13914
披	-13915
附	-13916
页	-13917
欧	-13918
拍	-13919
籍	-13920
刺	-13921
烹	-13922
о	-13923
派	-13924
军	-13925
慧	-13926
苦	-13927
汉	-13928
乏	-13929
蜂	-13930
湖	-13931
妆	-13932
卷	-13933
辅	-13934
逻	-13935
涂	-13936
谷	-13937
が	-13938
畅	-13939
腿	-13940
炎	-13941
拼	-13942
朗	-13943
补	-13944
姿	-13945
剪	-13946
苏	-13947
誉	-13948
斗	-13949
蹈	-13950
退	-13951
恶	-13952
弹	-13953
骑	-13954
朝	-13955
粒	-13956
尾	-13957
郁	-13958
蒸	-13959
悦	-13960
唱	-13961
脱	-13962
塔	-13963
账	-13964
瓜	-13965
顶	-13966
州	-13967
死	-13968
奥	-13969
仪	-13970
载	-13971
は	-13972
败	-13973
胁	-13974
寿	-13975
批	-13976
奋	-13977
震	-13978
拓	-13979
顿	-13980
翰	-13981
怀	-13982
仰	-13983
览	-13984
耳	-13985
申	-13986
贝	-13987
淡	-13988
麻	-13989
姜	-13990
肪	-13991
宫	-13992
嗯	-13993
船	-13994
封	-13995
村	-13996
绕	-13997
雅	-13998
默	-13999
迅	-14000
既	-14001
饪	-14002
腐	-14003
鼠	-14004
幕	-14005
闭	-14006
迹	-14007
骨	-14008
紫	-14009
犬	-14010
纷	-14011
旨	-14012
钢	-14013
潮	-14014
灰	-14015
填	-14016
延	-14017
插	-14018
仿	-14019
и	-14020
扰	-14021
氏	-14022
碎	-14023
弱	-14024
抱	-14025
踪	-14026
亿	-14027
さ	-14028
冬	-14029
恋	-14030
é	-14031
く	-14032
债	-14033
镜	-14034
忽	-14035
渠	-14036
莓	-14037
涵	-14038
仔	-14039
盆	-14040
莉	-14041
е	-14042
碗	-14043
街	-14044
覆	-14045
谁	-14046
六	-14047
陈	-14048
冥	-14049
疲	-14050
盒	-14051
兔	-14052
爆	-14053
宗	-14054
匙	-14055
鸭	-14056
扮	-14057
框	-14058
壮	-14059
盛	-14060
吹	-14061
荣	-14062
贴	-14063
Z	-14064
磁	-14065
屏	-14066
授	-14067
薄	-14068
谐	-14069
稍	-14070
а	-14071
浮	-14072
¥	-14073
刷	-14074
哺	-14075
姻	-14076
滤	-14077
档	-14078
阵	-14079
敢	-14080
炸	-14081
芝	-14082
赖	-14083
擅	-14084
ン	-14085
烟	-14086
阐	-14087
碍	-14088
悬	-14089
寒	-14090
壁	-14091
坦	-14092
累	-14093
镇	-14094
睛	-14095
磨	-14096
违	-14097
江	-14098
托	-14099
霜	-14100
侧	-14101
咪	-14102
氢	-14103
卧	-14104
毫	-14105
摆	-14106
聪	-14107
爬	-14108
乙	-14109
闪	-14110
掘	-14111
庆	-14112
轨	-14113
纽	-14114
荷	-14115
哦	-14116
毕	-14117
脸	-14118
隔	-14119
羊	-14120
册	-14121
т	-14122
岩	-14123
葡	-14124
苗	-14125
唐	-14126
爽	-14127
萄	-14128
淋	-14129
闲	-14130
鸣	-14131
伸	-14132
八	-14133
吉	-14134
诺	-14135
泰	-14136
飘	-14137
猎	-14138
圈	-14139
川	-14140
迪	-14141
鉴	-14142
矩	-14143
猪	-14144
若	-14145
跨	-14146
馨	-14147
柠	-14148
燥	-14149
贷	-14150
喂	-14151
堡	-14152
晴	-14153
乡	-14154
懂	-14155
摇	-14156
忠	-14157
殖	-14158
肴	-14159
阻	-14160
魅	-14161
矿	-14162
丁	-14163
纯	-14164
偶	-14165
陆	-14166
浇	-14167
恢	-14168
り	-14169
悉	-14170
檬	-14171
浴	-14172
戴	-14173
椅	-14174
芳	-14175
阔	-14176
扬	-14177
伙	-14178
琴	-14179
扣	-14180
萝	-14181
晒	-14182
刀	-14183
堂	-14184
癌	-14185
猜	-14186
杀	-14187
侵	-14188
枝	-14189
逃	-14190
唯	-14191
煎	-14192
雷	-14193
捕	-14194
橄	-14195
铺	-14196
肺	-14197
榄	-14198
漏	-14199
赢	-14200
田	-14201
柜	-14202
匹	-14203
漂	-14204
盈	-14205
黎	-14206
こ	-14207
挂	-14208
肯	-14209
圣	-14210
斜	-14211
宁	-14212
脏	-14213
擦	-14214
陪	-14215
н	-14216
ス	-14217
菌	-14218
亡	-14219
七	-14220
撒	-14221
晨	-14222
沿	-14223
陷	-14224
れ	-14225
跃	-14226
弦	-14227
貌	-14228
纠	-14229
棋	-14230
纹	-14231
哥	-14232
悠	-14233
洛	-14234
灭	-14235
宾	-14236
脉	-14237
砖	-14238
阴	-14239
嫌	-14240
拂	-14241
雄	-14242
瓷	-14243
纤	-14244
玻	-14245
菇	-14246
盾	-14247
恩	-14248
筛	-14249
秒	-14250
堵	-14251
莎	-14252
だ	-14253
桶	-14254
罚	-14255
裤	-14256
械	-14257
稿	-14258
埃	-14259
怕	-14260
妻	-14261
浸	-14262
伟	-14263
怪	-14264
糊	-14265
矛	-14266
璃	-14267
か	-14268
谨	-14269
堆	-14270
谜	-14271
豪	-14272
膜	-14273
忧	-14274
嗨	-14275
督	-14276
谊	-14277
旧	-14278
抑	-14279
ト	-14280
尿	-14281
撑	-14282
滚	-14283
乱	-14284
個	-14285
胸	-14286
岸	-14287
酪	-14288
娜	-14289
抹	-14290
ら	-14291
凝	-14292
蕉	-14293
拔	-14294
壳	-14295
滴	-14296
塞	-14297
武	-14298
宿	-14299
桥	-14300
’	-14301
割	-14302
卜	-14303
欲	-14304
肠	-14305
驱	-14306
赋	-14307
浅	-14308
妇	-14309
悲	-14310
喷	-14311
泄	-14312
叹	-14313
虾	-14314
烘	-14315
狮	-14316
脆	-14317
抵	-14318
楚	-14319
耀	-14320
尘	-14321
翅	-14322
醋	-14323
垫	-14324
莫	-14325
卉	-14326
漠	-14327
姓	-14328
寓	-14329
瑰	-14330
禁	-14331
泥	-14332
慎	-14333
う	-14334
溶	-14335
孔	-14336
с	-14337
俗	-14338
擎	-14339
叠	-14340
携	-14341
р	-14342
燕	-14343
仙	-14344
副	-14345
揭	-14346
裂	-14347
惜	-14348
耍	-14349
址	-14350
盗	-14351
薪	-14352
き	-14353
幽	-14354
乔	-14355
券	-14356
绳	-14357
逊	-14358
挖	-14359
岗	-14360
蘑	-14361
抓	-14362
裁	-14363
昨	-14364
艳	-14365
冠	-14366
烂	-14367
巾	-14368
荡	-14369
慈	-14370
钮	-14371
動	-14372
遭	-14373
烦	-14374
芒	-14375
瓣	-14376
暂	-14377
扫	-14378
蝶	-14379
ó	-14380
劣	-14381
敌	-14382
贾	-14383
蒂	-14384
胎	-14385
庄	-14386
寂	-14387
皇	-14388
缘	-14389
撞	-14390
曼	-14391
芬	-14392
邀	-14393
イ	-14394
诸	-14395
л	-14396
惑	-14397
碑	-14398
仁	-14399
勺	-14400
滋	-14401
炉	-14402
酵	-14403
厂	-14404
も	-14405
齐	-14406
辐	-14407
醉	-14408
弯	-14409
惧	-14410
棕	-14411
旦	-14412
锁	-14413
挫	-14414
桃	-14415
爸	-14416
晶	-14417
偷	-14418
胃	-14419
卓	-14420
菲	-14421
韧	-14422
敦	-14423
裙	-14424
あ	-14425
徒	-14426
粮	-14427
贫	-14428
勒	-14429
帝	-14430
蓄	-14431
伊	-14432
凯	-14433
洪	-14434
瑞	-14435
臂	-14436
時	-14437
в	-14438
碱	-14439
斤	-14440
黛	-14441
删	-14442
嫩	-14443
讯	-14444
薯	-14445
雕	-14446
颈	-14447
九	-14448
腻	-14449
迫	-14450
魂	-14451
虎	-14452
契	-14453
溯	-14454
噪	-14455
泊	-14456
淀	-14457
鲸	-14458
對	-14459
罩	-14460
淇	-14461
迈	-14462
凡	-14463
疼	-14464
叉	-14465
栖	-14466
鲁	-14467
旁	-14468
蒙	-14469
偿	-14470
愈	-14471
辩	-14472
垂	-14473
梳	-14474
狂	-14475
竹	-14476
膀	-14477
蝴	-14478
欺	-14479
玫	-14480
胶	-14481
珊	-14482
邻	-14483
幼	-14484
洒	-14485
衫	-14486
伯	-14487
莱	-14488
雾	-14489
韵	-14490
к	-14491
沸	-14492
浆	-14493
饱	-14494
鹅	-14495
í	-14496
砂	-14497
墨	-14498
枫	-14499
兽	-14500
援	-14501
歧	-14502
允	-14503
骗	-14504
残	-14505
柿	-14506
倡	-14507
涯	-14508
荒	-14509
ル	-14510
尖	-14511
歉	-14512
诈	-14513
渴	-14514
悟	-14515
羽	-14516
め	-14517
攀	-14518
缝	-14519
м	-14520
為	-14521
え	-14522
勃	-14523
勤	-14524
斑	-14525
彻	-14526
梅	-14527
逆	-14528
赚	-14529
肩	-14530
袖	-14531
旱	-14532
棉	-14533
狐	-14534
叙	-14535
昆	-14536
绵	-14537
鼻	-14538
瑟	-14539
泉	-14540
碰	-14541
弟	-14542
侣	-14543
坛	-14544
孙	-14545
嘴	-14546
奔	-14547
腊	-14548
饲	-14549
佩	-14550
浏	-14551
衬	-14552
」	-14553
轴	-14554
庙	-14555
「	-14556
遥	-14557
陶	-14558
穷	-14559
來	-14560
齿	-14561
甘	-14562
疏	-14563
艰	-14564
ü	-14565
夹	-14566
扇	-14567
涌	-14568
迭	-14569
焙	-14570
拜	-14571
惩	-14572
腹	-14573
央	-14574
琳	-14575
棵	-14576
陌	-14577
丧	-14578
伐	-14579
瞬	-14580
帽	-14581
昂	-14582
腰	-14583
赔	-14584
扎	-14585
ど	-14586
孕	-14587
橘	-14588
粘	-14589
翠	-14590
媚	-14591
振	-14592
梯	-14593
橡	-14594
罐	-14595
乌	-14596
柱	-14597
ö	-14598
闰	-14599
涨	-14600
辞	-14601
っ	-14602
枚	-14603
つ	-14604
丹	-14605
帘	-14606
狸	-14607
よ	-14608
伍	-14609
間	-14610
拖	-14611
磅	-14612
御	-14613
恰	-14614
窃	-14615
ラ	-14616
毯	-14617
蛇	-14618
寺	-14619
缀	-14620
~	-14621
辨	-14622
宴	-14623
栽	-14624
ク	-14625
截	-14626
赠	-14627
怖	-14628
瓦	-14629
胆	-14630
钻	-14631
踏	-14632
π	-14633
遮	-14634
漆	-14635
挺	-14636
泽	-14637
ッ	-14638
拆	-14639
铃	-14640
讼	-14641
锐	-14642
會	-14643
箭	-14644
狼	-14645
兵	-14646
翩	-14647
鹰	-14648
á	-14649
弗	-14650
於	-14651
谓	-14652
伞	-14653
兼	-14654
抚	-14655
碧	-14656
筹	-14657
署	-14658
辛	-14659
妹	-14660
タ	-14661
斐	-14662
翔	-14663
茫	-14664
崇	-14665
刑	-14666
弥	-14667
枯	-14668
溢	-14669
醇	-14670
伏	-14671
颖	-14672
茨	-14673
喻	-14674
诞	-14675
テ	-14676
們	-14677
丛	-14678
煸	-14679
祖	-14680
肢	-14681
赁	-14682
リ	-14683
毁	-14684
プ	-14685
刘	-14686
妮	-14687
慰	-14688
盲	-14689
豹	-14690
螺	-14691
娘	-14692
拒	-14693
п	-14694
穆	-14695
犹	-14696
猴	-14697
刹	-14698
吊	-14699
盟	-14700
腌	-14701
笼	-14702
捐	-14703
稀	-14704
胀	-14705
д	-14706
夸	-14707
妥	-14708
戒	-14709
爵	-14710
姐	-14711
鬼	-14712
蝉	-14713
钠	-14714
闹	-14715
钓	-14716
忍	-14717
捉	-14718
腾	-14719
け	-14720
鲨	-14721
炖	-14722
夕	-14723
瑚	-14724
旗	-14725
逝	-14726
腔	-14727
绽	-14728
翼	-14729
雇	-14730
俱	-14731
庞	-14732
毅	-14733
や	-14734
宅	-14735
肝	-14736
履	-14737
澡	-14738
蕾	-14739
贸	-14740
鹿	-14741
у	-14742
竟	-14743
铜	-14744
ア	-14745
哇	-14746
扑	-14747
肖	-14748
學	-14749
酷	-14750
盎	-14751
膏	-14752
溪	-14753
蕴	-14754
怒	-14755
宏	-14756
瘦	-14757
梁	-14758
横	-14759
牵	-14760
懈	-14761
抢	-14762
贯	-14763
脊	-14764
梨	-14765
摸	-14766
穴	-14767
寄	-14768
舍	-14769
ä	-14770
拯	-14771
猛	-14772
莲	-14773
袭	-14774
暑	-14775
迁	-14776
я	-14777
晋	-14778
杆	-14779
牢	-14780
渗	-14781
谋	-14782
迟	-14783
酥	-14784
咳	-14785
捞	-14786
泪	-14787
硫	-14788
韩	-14789
搞	-14790
珂	-14791
夺	-14792
挤	-14793
吞	-14794
敞	-14795
膳	-14796
栏	-14797
膨	-14798
菠	-14799
虹	-14800
龟	-14801
恼	-14802
壶	-14803
•	-14804
缠	-14805
肿	-14806
唤	-14807
桂	-14808
衰	-14809
啤	-14810
恤	-14811
酶	-14812
沫	-14813
剑	-14814
侦	-14815
機	-14816
淘	-14817
詹	-14818
蚁	-14819
裹	-14820
荫	-14821
粗	-14822
芯	-14823
芽	-14824
仓	-14825
焰	-14826
纵	-14827
湛	-14828
婆	-14829
泼	-14830
赫	-14831
勾	-14832
委	-14833
碌	-14834
赶	-14835
扭	-14836
琐	-14837
筋	-14838
伪	-14839
滨	-14840
蜡	-14841
厉	-14842
愁	-14843
氮	-14844
爷	-14845
現	-14846
腺	-14847
ы	-14848
ь	-14849
灌	-14850
席	-14851
杉	-14852
沃	-14853
辉	-14854
钥	-14855
凭	-14856
坡	-14857
語	-14858
澈	-14859
茂	-14860
锋	-14861
吐	-14862
潺	-14863
抬	-14864
沮	-14865
祭	-14866
術	-14867
礁	-14868
–	-14869
丘	-14870
汗	-14871
殿	-14872
種	-14873
厦	-14874
眉	-14875
胖	-14876
唇	-14877
挡	-14878
扶	-14879
霍	-14880
レ	-14881
催	-14882
澳	-14883
押	-14884
這	-14885
凌	-14886
拳	-14887
牧	-14888
缴	-14889
蚊	-14890
デ	-14891
杏	-14892
丢	-14893
杨	-14894
蚂	-14895
衷	-14896
開	-14897
俯	-14898
瀑	-14899
沐	-14900
矮	-14901
跌	-14902
√	-14903
叔	-14904
詞	-14905
呀	-14906
株	-14907
凑	-14908
惫	-14909
爪	-14910
グ	-14911
榜	-14912
兄	-14913
涤	-14914
躲	-14915
钙	-14916
杜	-14917
矶	-14918
君	-14919
峡	-14920
冻	-14921
屿	-14922
抒	-14923
昏	-14924
霞	-14925
確	-14926
そ	-14927
嘉	-14928
夷	-14929
書	-14930
ド	-14931
帕	-14932
蛙	-14933
ジ	-14934
並	-14935
吁	-14936
滥	-14937
發	-14938
蚀	-14939
お	-14940
朴	-14941
ロ	-14942
削	-14943
嵌	-14944
氨	-14945
逛	-14946
懒	-14947
椰	-14948
啦	-14949
嗽	-14950
崩	-14951
仇	-14952
傲	-14953
拭	-14954
シ	-14955
坪	-14956
瘤	-14957
馅	-14958
卢	-14959
泌	-14960
凸	-14961
召	-14962
皆	-14963
舌	-14964
纲	-14965
烁	-14966
ん	-14967
資	-14968
噬	-14969
烛	-14970
绒	-14971
劲	-14972
計	-14973
フ	-14974
仑	-14975
扔	-14976
渡	-14977
菊	-14978
卸	-14979
嗅	-14980
赤	-14981
@	-14982
揉	-14983
樱	-14984
【	-14985
】	-14986
抛	-14987
習	-14988
挚	-14989
痕	-14990
栈	-14991
與	-14992
萧	-14993
鳄	-14994
柳	-14995
饺	-14996
氯	-14997
猩	-14998
酬	-14999
募	-15000
怡	-15001
è	-15002
芹	-15003
逼	-15004
з	-15005
慨	-15006
椭	-15007
赎	-15008
骼	-15009
吵	-15010
哑	-15011
塘	-15012
糯	-15013
題	-15014
畏	-15015
畔	-15016
葵	-15017
贪	-15018
惕	-15019
灿	-15020
豫	-15021
缸	-15022
刮	-15023
巢	-15024
帐	-15025
弊	-15026
喉	-15027
奉	-15028
熔	-15029
砍	-15030
聆	-15031
邪	-15032
問	-15033
狩	-15034
衍	-15035
雀	-15036
俄	-15037
屈	-15038
曝	-15039
過	-15040
廉	-15041
役	-15042
稠	-15043
粥	-15044
谛	-15045
豚	-15046
膝	-15047
勿	-15048
宋	-15049
將	-15050
旷	-15051
椎	-15052
皂	-15053
绑	-15054
咬	-15055
屑	-15056
歇	-15057
艇	-15058
颠	-15059
凶	-15060
墅	-15061
塌	-15062
愤	-15063
绚	-15064
鲍	-15065
躺	-15066
郎	-15067
晓	-15068
枪	-15069
逗	-15070
場	-15071
彗	-15072
溃	-15073
瞩	-15074
玲	-15075
峻	-15076
慕	-15077
芭	-15078
芦	-15079
诱	-15080
ム	-15081
狱	-15082
悄	-15083
贺	-15084
進	-15085
娃	-15086
應	-15087
撼	-15088
疯	-15089
枕	-15090
→	-15091
嘿	-15092
妨	-15093
彰	-15094
赵	-15095
隆	-15096
≈	-15097
奢	-15098
锦	-15099
梵	-15100
董	-15101
讓	-15102
逸	-15103
匆	-15104
蟹	-15105
關	-15106
サ	-15107
纱	-15108
茎	-15109
寞	-15110
淌	-15111
炭	-15112
禅	-15113
舟	-15114
侠	-15115
晕	-15116
業	-15117
環	-15118
б	-15119
ч	-15120
徐	-15121
苍	-15122
г	-15123
墓	-15124
廊	-15125
儒	-15126
渔	-15127
糟	-15128
蹲	-15129
钉	-15130
吨	-15131
嬉	-15132
恨	-15133
稻	-15134
饿	-15135
县	-15136
數	-15137
焯	-15138
袜	-15139
見	-15140
麼	-15141
佐	-15142
哀	-15143
奈	-15144
怨	-15145
話	-15146
─	-15147
ィ	-15148
涛	-15149
設	-15150
邦	-15151
廷	-15152
秩	-15153
‘	-15154
み	-15155
蛛	-15156
黏	-15157
凋	-15158
喊	-15159
桑	-15160
涡	-15161
烷	-15162
钞	-15163
呵	-15164
à	-15165
曳	-15166
選	-15167
體	-15168
奠	-15169
湾	-15170
関	-15171
飓	-15172
コ	-15173
丙	-15174
陵	-15175
呆	-15176
喱	-15177
經	-15178
钩	-15179
せ	-15180
坍	-15181
慌	-15182
搬	-15183
決	-15184
狭	-15185
適	-15186
朱	-15187
結	-15188
脾	-15189
垢	-15190
橱	-15191
渍	-15192
港	-15193
ち	-15194
敲	-15195
給	-15196
臀	-15197
吓	-15198
後	-15199
旺	-15200
祥	-15201
肾	-15202
哭	-15203
柏	-15204
抖	-15205
绸	-15206
劫	-15207
巫	-15208
帆	-15209
祈	-15210
艘	-15211
铝	-15212
谣	-15213
烫	-15214
阱	-15215
罕	-15216
谧	-15217
扁	-15218
蓬	-15219
邃	-15220
坑	-15221
栋	-15222
竭	-15223
類	-15224
井	-15225
國	-15226
盏	-15227
熬	-15228
й	-15229
ウ	-15230
亦	-15231
掩	-15232
柴	-15233
沥	-15234
漾	-15235
煤	-15236
谎	-15237
丑	-15238
兹	-15239
氦	-15240
煲	-15241
缤	-15242
ж	-15243
姑	-15244
弄	-15245
笛	-15246
闷	-15247
ß	-15248
ñ	-15249
キ	-15250
弧	-15251
マ	-15252
叛	-15253
咙	-15254
拨	-15255
據	-15256
秦	-15257
篷	-15258
纬	-15259
質	-15260
禽	-15261
糙	-15262
試	-15263
啸	-15264
咸	-15265
榨	-15266
灶	-15267
薇	-15268
摔	-15269
晖	-15270
筒	-15271
臭	-15272
萌	-15273
蜘	-15274
隙	-15275
凤	-15276
掷	-15277
達	-15278
晃	-15279
杠	-15280
電	-15281
棍	-15282
気	-15283
薛	-15284
請	-15285
仲	-15286
佣	-15287
卵	-15288
喧	-15289
從	-15290
欠	-15291
肚	-15292
曹	-15293
汪	-15294
粹	-15295
饥	-15296
ブ	-15297
・	-15298
恭	-15299
棘	-15300
還	-15301
霸	-15302
婷	-15303
孟	-15304
摊	-15305
汀	-15306
届	-15307
璨	-15308
缚	-15309
辈	-15310
バ	-15311
巷	-15312
璀	-15313
篡	-15314
耕	-15315
該	-15316
晾	-15317
谦	-15318
べ	-15319
ャ	-15320
ュ	-15321
埋	-15322
滞	-15323
濒	-15324
肃	-15325
酿	-15326
颇	-15327
驰	-15328
倦	-15329
報	-15330
梭	-15331
簡	-15332
オ	-15333
ョ	-15334
磷	-15335
х	-15336
咒	-15337
坊	-15338
牲	-15339
籽	-15340
蓉	-15341
髓	-15342
柯	-15343
舱	-15344
钾	-15345
カ	-15346
務	-15347
悚	-15348
柚	-15349
讶	-15350
樂	-15351
烯	-15352
茵	-15353
诀	-15354
躁	-15355
鲈	-15356
ビ	-15357
巡	-15358
煌	-15359
斥	-15360
丸	-15361
厌	-15362
轿	-15363
風	-15364
厕	-15365
廓	-15366
槽	-15367
绎	-15368
绣	-15369
藤	-15370
識	-15371
浩	-15372
郊	-15373
丈	-15374
吴	-15375
瑕	-15376
酯	-15377
锈	-15378
ェ	-15379
標	-15380
炮	-15381
響	-15382
チ	-15383
匿	-15384
組	-15385
誓	-15386
強	-15387
昔	-15388
パ	-15389
堪	-15390
婉	-15391
畴	-15392
窄	-15393
統	-15394
蔓	-15395
囊	-15396
氣	-15397
甫	-15398
硅	-15399
¿	-15400
參	-15401
摧	-15402
牺	-15403
锤	-15404
匠	-15405
杭	-15406
當	-15407
竖	-15408
記	-15409
圖	-15410
挣	-15411
擀	-15412
涩	-15413
苔	-15414
長	-15415
嚣	-15416
娇	-15417
藻	-15418
吟	-15419
変	-15420
瘾	-15421
蝠	-15422
铭	-15423
颁	-15424
θ	-15425
吻	-15426
搏	-15427
津	-15428
秉	-15429
闯	-15430
ニ	-15431
內	-15432
暮	-15433
浙	-15434
熱	-15435
蜥	-15436
蝙	-15437
較	-15438
骄	-15439
鹦	-15440
別	-15441
実	-15442
崛	-15443
楽	-15444
纺	-15445
萎	-15446
調	-15447
議	-15448
踢	-15449
鳞	-15450
寨	-15451
點	-15452
乒	-15453
乓	-15454
傍	-15455
斓	-15456
減	-15457
痘	-15458
溉	-15459
無	-15460
痴	-15461
苷	-15462
逢	-15463
運	-15464
鹉	-15465
卑	-15466
孵	-15467
巅	-15468
悔	-15469
惰	-15470
沾	-15471
茸	-15472
驯	-15473
メ	-15474
剔	-15475
岳	-15476
発	-15477
耸	-15478
視	-15479
驳	-15480
わ	-15481
嚼	-15482
筝	-15483
踩	-15484
乃	-15485
寫	-15486
峭	-15487
羞	-15488
妖	-15489
論	-15490
坠	-15491
岭	-15492
捧	-15493
祉	-15494
粼	-15495
義	-15496
雁	-15497
佼	-15498
呤	-15499
崽	-15500
弓	-15501
細	-15502
鸽	-15503
嘌	-15504
戈	-15505
蜗	-15506
認	-15507
變	-15508
剖	-15509
浦	-15510
節	-15511
車	-15512
酚	-15513
鸦	-15514
ょ	-15515
坎	-15516
拘	-15517
柄	-15518
玄	-15519
觀	-15520
钗	-15521
喵	-15522
孝	-15523
腕	-15524
辰	-15525
僵	-15526
啼	-15527
實	-15528
巩	-15529
幔	-15530
拾	-15531
蔽	-15532
铲	-15533
ю	-15534
幂	-15535
杖	-15536
谅	-15537
單	-15538
姬	-15539
寡	-15540
歡	-15541
窝	-15542
輸	-15543
喘	-15544
夠	-15545
徽	-15546
汲	-15547
況	-15548
隧	-15549
霉	-15550
宵	-15551
曦	-15552
祀	-15553
粤	-15554
說	-15555
阁	-15556
ú	-15557
搓	-15558
熏	-15559
產	-15560
網	-15561
锥	-15562
骚	-15563
ば	-15564
兩	-15565
庸	-15566
憾	-15567
挽	-15568
掠	-15569
枣	-15570
睐	-15571
硕	-15572
翁	-15573
薰	-15574
颂	-15575
哮	-15576
焕	-15577
筷	-15578
簇	-15579
赌	-15580
エ	-15581
ォ	-15582
僧	-15583
宛	-15584
構	-15585
泵	-15586
泻	-15587
ç	-15588
€	-15589
ナ	-15590
嘛	-15591
態	-15592
慷	-15593
沁	-15594
缕	-15595
芙	-15596
辖	-15597
沛	-15598
熵	-15599
翡	-15600
肽	-15601
褐	-15602
評	-15603
刊	-15604
効	-15605
撕	-15606
撤	-15607
蜴	-15608
锯	-15609
น	-15610
ズ	-15611
抄	-15612
拱	-15613
東	-15614
诵	-15615
ピ	-15616
俩	-15617
捏	-15618
捡	-15619
焖	-15620
皱	-15621
苯	-15622
葛	-15623
า	-15624
ネ	-15625
剥	-15626
尬	-15627
尴	-15628
樣	-15629
漓	-15630
畜	-15631
簧	-15632
锌	-15633
狄	-15634
อ	-15635
係	-15636
冗	-15637
創	-15638
崖	-15639
忌	-15640
盔	-15641
睫	-15642
肆	-15643
製	-15644
遏	-15645
洽	-15646
淆	-15647
渣	-15648
萃	-15649
雌	-15650
鳍	-15651
じ	-15652
ず	-15653
惬	-15654
裕	-15655
モ	-15656
勘	-15657
涟	-15658
準	-15659
茁	-15660
袍	-15661
垒	-15662
愚	-15663
枢	-15664
鲤	-15665
≤	-15666
亏	-15667
渊	-15668
芥	-15669
ケ	-15670
則	-15671
換	-15672
極	-15673
炫	-15674
谚	-15675
镁	-15676
鲑	-15677
傅	-15678
熙	-15679
窟	-15680
荧	-15681
蕨	-15682
霾	-15683
魄	-15684
ミ	-15685
兑	-15686
帖	-15687
戚	-15688
淹	-15689
祸	-15690
茅	-15691
赴	-15692
陨	-15693
靴	-15694
馏	-15695
ц	-15696
導	-15697
護	-15698
钦	-15699
锡	-15700
骰	-15701
セ	-15702
亨	-15703
員	-15704
庐	-15705
憧	-15706
昼	-15707
缆	-15708
胺	-15709
ベ	-15710
峦	-15711
敷	-15712
梗	-15713
測	-15714
漪	-15715
炽	-15716
線	-15717
讽	-15718
遊	-15719
屉	-15720
峨	-15721
帶	-15722
汰	-15723
涝	-15724
維	-15725
虐	-15726
颤	-15727
げ	-15728
ご	-15729
ソ	-15730
ポ	-15731
備	-15732
滿	-15733
疹	-15734
皑	-15735
盼	-15736
秤	-15737
聞	-15738
遣	-15739
酮	-15740
鹤	-15741
弛	-15742
挠	-15743
牡	-15744
祷	-15745
莺	-15746
韦	-15747
馒	-15748
ก	-15749
ワ	-15750
単	-15751
厄	-15752
哨	-15753
灸	-15754
焗	-15755
翱	-15756
赐	-15757
趟	-15758
び	-15759
啶	-15760
圳	-15761
憬	-15762
渲	-15763
瑶	-15764
茏	-15765
贩	-15766
ш	-15767
∠	-15768
凄	-15769
厢	-15770
嘧	-15771
澄	-15772
笋	-15773
へ	-15774
園	-15775
夢	-15776
孜	-15777
暇	-15778
検	-15779
榴	-15780
湘	-15781
褪	-15782
説	-15783
豁	-15784
蹦	-15785
醛	-15786
亭	-15787
惨	-15788
梢	-15789
漩	-15790
脖	-15791
遛	-15792
і	-15793
々	-15794
幫	-15795
慮	-15796
螃	-15797
規	-15798
诠	-15799
蹄	-15800
陡	-15801
匪	-15802
尸	-15803
拢	-15804
擇	-15805
溜	-15806
眸	-15807
處	-15808
鞭	-15809
ร	-15810
侈	-15811
倚	-15812
凹	-15813
嗎	-15814
汐	-15815
漱	-15816
蔚	-15817
辱	-15818
鸥	-15819
崭	-15820
弘	-15821
泣	-15822
呕	-15823
婪	-15824
嫁	-15825
宰	-15826
攒	-15827
杞	-15828
枸	-15829
睦	-15830
積	-15831
±	-15832
α	-15833
่	-15834
優	-15835
刃	-15836
蘸	-15837
複	-15838
陀	-15839
颊	-15840
驻	-15841
驼	-15842
鸢	-15843
奴	-15844
扯	-15845
衔	-15846
贬	-15847
轰	-15848
щ	-15849
価	-15850
嘲	-15851
坷	-15852
堤	-15853
溅	-15854
瞰	-15855
笨	-15856
荆	-15857
辜	-15858
顽	-15859
ザ	-15860
ダ	-15861
咕	-15862
槛	-15863
渺	-15864
蚝	-15865
颐	-15866
£	-15867
傳	-15868
瀚	-15869
鬆	-15870
ペ	-15871
僻	-15872
區	-15873
梧	-15874
犀	-15875
硝	-15876
約	-15877
編	-15878
胰	-15879
诡	-15880
咽	-15881
嘱	-15882
庇	-15883
廣	-15884
沧	-15885
練	-15886
耶	-15887
贼	-15888
ว	-15889
俑	-15890
價	-15891
姨	-15892
戶	-15893
扳	-15894
捣	-15895
竿	-15896
裡	-15897
豌	-15898
門	-15899
饵	-15900
鸿	-15901
ê	-15902
ด	-15903
★	-15904
む	-15905
剁	-15906
咀	-15907
尋	-15908
扉	-15909
汹	-15910
溫	-15911
灣	-15912
疵	-15913
蕊	-15914
趁	-15915
逮	-15916
隶	-15917
党	-15918
嘻	-15919
対	-15920
熠	-15921
羡	-15922
葫	-15923
許	-15924
費	-15925
陋	-15926
際	-15927
驗	-15928
麸	-15929
俊	-15930
囚	-15931
妃	-15932
愛	-15933
扼	-15934
栗	-15935
浊	-15936
烃	-15937
盯	-15938
眺	-15939
篝	-15940
緒	-15941
缮	-15942
葉	-15943
蛤	-15944
袤	-15945
钳	-15946
項	-15947
ง	-15948
妒	-15949
專	-15950
灼	-15951
炙	-15952
珀	-15953
碟	-15954
萦	-15955
辟	-15956
้	-15957
嗓	-15958
嗡	-15959
徙	-15960
柑	-15961
浒	-15962
肘	-15963
裸	-15964
『	-15965
』	-15966
嘈	-15967
坞	-15968
垠	-15969
妄	-15970
恍	-15971
挪	-15972
様	-15973
沼	-15974
浑	-15975
皎	-15976
睹	-15977
镶	-15978
靶	-15979
เ	-15980
朽	-15981
栩	-15982
熄	-15983
獲	-15984
窍	-15985
續	-15986
缭	-15987
莹	-15988
葬	-15989
裝	-15990
訊	-15991
铸	-15992
鳗	-15993
ā	-15994
ф	-15995
叮	-15996
噢	-15997
娅	-15998
敛	-15999
歩	-16000
篱	-16001
釋	-16002
髦	-16003
凰	-16004
層	-16005
徊	-16006
條	-16007
涅	-16008
潘	-16009
狡	-16010
猿	-16011
詩	-16012
趾	-16013
魏	-16014
兮	-16015
嗜	-16016
徘	-16017
甸	-16018
蒲	-16019
趴	-16020
铬	-16021
離	-16022
霓	-16023
養	-16024
湃	-16025
澎	-16026
烩	-16027
痒	-16028
镯	-16029
鸵	-16030
ね	-16031
亟	-16032
崎	-16033
拦	-16034
攝	-16035
歷	-16036
濟	-16037
琼	-16038
異	-16039
翘	-16040
裔	-16041
逾	-16042
難	-16043
～	-16044
ǐ	-16045
ม	-16046
□	-16047
亩	-16048
師	-16049
張	-16050
抉	-16051
焚	-16052
穹	-16053
続	-16054
缅	-16055
苛	-16056
荟	-16057
読	-16058
│	-16059
仕	-16060
拐	-16061
槟	-16062
潭	-16063
窒	-16064
纫	-16065
興	-16066
舰	-16067
萤	-16068
觅	-16069
谬	-16070
連	-16071
ī	-16072
ั	-16073
ツ	-16074
宕	-16075
怜	-16076
惹	-16077
戰	-16078
昌	-16079
涎	-16080
瞳	-16081
總	-16082
芸	-16083
軟	-16084
ù	-16085
ろ	-16086
哎	-16087
晤	-16088
檢	-16089
瞻	-16090
讀	-16091
陕	-16092
頭	-16093
ì	-16094
協	-16095
蝇	-16096
鳕	-16097
ゴ	-16098
乞	-16099
劝	-16100
寥	-16101
桐	-16102
紹	-16103
雏	-16104
預	-16105
領	-16106
骆	-16107
嫉	-16108
斷	-16109
桔	-16110
桩	-16111
澜	-16112
炊	-16113
療	-16114
粪	-16115
舆	-16116
芪	-16117
蝎	-16118
谍	-16119
豐	-16120
魚	-16121
侏	-16122
劃	-16123
喳	-16124
旬	-16125
煦	-16126
舔	-16127
蜊	-16128
辽	-16129
黯	-16130
ノ	-16131
乾	-16132
匮	-16133
収	-16134
吠	-16135
唾	-16136
嘶	-16137
圭	-16138
掀	-16139
斩	-16140
朦	-16141
涣	-16142
猾	-16143
睿	-16144
祇	-16145
終	-16146
絮	-16147
萋	-16148
藕	-16149
覺	-16150
訪	-16151
跹	-16152
踝	-16153
順	-16154
ล	-16155
⁄	-16156
値	-16157
勉	-16158
戲	-16159
棱	-16160
紅	-16161
聯	-16162
胧	-16163
藓	-16164
討	-16165
購	-16166
冈	-16167
喙	-16168
噜	-16169
墟	-16170
帅	-16171
帜	-16172
広	-16173
暹	-16174
沒	-16175
琅	-16176
瞒	-16177
築	-16178
腥	-16179
蔻	-16180
訓	-16181
鮮	-16182
鼎	-16183
俏	-16184
嚏	-16185
娑	-16186
拧	-16187
洼	-16188
渚	-16189
眷	-16190
绊	-16191
職	-16192
芜	-16193
蜓	-16194
蜻	-16195
蠕	-16196
課	-16197
郑	-16198
館	-16199
ハ	-16200
傻	-16201
凳	-16202
孪	-16203
戦	-16204
拇	-16205
痰	-16206
聽	-16207
茜	-16208
萼	-16209
買	-16210
輕	-16211
險	-16212
験	-16213
鲫	-16214
仗	-16215
吕	-16216
娩	-16217
悸	-16218
拙	-16219
瞪	-16220
矫	-16221
穗	-16222
簸	-16223
粽	-16224
袅	-16225
诣	-16226
阈	-16227
飲	-16228
鹏	-16229
≥	-16230
ギ	-16231
咆	-16232
咏	-16233
洱	-16234
獨	-16235
筐	-16236
绷	-16237
蔡	-16238
藉	-16239
阪	-16240
П	-16241
ี	-16242
卦	-16243
垄	-16244
妍	-16245
娟	-16246
愧	-16247
擁	-16248
楷	-16249
溺	-16250
狠	-16251
睁	-16252
紊	-16253
肋	-16254
躯	-16255
镍	-16256
陽	-16257
鱿	-16258
侍	-16259
卤	-16260
喃	-16261
奕	-16262
寐	-16263
悍	-16264
甩	-16265
皿	-16266
経	-16267
芡	-16268
藝	-16269
衛	-16270
観	-16271
譯	-16272
贤	-16273
遠	-16274
雯	-16275
麟	-16276
β	-16277
吾	-16278
坝	-16279
復	-16280
悖	-16281
沌	-16282
淅	-16283
營	-16284
狀	-16285
珑	-16286
缎	-16287
罢	-16288
荏	-16289
貂	-16290
轉	-16291
锂	-16292
闽	-16293
鹭	-16294
¡	-16295
ǎ	-16296
−	-16297
兆	-16298
喇	-16299
恬	-16300
惟	-16301
淮	-16302
滔	-16303
眨	-16304
羚	-16305
苒	-16306
蠢	-16307
诙	-16308
飛	-16309
倩	-16310
卒	-16311
婧	-16312
巍	-16313
応	-16314
昵	-16315
棚	-16316
琉	-16317
矢	-16318
舶	-16319
衅	-16320
親	-16321
蹴	-16322
阀	-16323
麒	-16324
ボ	-16325
乍	-16326
嗝	-16327
徉	-16328
徜	-16329
挙	-16330
氟	-16331
潇	-16332
畫	-16333
砸	-16334
磊	-16335
绞	-16336
腦	-16337
蚕	-16338
誤	-16339
驴	-16340
鳃	-16341
ข	-16342
ื	-16343
冽	-16344
凛	-16345
咱	-16346
唧	-16347
啾	-16348
坟	-16349
慵	-16350
昭	-16351
祛	-16352
籁	-16353
織	-16354
証	-16355
贮	-16356
逍	-16357
酞	-16358
錯	-16359
骂	-16360
麗	-16361
ค	-16362
ย	-16363
ห	-16364
≡	-16365
侯	-16366
偎	-16367
叽	-16368
啃	-16369
嘗	-16370
孢	-16371
岖	-16372
檐	-16373
缪	-16374
羯	-16375
胚	-16376
腮	-16377
臣	-16378
蔗	-16379
蜀	-16380
負	-16381
镖	-16382
隨	-16383
雜	-16384
ぶ	-16385
ゼ	-16386
ユ	-16387
冤	-16388
叭	-16389
拣	-16390
溝	-16391
爾	-16392
疮	-16393
蚓	-16394
诅	-16395
闸	-16396
靡	-16397
Δ	-16398
ا	-16399
ท	-16400
ไ	-16401
ァ	-16402
俚	-16403
吒	-16404
哗	-16405
噩	-16406
圍	-16407
宪	-16408
屡	-16409
怅	-16410
採	-16411
槃	-16412
湍	-16413
瘫	-16414
紀	-16415
蕃	-16416
裳	-16417
講	-16418
謝	-16419
谴	-16420
賽	-16421
迄	-16422
違	-16423
郭	-16424
钝	-16425
顯	-16426
飯	-16427
骁	-16428
骸	-16429
鬓	-16430
️	-16431
โ	-16432
乖	-16433
僅	-16434
処	-16435
凿	-16436
奸	-16437
専	-16438
彷	-16439
慣	-16440
憩	-16441
択	-16442
涕	-16443
潦	-16444
爭	-16445
琢	-16446
範	-16447
羁	-16448
聲	-16449
蟲	-16450
詳	-16451
證	-16452
诫	-16453
跤	-16454
逅	-16455
邂	-16456
酰	-16457
霄	-16458
鹳	-16459
龈	-16460
Ω	-16461
э	-16462
伝	-16463
喀	-16464
垦	-16465
島	-16466
掏	-16467
攘	-16468
瓢	-16469
瞄	-16470
碼	-16471
羟	-16472
聋	-16473
蚯	-16474
蜒	-16475
谔	-16476
輯	-16477
酗	-16478
飾	-16479
ò	-16480
В	-16481
円	-16482
冶	-16483
吮	-16484
嘹	-16485
彙	-16486
怠	-16487
恳	-16488
損	-16489
撇	-16490
桨	-16491
棠	-16492
渝	-16493
湯	-16494
潔	-16495
熨	-16496
産	-16497
稽	-16498
紙	-16499
羧	-16500
芋	-16501
苇	-16502
蛹	-16503
蜿	-16504
蝾	-16505
螈	-16506
蟀	-16507
蟋	-16508
贞	-16509
遐	-16510
釉	-16511
魁	-16512
龍	-16513
î	-16514
ะ	-16515
冉	-16516
壓	-16517
奎	-16518
娄	-16519
娴	-16520
屠	-16521
憶	-16522
搁	-16523
榈	-16524
榛	-16525
琥	-16526
琪	-16527
疚	-16528
碾	-16529
肱	-16530
荤	-16531
蛮	-16532
跋	-16533
邊	-16534
О	-16535
ป	-16536
แ	-16537
ぞ	-16538
ゃ	-16539
ヒ	-16540
俭	-16541
勢	-16542
呃	-16543
呐	-16544
惆	-16545
栅	-16546
満	-16547
瘙	-16548
眶	-16549
眾	-16550
窑	-16551
糠	-16552
級	-16553
绻	-16554
缱	-16555
赡	-16556
轼	-16557
霆	-16558
馍	-16559
齒	-16560
­	-16561
μ	-16562
พ	-16563
′	-16564
侮	-16565
吼	-16566
呜	-16567
啥	-16568
嚴	-16569
垮	-16570
増	-16571
岂	-16572
幢	-16573
彭	-16574
徴	-16575
昧	-16576
柬	-16577
樹	-16578
汞	-16579
琶	-16580
痪	-16581
痫	-16582
笙	-16583
絡	-16584
腑	-16585
舉	-16586
蔷	-16587
蚤	-16588
蹬	-16589
钛	-16590
阑	-16591
鲲	-16592
ิ	-16593
ぐ	-16594
亢	-16595
佬	-16596
俐	-16597
哼	-16598
徵	-16599
怯	-16600
擊	-16601
朔	-16602
栓	-16603
權	-16604
氩	-16605
琏	-16606
眩	-16607
稱	-16608
箔	-16609
聖	-16610
苞	-16611
菩	-16612
蘭	-16613
號	-16614
賞	-16615
酌	-16616
铂	-16617
镑	-16618
韭	-16619
颅	-16620
馬	-16621
黃	-16622
ɪ	-16623
ё	-16624
จ	-16625
ส	-16626
亞	-16627
哆	-16628
啮	-16629
媲	-16630
庵	-16631
徨	-16632
扒	-16633
斧	-16634
瘀	-16635
癫	-16636
禧	-16637
竺	-16638
綠	-16639
绰	-16640
罹	-16641
萍	-16642
薦	-16643
蛾	-16644
镀	-16645
閱	-16646
頓	-16647
饕	-16648
麵	-16649
Н	-16650
∩	-16651
●	-16652
づ	-16653
伎	-16654
侄	-16655
冕	-16656
勵	-16657
卻	-16658
咚	-16659
哄	-16660
寝	-16661
帧	-16662
幾	-16663
愫	-16664
戊	-16665
捆	-16666
晦	-16667
枉	-16668
橇	-16669
涓	-16670
琵	-16671
疆	-16672
瞭	-16673
礴	-16674
華	-16675
褶	-16676
跪	-16677
込	-16678
邓	-16679
針	-16680
闺	-16681
阂	-16682
ǒ	-16683
ˈ	-16684
ρ	-16685
∫	-16686
◆	-16687
ざ	-16688
咿	-16689
啄	-16690
嘟	-16691
噌	-16692
図	-16693
團	-16694
執	-16695
婀	-16696
屬	-16697
峥	-16698
帯	-16699
庚	-16700
恕	-16701
戳	-16702
擬	-16703
曙	-16704
樓	-16705
権	-16706
殆	-16707
涮	-16708
淳	-16709
瑙	-16710
甄	-16711
監	-16712
祠	-16713
稼	-16714
窥	-16715
簿	-16716
脯	-16717
腳	-16718
譬	-16719
赃	-16720
週	-16721
醫	-16722
釣	-16723
镭	-16724
飒	-16725
飙	-16726
饶	-16727
骏	-16728
ō	-16729
ต	-16730
ガ	-16731
ホ	-16732
佑	-16733
嚎	-16734
囲	-16735
媳	-16736
屁	-16737
帷	-16738
悴	-16739
摒	-16740
旭	-16741
榻	-16742
淫	-16743
瘠	-16744
皙	-16745
盡	-16746
瞎	-16747
碘	-16748
礎	-16749
稚	-16750
笆	-16751
腩	-16752
茉	-16753
莽	-16754
蔼	-16755
蟾	-16756
靓	-16757
須	-16758
颌	-16759
飪	-16760
馁	-16761
驟	-16762
鳥	-16763
鸳	-16764
¢	-16765
К	-16766
伶	-16767
冯	-16768
勝	-16769
憔	-16770
懊	-16771
橋	-16772
歴	-16773
涼	-16774
濡	-16775
烽	-16776
猕	-16777
疡	-16778
痧	-16779
磺	-16780
禾	-16781
競	-16782
笠	-16783
納	-16784
績	-16785
绅	-16786
芩	-16787
藍	-16788
蟒	-16789
觑	-16790
诲	-16791
貓	-16792
責	-16793
迥	-16794
迦	-16795
邸	-16796
铵	-16797
镰	-16798
隍	-16799
雑	-16800
靜	-16801
鹊	-16802
ě	-16803
С	-16804
☉	-16805
ほ	-16806
ヤ	-16807
働	-16808
劇	-16809
奂	-16810
惘	-16811
慑	-16812
憎	-16813
拡	-16814
斋	-16815
榭	-16816
毂	-16817
氖	-16818
沈	-16819
泞	-16820
濃	-16821
篆	-16822
繪	-16823
绮	-16824
缔	-16825
羹	-16826
耘	-16827
耽	-16828
荔	-16829
褒	-16830
贿	-16831
赘	-16832
辗	-16833
酋	-16834
銀	-16835
鍵	-16836
铛	-16837
顧	-16838
顷	-16839
驚	-16840
驭	-16841
鼹	-16842
â	-16843
û	-16844
บ	-16845
ุ	-16846
ใ	-16847
‍	-16848
┃	-16849
刨	-16850
卿	-16851
哟	-16852
啁	-16853
嘘	-16854
堅	-16855
壑	-16856
妊	-16857
娠	-16858
弈	-16859
彦	-16860
戟	-16861
揣	-16862
暧	-16863
梓	-16864
楂	-16865
檀	-16866
汩	-16867
沓	-16868
泸	-16869
淑	-16870
獻	-16871
矗	-16872
砧	-16873
粱	-16874
緊	-16875
緩	-16876
繼	-16877
聴	-16878
舵	-16879
蚜	-16880
補	-16881
詢	-16882
誰	-16883
輪	-16884
錢	-16885
钡	-16886
ã	-16887
ː	-16888
ा	-16889
ぜ	-16890
侃	-16891
倫	-16892
勋	-16893
哉	-16894
嘎	-16895
姚	-16896
娥	-16897
屹	-16898
忒	-16899
悪	-16900
憨	-16901
拽	-16902
樽	-16903
歐	-16904
殷	-16905
獎	-16906
璐	-16907
砌	-16908
虔	-16909
衝	-16910
覚	-16911
誕	-16912
轩	-16913
郡	-16914
醬	-16915
録	-16916
钴	-16917
闵	-16918
颚	-16919
鬃	-16920
鸯	-16921
다	-16922
É	-16923
ə	-16924
ل	-16925
丐	-16926
乗	-16927
嗔	-16928
坤	-16929
埔	-16930
娓	-16931
宮	-16932
帚	-16933
憋	-16934
拷	-16935
挞	-16936
挨	-16937
揮	-16938
撩	-16939
撮	-16940
榉	-16941
榫	-16942
歪	-16943
毎	-16944
涧	-16945
淤	-16946
炬	-16947
烙	-16948
烬	-16949
焊	-16950
町	-16951
砾	-16952
穩	-16953
窮	-16954
筆	-16955
箫	-16956
糍	-16957
绯	-16958
缈	-16959
缥	-16960
肛	-16961
蓋	-16962
蜍	-16963
谙	-16964
谭	-16965
農	-16966
锄	-16967
雙	-16968
雲	-16969
靈	-16970
靖	-16971
韶	-16972
顔	-16973
餅	-16974
ô	-16975
Д	-16976
卯	-16977
嗒	-16978
奮	-16979
娶	-16980
媛	-16981
悼	-16982
抨	-16983
拮	-16984
昊	-16985
暢	-16986
毋	-16987
毗	-16988
汕	-16989
沦	-16990
溴	-16991
滕	-16992
砺	-16993
禮	-16994
絕	-16995
纶	-16996
羅	-16997
苟	-16998
薬	-16999
蚌	-17000
蚪	-17001
蛎	-17002
蝌	-17003
誠	-17004
譜	-17005
貴	-17006
贱	-17007
隋	-17008
餮	-17009
髮	-17010
鹃	-17011
麓	-17012
을	-17013
ψ	-17014
є	-17015
∆	-17016
侬	-17017
偕	-17018
傷	-17019
兜	-17020
労	-17021
匈	-17022
匣	-17023
啟	-17024
喔	-17025
嚷	-17026
婵	-17027
岚	-17028
庫	-17029
徑	-17030
捍	-17031
擔	-17032
擴	-17033
曬	-17034
歳	-17035
淺	-17036
済	-17037
牟	-17038
盹	-17039
瞧	-17040
禀	-17041
缜	-17042
耻	-17043
舀	-17044
螨	-17045
襟	-17046
訳	-17047
讳	-17048
豺	-17049
跆	-17050
跡	-17051
輛	-17052
鏈	-17053
鐘	-17054
鑫	-17055
锰	-17056
閉	-17057
饨	-17058
馄	-17059
馥	-17060
駅	-17061
駛	-17062
이	-17063
하	-17064
ب	-17065
ह	-17066
ํ	-17067
∑	-17068
ぼ	-17069
伫	-17070
俘	-17071
匕	-17072
咔	-17073
嫦	-17074
寅	-17075
帰	-17076
彤	-17077
従	-17078
慶	-17079
揽	-17080
曜	-17081
棄	-17082
汚	-17083
爹	-17084
爻	-17085
犷	-17086
猬	-17087
磕	-17088
礦	-17089
簌	-17090
耦	-17091
肇	-17092
舅	-17093
芍	-17094
菱	-17095
萬	-17096
裏	-17097
褂	-17098
襄	-17099
豊	-17100
財	-17101
蹭	-17102
錄	-17103
隱	-17104
雹	-17105
颓	-17106
駕	-17107
骋	-17108
니	-17109
م	-17110
ي	-17111
▲	-17112
倘	-17113
側	-17114
債	-17115
傾	-17116
兀	-17117
厳	-17118
呗	-17119
咯	-17120
囱	-17121
垩	-17122
姥	-17123
寵	-17124
屎	-17125
岌	-17126
幌	-17127
廳	-17128
恪	-17129
懦	-17130
曰	-17131
栀	-17132
榕	-17133
樟	-17134
檔	-17135
歲	-17136
沽	-17137
浣	-17138
淙	-17139
潢	-17140
炯	-17141
煞	-17142
獭	-17143
畸	-17144
疟	-17145
疤	-17146
瘟	-17147
盅	-17148
硒	-17149
紐	-17150
罔	-17151
羔	-17152
蝦	-17153
訴	-17154
詮	-17155
貢	-17156
貼	-17157
踊	-17158
転	-17159
遺	-17160
钋	-17161
钨	-17162
靛	-17163
顆	-17164
願	-17165
驅	-17166
髋	-17167
鳅	-17168
어	-17169
ū	-17170
З	-17171
ึ	-17172
ゲ	-17173
仄	-17174
僕	-17175
儲	-17176
唉	-17177
唬	-17178
嗷	-17179
嘀	-17180
坯	-17181
壺	-17182
宥	-17183
寧	-17184
嶂	-17185
惶	-17186
愣	-17187
憐	-17188
扛	-17189
掺	-17190
栄	-17191
涸	-17192
滟	-17193
潛	-17194
焼	-17195
璧	-17196
瞌	-17197
硼	-17198
稅	-17199
笃	-17200
糜	-17201
羲	-17202
脐	-17203
臆	-17204
苑	-17205
荼	-17206
薏	-17207
藥	-17208
蜇	-17209
蜷	-17210
螂	-17211
衆	-17212
裨	-17213
貨	-17214
跖	-17215
跷	-17216
載	-17217
锚	-17218
陳	-17219
霏	-17220
鞘	-17221
頻	-17222
額	-17223
顏	-17224
驿	-17225
鳐	-17226
鹑	-17227
鹜	-17228
黒	-17229
상	-17230
적	-17231
ē	-17232
Σ	-17233
И	-17234
े	-17235
≠	-17236
佚	-17237
倔	-17238
僚	-17239
兢	-17240
剛	-17241
吱	-17242
呱	-17243
咦	-17244
堕	-17245
妞	-17246
妩	-17247
媽	-17248
嫂	-17249
嵩	-17250
幺	-17251
忏	-17252
惚	-17253
憂	-17254
懵	-17255
戛	-17256
抠	-17257
敵	-17258
査	-17259
氤	-17260
氪	-17261
氲	-17262
渭	-17263
漉	-17264
灘	-17265
焓	-17266
珞	-17267
琊	-17268
県	-17269
瞥	-17270
窜	-17271
筏	-17272
箍	-17273
纾	-17274
羌	-17275
脈	-17276
膚	-17277
芈	-17278
苣	-17279
茱	-17280
莴	-17281
蒿	-17282
蜈	-17283
袒	-17284
裱	-17285
誼	-17286
談	-17287
谟	-17288
豉	-17289
貝	-17290
轶	-17291
辦	-17292
迸	-17293
閃	-17294
雍	-17295
雖	-17296
雞	-17297
霭	-17298
骇	-17299
鸸	-17300
鹋	-17301
鹌	-17302
세	-17303
요	-17304
ł	-17305
λ	-17306
φ	-17307
र	-17308
स	-17309
ู	-17310
์	-17311
✓	-17312
亘	-17313
亥	-17314
仮	-17315
佈	-17316
剽	-17317
劑	-17318
吝	-17319
呦	-17320
咎	-17321
咐	-17322
唠	-17323
塗	-17324
壬	-17325
寶	-17326
岔	-17327
怆	-17328
恻	-17329
悅	-17330
悯	-17331
悱	-17332
懼	-17333
拴	-17334
掃	-17335
搀	-17336
摂	-17337
昇	-17338
晷	-17339
暫	-17340
沏	-17341
沪	-17342
炳	-17343
煽	-17344
熹	-17345
狙	-17346
璜	-17347
盤	-17348
磋	-17349
窈	-17350
窕	-17351
笺	-17352
絵	-17353
継	-17354
繞	-17355
胳	-17356
脍	-17357
臺	-17358
艮	-17359
芫	-17360
荽	-17361
蓑	-17362
蜕	-17363
蟑	-17364
袁	-17365
裘	-17366
赣	-17367
踵	-17368
蹤	-17369
輝	-17370
辍	-17371
遨	-17372
鄙	-17373
钅	-17374
铀	-17375
閒	-17376
陣	-17377
隘	-17378
霖	-17379
骷	-17380
髅	-17381
鬣	-17382
鸠	-17383
鹫	-17384
龋	-17385
Ä	-17386
Ü	-17387
ο	-17388
σ	-17389
Э	-17390
س	-17391
ی	-17392
็	-17393
―	-17394
ゆ	-17395
仆	-17396
剃	-17397
劈	-17398
勞	-17399
勧	-17400
呛	-17401
哒	-17402
啬	-17403
噻	-17404
嚓	-17405
壯	-17406
売	-17407
夙	-17408
婿	-17409
嫡	-17410
孫	-17411
岑	-17412
弋	-17413
彈	-17414
恚	-17415
恣	-17416
払	-17417
拎	-17418
挛	-17419
擒	-17420
札	-17421
枷	-17422
棺	-17423
殴	-17424
洮	-17425
滅	-17426
漸	-17427
焉	-17428
狒	-17429
玦	-17430
痉	-17431
痊	-17432
皓	-17433
眯	-17434
砥	-17435
秧	-17436
穫	-17437
竣	-17438
繩	-17439
繫	-17440
缉	-17441
腱	-17442
膊	-17443
臨	-17444
臼	-17445
舊	-17446
芎	-17447
芷	-17448
茴	-17449
虛	-17450
蛀	-17451
蛭	-17452
蝗	-17453
襲	-17454
覽	-17455
訂	-17456
診	-17457
赅	-17458
跶	-17459
軽	-17460
邵	-17461
釜	-17462
铠	-17463
陛	-17464
陰	-17465
階	-17466
雰	-17467
鞍	-17468
鞣	-17469
韓	-17470
頼	-17471
饯	-17472
騎	-17473
鳟	-17474
麥	-17475
鼬	-17476
가	-17477
대	-17478
도	-17479
면	-17480
해	-17481
ë	-17482
Т	-17483
ة	-17484
ت	-17485
ر	-17486
ع	-17487
ن	-17488
क	-17489
ฉ	-17490
ช	-17491
∛	-17492
⟩	-17493
ヴ	-17494
丫	-17495
俳	-17496
兒	-17497
厥	-17498
厮	-17499
咄	-17500
啜	-17501
団	-17502
囤	-17503
圓	-17504
垣	-17505
塊	-17506
夯	-17507
夾	-17508
奧	-17509
妲	-17510
婺	-17511
孽	-17512
岐	-17513
岡	-17514
忱	-17515
怦	-17516
惡	-17517
愕	-17518
憤	-17519
懷	-17520
抜	-17521
挟	-17522
捻	-17523
掬	-17524
摞	-17525
撬	-17526
撷	-17527
斛	-17528
晗	-17529
棂	-17530
椽	-17531
歸	-17532
歼	-17533
汶	-17534
淨	-17535
滇	-17536
災	-17537
煙	-17538
煨	-17539
犁	-17540
猁	-17541
猞	-17542
甾	-17543
痔	-17544
癒	-17545
盂	-17546
秃	-17547
穏	-17548
簪	-17549
紋	-17550
純	-17551
纖	-17552
聂	-17553
脅	-17554
膛	-17555
芊	-17556
茧	-17557
萱	-17558
蒋	-17559
蓟	-17560
蚱	-17561
螢	-17562
褥	-17563
觸	-17564
诃	-17565
貧	-17566
踌	-17567
躇	-17568
轭	-17569
辋	-17570
辙	-17571
辺	-17572
迢	-17573
迩	-17574
遂	-17575
鈴	-17576
鍋	-17577
锉	-17578
镓	-17579
闊	-17580
陸	-17581
険	-17582
隻	-17583
頂	-17584
颞	-17585
餘	-17586
骈	-17587
鹂	-17588
게	-17589
에	-17590
있	-17591
😊	-17592
æ	-17593
ý	-17594
म	-17595
य	-17596
♠	-17597
〜	-17598
ぎ	-17599
亂	-17600
亵	-17601
刁	-17602
匡	-17603
叢	-17604
叨	-17605
哩	-17606
唏	-17607
啭	-17608
嗑	-17609
嗤	-17610
嗥	-17611
壕	-17612
奨	-17613
妓	-17614
姊	-17615
嫣	-17616
寰	-17617
屯	-17618
岱	-17619
帳	-17620
彝	-17621
彪	-17622
懿	-17623
扱	-17624
拠	-17625
敘	-17626
斌	-17627
斟	-17628
殼	-17629
炔	-17630
烊	-17631
狞	-17632
璋	-17633
痹	-17634
盜	-17635
砷	-17636
禹	-17637
窦	-17638
縮	-17639
绛	-17640
耿	-17641
肮	-17642
胛	-17643
胱	-17644
茗	-17645
荚	-17646
蒴	-17647
蕙	-17648
薩	-17649
虏	-17650
虞	-17651
蚣	-17652
覧	-17653
諧	-17654
諾	-17655
賊	-17656
赂	-17657
趨	-17658
迴	-17659
邏	-17660
郵	-17661
鉄	-17662
銷	-17663
鐵	-17664
钵	-17665
锵	-17666
镂	-17667
镉	-17668
镊	-17669
阮	-17670
隊	-17671
隼	-17672
雎	-17673
雳	-17674
霹	-17675
鬱	-17676
鳴	-17677
기	-17678
는	-17679
들	-17680
방	-17681
보	-17682
수	-17683
은	-17684
인	-17685
😂	-17686
õ	-17687
œ	-17688
ɔ	-17689
γ	-17690
ε	-17691
Я	-17692
ك	-17693
ณ	-17694
⇒	-17695
∅	-17696
♀	-17697
ひ	-17698
ヘ	-17699
両	-17700
俠	-17701
偉	-17702
僱	-17703
儀	-17704
儘	-17705
呻	-17706
坂	-17707
堰	-17708
夥	-17709
夭	-17710
娛	-17711
崔	-17712
彬	-17713
忡	-17714
怔	-17715
恙	-17716
捺	-17717
掳	-17718
摹	-17719
敖	-17720
敗	-17721
敝	-17722
昙	-17723
桎	-17724
梏	-17725
榆	-17726
氫	-17727
汝	-17728
湲	-17729
潋	-17730
潑	-17731
燒	-17732
狰	-17733
玑	-17734
玺	-17735
璟	-17736
瞋	-17737
矣	-17738
磐	-17739
窣	-17740
窸	-17741
笈	-17742
箕	-17743
糨	-17744
紛	-17745
腭	-17746
膠	-17747
膺	-17748
臃	-17749
臘	-17750
臻	-17751
艽	-17752
苓	-17753
茯	-17754
荀	-17755
蓓	-17756
蔑	-17757
蔫	-17758
蜱	-17759
蝸	-17760
蟆	-17761
蟌	-17762
誌	-17763
謎	-17764
譽	-17765
讪	-17766
诋	-17767
販	-17768
贈	-17769
軌	-17770
軒	-17771
辫	-17772
酝	-17773
銃	-17774
鍛	-17775
铍	-17776
铐	-17777
铟	-17778
铿	-17779
锕	-17780
锣	-17781
锶	-17782
鞦	-17783
韆	-17784
飼	-17785
駆	-17786
鮭	-17787
鲢	-17788
鳳	-17789
麋	-17790
黨	-17791
齢	-17792
녕	-17793
서	-17794
시	-17795
안	-17796
🌞	-17797
«	-17798
»	-17799
ɒ	-17800
ʂ	-17801
̄	-17802
ι	-17803
ω	-17804
М	-17805
Р	-17806
У	-17807
ъ	-17808
و	-17809
ं	-17810
ซ	-17811
ถ	-17812
ი	-17813
∀	-17814
∂	-17815
∞	-17816
〇	-17817
ヨ	-17818
仏	-17819
侨	-17820
俨	-17821
倏	-17822
傑	-17823
傣	-17824
僑	-17825
剤	-17826
劾	-17827
匝	-17828
叩	-17829
吏	-17830
咩	-17831
唑	-17832
嗦	-17833
圜	-17834
塩	-17835
塵	-17836
墩	-17837
壞	-17838
壽	-17839
妾	-17840
姣	-17841
娆	-17842
婦	-17843
嬛	-17844
嬴	-17845
寬	-17846
岫	-17847
峋	-17848
嵘	-17849
嶙	-17850
嶺	-17851
幹	-17852
忐	-17853
忑	-17854
惋	-17855
憲	-17856
戻	-17857
拗	-17858
捲	-17859
掛	-17860
搂	-17861
搐	-17862
搖	-17863
撃	-17864
旖	-17865
昀	-17866
昴	-17867
晁	-17868
晌	-17869
桦	-17870
槍	-17871
殉	-17872
殺	-17873
氓	-17874
氰	-17875
浜	-17876
渎	-17877
湄	-17878
滓	-17879
濛	-17880
煉	-17881
燎	-17882
犄	-17883
獒	-17884
璇	-17885
痤	-17886
瞠	-17887
碲	-17888
祗	-17889
祟	-17890
秽	-17891
窖	-17892
粟	-17893
綿	-17894
纨	-17895
翎	-17896
腋	-17897
荞	-17898
莅	-17899
菁	-17900
蒟	-17901
蒻	-17902
蒼	-17903
蔔	-17904
蔥	-17905
蕈	-17906
藜	-17907
蘿	-17908
虱	-17909
蛐	-17910
蜃	-17911
讴	-17912
诽	-17913
谑	-17914
谤	-17915
谩	-17916
豔	-17917
貅	-17918
貔	-17919
貿	-17920
贻	-17921
趕	-17922
跚	-17923
踱	-17924
蹒	-17925
躬	-17926
轧	-17927
轲	-17928
辘	-17929
逞	-17930
鄉	-17931
醂	-17932
釭	-17933
鋼	-17934
钼	-17935
铆	-17936
铰	-17937
铷	-17938
锗	-17939
镌	-17940
闫	-17941
阙	-17942
阡	-17943
隠	-17944
霧	-17945
鞠	-17946
鬥	-17947
鲶	-17948
鶩	-17949
鹽	-17950
鼾	-17951
것	-17952
됩	-17953
로	-17954
한	-17955
👩	-17956
§	-17957
À	-17958
ï	-17959
ħ	-17960
ǔ	-17961
ʌ	-17962
Б	-17963
Е	-17964
Л	-17965
Х	-17966
آ	-17967
ج	-17968
त	-17969
न	-17970
ी	-17971
ै	-17972
्	-17973
ฟ	-17974
ภ	-17975
ა	-17976
┴	-17977
✗	-17978
ゾ	-17979
丞	-17980
偵	-17981
冀	-17982
冊	-17983
勻	-17984
咋	-17985
咫	-17986
啰	-17987
喋	-17988
嘆	-17989
噛	-17990
囧	-17991
圃	-17992
堀	-17993
妳	-17994
娲	-17995
婶	-17996
宦	-17997
寤	-17998
審	-17999
峪	-18000
幣	-18001
廃	-18002
廢	-18003
弁	-18004
恆	-18005
惱	-18006
懸	-18007
戮	-18008
拈	-18009
捅	-18010
捨	-18011
擾	-18012
攜	-18013
旎	-18014
晏	-18015
晟	-18016
暄	-18017
桁	-18018
桠	-18019
楔	-18020
榔	-18021
槌	-18022
橫	-18023
殻	-18024
氙	-18025
氡	-18026
沖	-18027
沢	-18028
泠	-18029
渤	-18030
滂	-18031
漲	-18032
澤	-18033
濕	-18034
瀏	-18035
牆	-18036
犒	-18037
猥	-18038
珈	-18039
瑾	-18040
癖	-18041
砕	-18042
砹	-18043
祁	-18044
禄	-18045
禰	-18046
秆	-18047
秸	-18048
絲	-18049
総	-18050
緑	-18051
緻	-18052
繰	-18053
纭	-18054
绢	-18055
羰	-18056
耙	-18057
脓	-18058
脫	-18059
脳	-18060
艱	-18061
艷	-18062
莘	-18063
菓	-18064
菸	-18065
菽	-18066
葆	-18067
蓦	-18068
蜚	-18069
袱	-18070
註	-18071
誇	-18072
諸	-18073
譲	-18074
谏	-18075
貸	-18076
賺	-18077
赝	-18078
趸	-18079
跎	-18080
跻	-18081
蹉	-18082
蹟	-18083
蹼	-18084
蹿	-18085
軍	-18086
輔	-18087
遞	-18088
醚	-18089
鈕	-18090
鎮	-18091
钍	-18092
钒	-18093
钪	-18094
铪	-18095
铯	-18096
铼	-18097
锆	-18098
锑	-18099
锢	-18100
锭	-18101
锲	-18102
閲	-18103
陇	-18104
韻	-18105
頁	-18106
頃	-18107
飕	-18108
飽	-18109
餃	-18110
餌	-18111
餚	-18112
餡	-18113
饋	-18114
騰	-18115
骛	-18116
鬟	-18117
鬧	-18118
魇	-18119
鱚	-18120
鲭	-18121
鳌	-18122
鵜	-18123
鹈	-18124
鹕	-18125
麝	-18126
鼩	-18127
감	-18128
계	-18129
나	-18130
습	-18131
아	-18132
의	-18133
일	-18134
친	-18135
할	-18136
🍳	-18137
💪	-18138
Ö	-18139
ø	-18140
ŋ	-18141
ž	-18142
ɕ	-18143
Γ	-18144
ν	-18145
А	-18146
ї	-18147
د	-18148
ز	-18149
ग	-18150
प	-18151
ू	-18152
ੀ	-18153
ญ	-18154
ლ	-18155
⁡	-18156
↑	-18157
∪	-18158
█	-18159
▽	-18160
☀	-18161
♦	-18162
ふ	-18163
丼	-18164
佰	-18165
傘	-18166
億	-18167
償	-18168
凈	-18169
凍	-18170
匐	-18171
哔	-18172
哝	-18173
唆	-18174
啪	-18175
啫	-18176
啵	-18177
喩	-18178
営	-18179
嗪	-18180
嘞	-18181
嘣	-18182
嘭	-18183
噴	-18184
噼	-18185
嚐	-18186
圏	-18187
圧	-18188
奄	-18189
嬌	-18190
宸	-18191
尉	-18192
峙	-18193
崂	-18194
巻	-18195
庶	-18196
彌	-18197
徹	-18198
恵	-18199
悩	-18200
惦	-18201
惭	-18202
戍	-18203
扦	-18204
拋	-18205
挿	-18206
掰	-18207
揪	-18208
搡	-18209
撐	-18210
擠	-18211
攸	-18212
晞	-18213
曷	-18214
棲	-18215
楠	-18216
楸	-18217
楹	-18218
槐	-18219
樊	-18220
檸	-18221
櫃	-18222
櫻	-18223
欖	-18224
歓	-18225
殇	-18226
殘	-18227
毙	-18228
毡	-18229
毽	-18230
汛	-18231
沱	-18232
淚	-18233
淬	-18234
滷	-18235
漢	-18236
潤	-18237
潴	-18238
濯	-18239
瀝	-18240
炆	-18241
烏	-18242
煩	-18243
燈	-18244
燦	-18245
爐	-18246
爛	-18247
牠	-18248
犧	-18249
狈	-18250
猖	-18251
獗	-18252
獠	-18253
獾	-18254
玟	-18255
疙	-18256
疱	-18257
疸	-18258
疽	-18259
瘩	-18260
瘪	-18261
癸	-18262
睑	-18263
矜	-18264
祺	-18265
禺	-18266
窘	-18267
窳	-18268
籃	-18269
粑	-18270
紡	-18271
綁	-18272
綜	-18273
縄	-18274
縛	-18275
繊	-18276
缛	-18277
耄	-18278
耋	-18279
聰	-18280
胍	-18281
臉	-18282
臟	-18283
舐	-18284
舛	-18285
芮	-18286
苁	-18287
荠	-18288
莠	-18289
萊	-18290
萸	-18291
葭	-18292
薙	-18293
蘊	-18294
蛰	-18295
蠡	-18296
裴	-18297
褚	-18298
襯	-18299
讚	-18300
诧	-18301
诩	-18302
貫	-18303
賃	-18304
賓	-18305
賣	-18306
賴	-18307
贊	-18308
贏	-18309
赭	-18310
趵	-18311
跛	-18312
踐	-18313
踹	-18314
蹁	-18315
躍	-18316
辊	-18317
遲	-18318
郫	-18319
鄂	-18320
酣	-18321
醃	-18322
釈	-18323
鉀	-18324
鏡	-18325
钇	-18326
钌	-18327
钔	-18328
钫	-18329
钹	-18330
钽	-18331
铌	-18332
铮	-18333
镐	-18334
镧	-18335
阖	-18336
陉	-18337
霁	-18338
霰	-18339
靥	-18340
颧	-18341
馋	-18342
髻	-18343
鲟	-18344
鳜	-18345
鸾	-18346
鹮	-18347
黔	-18348
齊	-18349
고	-18350
려	-18351
를	-18352
물	-18353
움	-18354
으	-18355
정	-18356
주	-18357
큰	-18358
🌳	-18359
🌿	-18360
👨	-18361
🤔	-18362
	-18363
È	-18364
ć	-18365
ń	-18366
ş	-18367
Ǒ	-18368
ɛ	-18369
ʃ	-18370
Θ	-18371
Ψ	-18372
ς	-18373
τ	-18374
υ	-18375
ό	-18376
ύ	-18377
ώ	-18378
Г	-18379
Ц	-18380
Ч	-18381
أ	-18382
ح	-18383
خ	-18384
ط	-18385
ف	-18386
ँ	-18387
द	-18388
श	-18389
ु	-18390
ो	-18391
।	-18392
ন	-18393
ਲ	-18394
ਹ	-18395
ๆ	-18396
დ	-18397
რ	-18398
ს	-18399
∈	-18400
⊥	-18401
△	-18402
♂	-18403
♣	-18404
♥	-18405
ヶ	-18406
仞	-18407
仨	-18408
伺	-18409
佯	-18410
倉	-18411
倭	-18412
凱	-18413
匍	-18414
匯	-18415
厲	-18416
呓	-18417
咂	-18418
咾	-18419
哽	-18420
啓	-18421
喆	-18422
嗣	-18423
嗳	-18424
嘤	-18425
噫	-18426
囍	-18427
堑	-18428
壊	-18429
姹	-18430
嫔	-18431
孳	-18432
尧	-18433
岬	-18434
峇	-18435
崑	-18436
崙	-18437
崴	-18438
嵐	-18439
嶼	-18440
廖	-18441
廠	-18442
弭	-18443
忖	-18444
恃	-18445
愠	-18446
憑	-18447
懐	-18448
拶	-18449
捂	-18450
捶	-18451
掐	-18452
揃	-18453
揚	-18454
搔	-18455
搽	-18456
摯	-18457
撫	-18458
擂	-18459
擘	-18460
擞	-18461
擺	-18462
旻	-18463
暝	-18464
暦	-18465
枠	-18466
栾	-18467
桉	-18468
楓	-18469
榷	-18470
橢	-18471
欄	-18472
欸	-18473
歹	-18474
汨	-18475
淒	-18476
淼	-18477
湎	-18478
滯	-18479
潸	-18480
澹	-18481
瀾	-18482
炅	-18483
燧	-18484
犰	-18485
狳	-18486
玮	-18487
玷	-18488
珐	-18489
璞	-18490
甙	-18491
畑	-18492
畦	-18493
疊	-18494
疣	-18495
睬	-18496
睽	-18497
瞑	-18498
矽	-18499
砚	-18500
礙	-18501
祂	-18502
稹	-18503
穀	-18504
穎	-18505
笳	-18506
筅	-18507
筠	-18508
箋	-18509
篁	-18510
篩	-18511
簽	-18512
簾	-18513
籌	-18514
粋	-18515
粿	-18516
糅	-18517
糧	-18518
絶	-18519
繽	-18520
罄	-18521
翳	-18522
耆	-18523
胤	-18524
腓	-18525
腸	-18526
膑	-18527
膘	-18528
膽	-18529
臓	-18530
舜	-18531
艙	-18532
苋	-18533
茛	-18534
荇	-18535
荨	-18536
莞	-18537
菖	-18538
葺	-18539
蒹	-18540
蓣	-18541
蔭	-18542
藁	-18543
蘇	-18544
蛊	-18545
蛏	-18546
蛟	-18547
蛳	-18548
蛸	-18549
蜢	-18550
蝮	-18551
螳	-18552
衿	-18553
襦	-18554
誘	-18555
諮	-18556
謊	-18557
诬	-18558
诶	-18559
谕	-18560
谪	-18561
貶	-18562
賦	-18563
跬	-18564
跺	-18565
踞	-18566
踮	-18567
軸	-18568
輩	-18569
辄	-18570
逑	-18571
逵	-18572
遁	-18573
遙	-18574
遷	-18575
邁	-18576
邱	-18577
醣	-18578
醺	-18579
鈣	-18580
鉱	-18581
鏖	-18582
鑑	-18583
钏	-18584
钐	-18585
钕	-18586
钚	-18587
钯	-18588
铊	-18589
铋	-18590
铎	-18591
铑	-18592
铥	-18593
铱	-18594
锇	-18595
镤	-18596
镳	-18597
閣	-18598
闘	-18599
隽	-18600
頑	-18601
飄	-18602
飚	-18603
飨	-18604
餵	-18605
馀	-18606
駝	-18607
驕	-18608
驹	-18609
骊	-18610
魯	-18611
鮑	-18612
鯨	-18613
鳖	-18614
鳩	-18615
鸫	-18616
鹄	-18617
黙	-18618
龛	-18619
각	-18620
간	-18621
거	-18622
격	-18623
과	-18624
구	-18625
극	-18626
더	-18627
리	-18628
만	-18629
사	-18630
생	-18631
야	-18632
와	-18633
자	-18634
좋	-18635
함	-18636
힘	-18637
	-18638
🌈	-18639
🌍	-18640
🌟	-18641
🌧	-18642
🌺	-18643
🎉	-18644
🏀	-18645
🏼	-18646
🐝	-18647
🐥	-18648
👍	-18649
📚	-18650
🚗	-18651
🤸	-18652
©	-18653
Á	-18654
Æ	-18655
Î	-18656
Ñ	-18657
ð	-18658
ę	-18659
ı	-18660
ř	-18661
ś	-18662
ƒ	-18663
ɑ	-18664
ɜ	-18665
ʈ	-18666
ʒ	-18667
̊	-18668
͞	-18669
ά	-18670
έ	-18671
ί	-18672
η	-18673
Ж	-18674
،	-18675
؟	-18676
ء	-18677
ه	-18678
ً	-18679
अ	-18680
आ	-18681
ख	-18682
ज	-18683
थ	-18684
ि	-18685
ব	-18686
র	-18687
ল	-18688
ি	-18689
ু	-18690
ਤ	-18691
ਬ	-18692
ਾ	-18693
ੁ	-18694
ผ	-18695
ศ	-18696
ษ	-18697
ბ	-18698
ე	-18699
მ	-18700
ო	-18701
ủ	-18702
∧	-18703
⊆	-18704
┌	-18705
○	-18706
⟨	-18707
〈	-18708
〉	-18709
ヌ	-18710
仃	-18711
佔	-18712
佘	-18713
併	-18714
侔	-18715
侥	-18716
侪	-18717
俞	-18718
偌	-18719
儆	-18720
儷	-18721
児	-18722
兖	-18723
冢	-18724
刪	-18725
剌	-18726
剝	-18727
剣	-18728
匂	-18729
厩	-18730
吆	-18731
吩	-18732
咝	-18733
咧	-18734
咲	-18735
唔	-18736
唷	-18737
啞	-18738
啧	-18739
喚	-18740
喫	-18741
喽	-18742
嗖	-18743
嗟	-18744
嗲	-18745
噎	-18746
噔	-18747
噱	-18748
噶	-18749
坨	-18750
堇	-18751
墒	-18752
墳	-18753
壘	-18754
壟	-18755
奘	-18756
姝	-18757
婕	-18758
孚	-18759
尹	-18760
屐	-18761
岘	-18762
峒	-18763
崆	-18764
嵯	-18765
嶄	-18766
巒	-18767
巳	-18768
巽	-18769
帥	-18770
幄	-18771
庑	-18772
廚	-18773
徼	-18774
忻	-18775
悻	-18776
惮	-18777
惴	-18778
慊	-18779
懇	-18780
懲	-18781
戌	-18782
戎	-18783
抿	-18784
挝	-18785
揍	-18786
揺	-18787
搗	-18788
搪	-18789
搶	-18790
撓	-18791
擋	-18792
擷	-18793
攤	-18794
攪	-18795
斎	-18796
斡	-18797
晉	-18798
晢	-18799
暈	-18800
曉	-18801
杈	-18802
杓	-18803
杳	-18804
柒	-18805
梆	-18806
棣	-18807
榮	-18808
樑	-18809
檩	-18810
殃	-18811
氘	-18812
汆	-18813
泓	-18814
泯	-18815
泾	-18816
洄	-18817
洙	-18818
洩	-18819
浃	-18820
淞	-18821
淩	-18822
淵	-18823
渥	-18824
渦	-18825
滁	-18826
漕	-18827
潍	-18828
濁	-18829
濱	-18830
灑	-18831
炝	-18832
炷	-18833
煜	-18834
燉	-18835
燚	-18836
燭	-18837
燻	-18838
爍	-18839
爲	-18840
牖	-18841
犊	-18842
犠	-18843
獸	-18844
玳	-18845
珥	-18846
琦	-18847
瑁	-18848
璎	-18849
瓒	-18850
瓤	-18851
瓯	-18852
甦	-18853
甪	-18854
甬	-18855
畢	-18856
畳	-18857
疖	-18858
痈	-18859
痞	-18860
痢	-18861
痣	-18862
瘋	-18863
眈	-18864
眦	-18865
矍	-18866
矸	-18867
砝	-18868
砲	-18869
磯	-18870
禪	-18871
稔	-18872
稷	-18873
笤	-18874
筜	-18875
筮	-18876
筼	-18877
箇	-18878
篑	-18879
篓	-18880
粕	-18881
粳	-18882
粵	-18883
糬	-18884
糰	-18885
糾	-18886
絢	-18887
綱	-18888
綴	-18889
綵	-18890
綺	-18891
緣	-18892
縈	-18893
繋	-18894
繹	-18895
绔	-18896
绗	-18897
绡	-18898
绫	-18899
缄	-18900
缟	-18901
缨	-18902
缰	-18903
缶	-18904
耧	-18905
耵	-18906
聍	-18907
聒	-18908
聳	-18909
胭	-18910
胯	-18911
脲	-18912
腆	-18913
腼	-18914
膈	-18915
膻	-18916
舖	-18917
舷	-18918
芰	-18919
苜	-18920
莳	-18921
菟	-18922
萜	-18923
葙	-18924
葳	-18925
蓊	-18926
蓖	-18927
蓿	-18928
蔵	-18929
蔺	-18930
蕤	-18931
薜	-18932
薹	-18933
虻	-18934
蛩	-18935
蛱	-18936
螞	-18937
螯	-18938
蟠	-18939
蟻	-18940
衙	-18941
袢	-18942
裆	-18943
褲	-18944
襁	-18945
觊	-18946
觎	-18947
觐	-18948
觞	-18949
訟	-18950
詠	-18951
詰	-18952
謂	-18953
讷	-18954
诟	-18955
谄	-18956
谆	-18957
谒	-18958
豇	-18959
豬	-18960
賢	-18961
贠	-18962
赈	-18963
赊	-18964
趺	-18965
跏	-18966
蹋	-18967
轟	-18968
辔	-18969
遴	-18970
遶	-18971
邑	-18972
邢	-18973
鄰	-18974
鄱	-18975
醸	-18976
釀	-18977
釐	-18978
鈉	-18979
銜	-18980
銭	-18981
鋒	-18982
鍊	-18983
鎂	-18984
鐺	-18985
钆	-18986
钬	-18987
钷	-18988
铄	-18989
铈	-18990
铒	-18991
铕	-18992
铽	-18993
锝	-18994
锺	-18995
镝	-18996
镥	-18997
镨	-18998
镱	-18999
闆	-19000
闇	-19001
阜	-19002
隣	-19003
靚	-19004
頗	-19005
颍	-19006
颦	-19007
颶	-19008
饅	-19009
馔	-19010
駒	-19011
駱	-19012
騒	-19013
騻	-19014
骞	-19015
髪	-19016
鬻	-19017
鯊	-19018
鲅	-19019
鲛	-19020
鲣	-19021
鲦	-19022
鲵	-19023
鲷	-19024
鳊	-19025
鳝	-19026
鳢	-19027
鴞	-19028
鵝	-19029
鶏	-19030
鸲	-19031
鹬	-19032
鹹	-19033
麾	-19034
黍	-19035
黝	-19036
龚	-19037
鿫	-19038
갈	-19039
그	-19040
긍	-19041
께	-19042
난	-19043
내	-19044
능	-19045
든	-19046
떻	-19047
럼	-19048
마	-19049
무	-19050
밀	-19051
법	-19052
스	-19053
신	-19054
실	-19055
심	-19056
언	-19057
입	-19058
작	-19059
제	-19060
좁	-19061
지	-19062
진	-19063
처	-19064
키	-19065
트	-19066
화	-19067
황	-19068
히	-19069
🇭	-19070
🌸	-19071
🍹	-19072
🎁	-19073
🎈	-19074
🏊	-19075
🏋	-19076
🏝	-19077
🏫	-19078
🐮	-19079
👌	-19080
💡	-19081
💼	-19082
🔥	-19083
😉	-19084
😎	-19085
😱	-19086
😴	-19087
🚦	-19088
𩽾	-19089
𩾌	-19090
®	-19091
Å	-19092
Ç	-19093
Ó	-19094
Ø	-19095
å	-19096
ă	-19097
ą	-19098
ż	-19099
Ǎ	-19100
ǜ	-19101
ɹ	-19102
ʊ	-19103
̵	-19104
͡	-19105
Α	-19106
Φ	-19107
ή	-19108
δ	-19109
κ	-19110
χ	-19111
І	-19112
Ш	-19113
Щ	-19114
ئ	-19115
ث	-19116
ذ	-19117
ش	-19118
غ	-19119
ق	-19120
ए	-19121
ओ	-19122
औ	-19123
च	-19124
ण	-19125
ब	-19126
भ	-19127
ल	-19128
ळ	-19129
व	-19130
ष	-19131
ই	-19132
এ	-19133
খ	-19134
ট	-19135
ত	-19136
দ	-19137
প	-19138
স	-19139
া	-19140
ী	-19141
ো	-19142
্	-19143
ਇ	-19144
ਣ	-19145
ਦ	-19146
ਨ	-19147
ਪ	-19148
ਰ	-19149
ਵ	-19150
ਸ	-19151
ੈ	-19152
ੋ	-19153
ੰ	-19154
ธ	-19155
ฮ	-19156
๋	-19157
ვ	-19158
თ	-19159
ნ	-19160
ტ	-19161
უ	-19162
ყ	-19163
ძ	-19164
წ	-19165
ჯ	-19166
ṓ	-19167
ạ	-19168
ấ	-19169
ố	-19170
ợ	-19171
ἰ	-19172
‰	-19173
↓	-19174
↘	-19175
⇌	-19176
∥	-19177
∴	-19178
∵	-19179
⌈	-19180
⌉	-19181
⌊	-19182
⌋	-19183
┐	-19184
└	-19185
■	-19186
☆	-19187
☎	-19188
☕	-19189
☺	-19190
☿	-19191
♁	-19192
♃	-19193
♄	-19194
♅	-19195
♆	-19196
⛈	-19197
✔	-19198
✕	-19199
✨	-19200
❤	-19201
➡	-19202
➢	-19203
⨉	-19204
⬜	-19205
ぬ	-19206
ぴ	-19207
ぷ	-19208
ゥ	-19209
䓬	-19210
䚒	-19211
䣵	-19212
䥺	-19213
亍	-19214
亳	-19215
仝	-19216
佝	-19217
佤	-19218
佾	-19219
侑	-19220
侗	-19221
侶	-19222
侷	-19223
俎	-19224
倜	-19225
倪	-19226
偻	-19227
偽	-19228
傀	-19229
傢	-19230
傥	-19231
傭	-19232
儡	-19233
兇	-19234
兺	-19235
冑	-19236
冨	-19237
凇	-19238
刍	-19239
刎	-19240
剐	-19241
劒	-19242
劵	-19243
勁	-19244
勐	-19245
勖	-19246
匾	-19247
叁	-19248
叱	-19249
叻	-19250
吋	-19251
吔	-19252
吡	-19253
吭	-19254
吲	-19255
呸	-19256
咍	-19257
咣	-19258
咤	-19259
哏	-19260
哐	-19261
哙	-19262
哚	-19263
唄	-19264
唢	-19265
唳	-19266
唸	-19267
啕	-19268
啲	-19269
啷	-19270
喹	-19271
嘅	-19272
嘢	-19273
嘬	-19274
噁	-19275
嚀	-19276
嚒	-19277
嚱	-19278
囉	-19279
囔	-19280
坳	-19281
垛	-19282
埂	-19283
埠	-19284
埴	-19285
堉	-19286
堠	-19287
塢	-19288
塾	-19289
墉	-19290
墜	-19291
墻	-19292
壹	-19293
奪	-19294
奭	-19295
妝	-19296
妤	-19297
妬	-19298
姉	-19299
娉	-19300
婢	-19301
嫖	-19302
嫫	-19303
嬗	-19304
孑	-19305
孺	-19306
寇	-19307
寛	-19308
寮	-19309
屛	-19310
岰	-19311
岷	-19312
崗	-19313
嵬	-19314
嵸	-19315
嶽	-19316
巇	-19317
巘	-19318
巣	-19319
帏	-19320
帔	-19321
帛	-19322
幡	-19323
廁	-19324
廈	-19325
廋	-19326
廟	-19327
廿	-19328
弩	-19329
弾	-19330
彐	-19331
彳	-19332
彿	-19333
徕	-19334
徬	-19335
忭	-19336
怛	-19337
恺	-19338
悹	-19339
惇	-19340
惔	-19341
慘	-19342
慟	-19343
慾	-19344
懑	-19345
戸	-19346
扈	-19347
扌	-19348
抟	-19349
抡	-19350
抻	-19351
拄	-19352
挎	-19353
捎	-19354
捗	-19355
掇	-19356
掣	-19357
掲	-19358
掴	-19359
掾	-19360
揀	-19361
揖	-19362
搆	-19363
搾	-19364
摟	-19365
撥	-19366
撲	-19367
撵	-19368
擱	-19369
攫	-19370
敍	-19371
斉	-19372
斕	-19373
旌	-19374
晔	-19375
晝	-19376
晧	-19377
晩	-19378
暠	-19379
暻	-19380
曆	-19381
朐	-19382
朕	-19383
杵	-19384
杷	-19385
枇	-19386
枞	-19387
枭	-19388
柞	-19389
柵	-19390
栢	-19391
桀	-19392
桅	-19393
桜	-19394
桢	-19395
梠	-19396
棟	-19397
棹	-19398
椀	-19399
椴	-19400
槁	-19401
槎	-19402
槭	-19403
樯	-19404
樸	-19405
橐	-19406
橼	-19407
欽	-19408
歆	-19409
歎	-19410
殁	-19411
殒	-19412
殡	-19413
毀	-19414
毓	-19415
汎	-19416
汙	-19417
汴	-19418
汾	-19419
沂	-19420
洫	-19421
洶	-19422
浔	-19423
浥	-19424
涞	-19425
涪	-19426
淝	-19427
淸	-19428
湊	-19429
湧	-19430
湫	-19431
湮	-19432
溏	-19433
溟	-19434
溲	-19435
溽	-19436
滌	-19437
滝	-19438
滢	-19439
滾	-19440
漁	-19441
漳	-19442
漶	-19443
潆	-19444
潼	-19445
澀	-19446
澍	-19447
澗	-19448
澱	-19449
濠	-19450
瀉	-19451
瀕	-19452
瀰	-19453
炕	-19454
焜	-19455
煅	-19456
煥	-19457
燮	-19458
燴	-19459
爨	-19460
牍	-19461
牦	-19462
牽	-19463
牾	-19464
犇	-19465
犍	-19466
狁	-19467
狎	-19468
猃	-19469
猝	-19470
猶	-19471
獄	-19472
獣	-19473
獴	-19474
玅	-19475
玖	-19476
玥	-19477
珩	-19478
琭	-19479
琮	-19480
瑛	-19481
瑩	-19482
瑪	-19483
璠	-19484
瓏	-19485
瓿	-19486
甥	-19487
甯	-19488
畿	-19489
疇	-19490
痠	-19491
瘁	-19492
瘧	-19493
癔	-19494
癞	-19495
皖	-19496
盥	-19497
盪	-19498
睇	-19499
睗	-19500
睞	-19501
睾	-19502
瞿	-19503
矯	-19504
矾	-19505
砭	-19506
砻	-19507
碁	-19508
碛	-19509
磻	-19510
祎	-19511
祕	-19512
祯	-19513
禎	-19514
禱	-19515
穢	-19516
窓	-19517
窩	-19518
竊	-19519
竽	-19520
筍	-19521
筵	-19522
箏	-19523
箩	-19524
箴	-19525
箸	-19526
篙	-19527
篤	-19528
簷	-19529
籠	-19530
籤	-19531
籲	-19532
粛	-19533
粢	-19534
糗	-19535
糞	-19536
糸	-19537
糺	-19538
紓	-19539
絆	-19540
絞	-19541
綻	-19542
緬	-19543
縁	-19544
縠	-19545
縣	-19546
縱	-19547
繃	-19548
繚	-19549
纰	-19550
纴	-19551
绀	-19552
绾	-19553
缇	-19554
缲	-19555
罟	-19556
罡	-19557
罥	-19558
罰	-19559
羈	-19560
羣	-19561
翌	-19562
翓	-19563
聩	-19564
聱	-19565
聿	-19566
肅	-19567
胝	-19568
胥	-19569
胨	-19570
胫	-19571
胼	-19572
腈	-19573
腚	-19574
腧	-19575
膩	-19576
膵	-19577
膾	-19578
臾	-19579
舗	-19580
舢	-19581
舳	-19582
艦	-19583
芃	-19584
苄	-19585
茍	-19586
茬	-19587
茭	-19588
茹	-19589
茼	-19590
荘	-19591
荪	-19592
莊	-19593
莢	-19594
莼	-19595
菀	-19596
菡	-19597
萏	-19598
萵	-19599
葚	-19600
葩	-19601
蒌	-19602
蒐	-19603
蒓	-19604
蓐	-19605
蓮	-19606
蓴	-19607
蓼	-19608
蕲	-19609
薑	-19610
藩	-19611
藿	-19612
蘂	-19613
蘆	-19614
蘚	-19615
蚋	-19616
蚬	-19617
蚺	-19618
蛉	-19619
蛔	-19620
蛞	-19621
蜉	-19622
蜮	-19623
蝓	-19624
蝕	-19625
蝣	-19626
蝼	-19627
螟	-19628
蟥	-19629
蠊	-19630
蠍	-19631
蠣	-19632
衾	-19633
袂	-19634
袄	-19635
裥	-19636
裾	-19637
褓	-19638
褛	-19639
褴	-19640
襠	-19641
襪	-19642
觥	-19643
訃	-19644
訝	-19645
訣	-19646
詐	-19647
詛	-19648
誊	-19649
謇	-19650
謹	-19651
讐	-19652
讥	-19653
讧	-19654
讫	-19655
诏	-19656
诛	-19657
诨	-19658
诮	-19659
诿	-19660
谀	-19661
谶	-19662
貘	-19663
貪	-19664
賑	-19665
賛	-19666
賠	-19667
贅	-19668
贲	-19669
赦	-19670
趙	-19671
跄	-19672
跼	-19673
踉	-19674
踘	-19675
蹀	-19676
蹜	-19677
蹩	-19678
蹶	-19679
躞	-19680
轕	-19681
辭	-19682
辶	-19683
辻	-19684
迂	-19685
迱	-19686
遅	-19687
遑	-19688
遢	-19689
遼	-19690
邈	-19691
邋	-19692
郝	-19693
郷	-19694
鄞	-19695
酉	-19696
酐	-19697
酲	-19698
酹	-19699
醌	-19700
醍	-19701
醐	-19702
醑	-19703
醜	-19704
醴	-19705
釧	-19706
鉛	-19707
銘	-19708
銮	-19709
鋭	-19710
鋰	-19711
錶	-19712
鎌	-19713
鎏	-19714
鎶	-19715
鑰	-19716
钎	-19717
钣	-19718
钧	-19719
钿	-19720
铖	-19721
铙	-19722
铣	-19723
铳	-19724
铹	-19725
锎	-19726
锏	-19727
锘	-19728
锞	-19729
锫	-19730
锹	-19731
锿	-19732
镄	-19733
镅	-19734
镎	-19735
镔	-19736
闼	-19737
阆	-19738
阒	-19739
阗	-19740
陂	-19741
陲	-19742
隅	-19743
隕	-19744
雉	-19745
霊	-19746
霎	-19747
靼	-19748
鞄	-19749
韬	-19750
頔	-19751
頫	-19752
頬	-19753
颀	-19754
颙	-19755
颛	-19756
颢	-19757
颱	-19758
飢	-19759
餓	-19760
饗	-19761
饘	-19762
饧	-19763
馊	-19764
馐	-19765
馳	-19766
駁	-19767
驮	-19768
驵	-19769
驷	-19770
骅	-19771
骜	-19772
骡	-19773
骥	-19774
髂	-19775
髯	-19776
鬘	-19777
鮨	-19778
鱗	-19779
鲀	-19780
鲉	-19781
鲋	-19782
鲎	-19783
鲥	-19784
鲩	-19785
鲱	-19786
鲳	-19787
鳙	-19788
鳶	-19789
鴈	-19790
鴨	-19791
鴻	-19792
鷹	-19793
鸨	-19794
鸩	-19795
鸪	-19796
鸰	-19797
鹀	-19798
鹆	-19799
鹗	-19800
鹞	-19801
鹡	-19802
鹧	-19803
鹩	-19804
麴	-19805
黜	-19806
黠	-19807
鼙	-19808
鼣	-19809
鼱	-19810
齡	-19811
龇	-19812
龊	-19813
龌	-19814
龐	-19815
龜	-19816
鿏	-19817
鿬	-19818
鿭	-19819
鿮	-19820
鿲	-19821
같	-19822
결	-19823
경	-19824
공	-19825
관	-19826
교	-19827
궁	-19828
금	-19829
까	-19830
냄	-19831
늕	-19832
답	-19833
던	-19834
되	-19835
드	-19836
등	-19837
디	-19838
때	-19839
떤	-19840
란	-19841
람	-19842
랑	-19843
러	-19844
럽	-19845
력	-19846
록	-19847
류	-19848
름	-19849
린	-19850
릴	-19851
말	-19852
메	-19853
멘	-19854
며	-19855
모	-19856
문	-19857
받	-19858
벗	-19859
병	-19860
복	-19861
본	-19862
봤	-19863
부	-19864
분	-19865
새	-19866
선	-19867
속	-19868
솔	-19869
써	-19870
않	-19871
았	-19872
억	-19873
얼	-19874
업	-19875
엇	-19876
여	-19877
역	-19878
연	-19879
왜	-19880
우	-19881
운	-19882
위	-19883
유	-19884
잘	-19885
저	-19886
전	-19887
조	-19888
족	-19889
좀	-19890
줄	-19891
줍	-19892
질	-19893
짧	-19894
채	-19895
쵔	-19896
추	-19897
코	-19898
턴	-19899
파	-19900
표	-19901
합	-19902
험	-19903
현	-19904
회	-19905
효	-19906
	-19907
	-19908
🇩	-19909
🇮	-19910
🇵	-19911
🇹	-19912
🌤	-19913
🌨	-19914
🌪	-19915
🌬	-19916
🌲	-19917
🌷	-19918
🍃	-19919
🍅	-19920
🍝	-19921
🍯	-19922
🍲	-19923
🍵	-19924
🍽	-19925
🎊	-19926
🎤	-19927
🎶	-19928
🏍	-19929
🏖	-19930
🏜	-19931
🏞	-19932
🏡	-19933
🏰	-19934
🐄	-19935
🐔	-19936
🐖	-19937
🐙	-19938
🐟	-19939
🐦	-19940
🐶	-19941
👀	-19942
👦	-19943
👧	-19944
👻	-19945
💃	-19946
💜	-19947
💥	-19948
💦	-19949
💭	-19950
📝	-19951
📢	-19952
📸	-19953
😃	-19954
😄	-19955
😆	-19956
😋	-19957
😍	-19958
😒	-19959
😜	-19960
😠	-19961
😮	-19962
😯	-19963
😲	-19964
🙃	-19965
🙏	-19966
🚀	-19967
🚲	-19968
🚶	-19969
🛴	-19970
🛵	-19971
🛹	-19972
🤖	-19973
🤩	-19974
🥑	-19975
🥣	-19976
🥩	-19977
🦋	-19978
🧂	-19979
🧄	-19980
🧅	-19981
🧑	-19982
🧠	-19983
𬬻	-19984
𬭊	-19985
𬭛	-19986
𬭶	-19987
􏰀	-19988
